{"token2id": {"<pad>": 0, "<sos>": 1, "<eos>": 2, "<unk>": 3, "\u0004": 4, "\n": 5, "!": 6, "\"": 7, "#": 8, "$": 9, "%": 10, "&": 11, "'": 12, "(": 13, ")": 14, "*": 15, "+": 16, ",": 17, "-": 18, ".": 19, "/": 20, "0": 21, "1": 22, "2": 23, "3": 24, "4": 25, "5": 26, "6": 27, "7": 28, "8": 29, "9": 30, ":": 31, ";": 32, "<": 33, "=": 34, ">": 35, "?": 36, "@": 37, "[": 38, "\\": 39, "]": 40, "^": 41, "`": 42, "a": 43, "b": 44, "c": 45, "d": 46, "e": 47, "f": 48, "g": 49, "h": 50, "i": 51, "j": 52, "k": 53, "l": 54, "m": 55, "n": 56, "o": 57, "p": 58, "q": 59, "r": 60, "s": 61, "t": 62, "u": 63, "v": 64, "w": 65, "x": 66, "y": 67, "z": 68, "{": 69, "|": 70, "}": 71, "~": 72, "£": 73, "¦": 74, "§": 75, "¨": 76, "©": 77, "«": 78, "¬": 79, "®": 80, "¯": 81, "°": 82, "±": 83, "´": 84, "·": 85, "¸": 86, "»": 87, "ि": 88, "ी": 89, "्": 90, "়": 91, "া": 92, "ী": 93, "ி": 94, "ั": 95, "ี": 96, "่": 97, "้": 98, "​": 99, "‍": 100, "‒": 101, "–": 102, "—": 103, "‘": 104, "’": 105, "‛": 106, "“": 107, "”": 108, "„": 109, "•": 110, "‣": 111, "…": 112, "⁔": 113, "€": 114, "™": 115, "←": 116, "↑": 117, "→": 118, "↔": 119, "↦": 120, "⇒": 121, "∀": 122, "∂": 123, "∈": 124, "−": 125, "≠": 126, "≤": 127, "≥": 128, "⌟": 129, "⌾": 130, "⏳": 131, "─": 132, "│": 133, "┌": 134, "┐": 135, "└": 136, "┘": 137, "├": 138, "┴": 139, "┼": 140, "═": 141, "║": 142, "╔": 143, "╗": 144, "╘": 145, "╚": 146, "╛": 147, "╝": 148, "╟": 149, "╠": 150, "╢": 151, "╣": 152, "╤": 153, "▀": 154, "▄": 155, "█": 156, "▒": 157, "▬": 158, "♀": 159, "⚠": 160, "✅": 161, "✊": 162, "✓": 163, "✔": 164, "✖": 165, "✗": 166, "✘": 167, "❤": 168, "⠀": 169, "⬆": 170, "⬇": 171, "⸨": 172, "⸩": 173, "、": 174, "。": 175, "「": 176, "」": 177, "": 178, "": 179, "️": 180, "（": 181, "）": 182, "，": 183, "：": 184, "；": 185, "？": 186, "￼": 187, "�": 188, "🇪": 189, "🇸": 190, "🌈": 191, "🍳": 192, "🎉": 193, "🏳": 194, "🏾": 195, "👍": 196, "👮": 197, "📖": 198, "😁": 199, "😭": 200, "🚀": 201, "🛫": 202, "re": 203, "in": 204, "on": 205, "er": 206, "th": 207, "en": 208, "at": 209, "st": 210, "se": 211, "de": 212, "or": 213, "co": 214, "al": 215, "ion": 216, "ar": 217, "le": 218, "an": 219, "me": 220, "ent": 221, "ur": 222, "ct": 223, "is": 224, "the": 225, "ce": 226, "if": 227, "ge": 228, "ro": 229, "it": 230, "ue": 231, "ut": 232, "un": 233, "ing": 234, "ch": 235, "fi": 236, "to": 237, "ment": 238, "con": 239, "ret": 240, "ame": 241, "res": 242, "as": 243, "ate": 244, "ex": 245, "urn": 246, "com": 247, "return": 248, "id": 249, "li": 250, "lo": 251, "ad": 252, "get": 253, "pt": 254, "val": 255, "code": 256, "pe": 257, "for": 258, "ul": 259, "name": 260, "il": 261, "ed": 262, "el": 263, "pa": 264, "this": 265, "no": 266, "tr": 267, "str": 268, "ne": 269, "comment": 270, "ction": 271, "ap": 272, "par": 273, "of": 274, "err": 275, "and": 276, "set": 277, "end": 278, "ation": 279, "ck": 280, "pro": 281, "ty": 282, "value": 283, "ter": 284, "fun": 285, "ser": 286, "ption": 287, "req": 288, "es": 289, "ab": 290, "up": 291, "am": 292, "ke": 293, "def": 294, "mo": 295, "po": 296, "ss": 297, "ma": 298, "cont": 299, "type": 300, "sel": 301, "new": 302, "ra": 303, "self": 304, "put": 305, "be": 306, "file": 307, "ext": 308, "ata": 309, "di": 310, "do": 311, "int": 312, "ver": 313, "string": 314, "per": 315, "ult": 316, "cl": 317, "ob": 318, "em": 319, "function": 320, "vi": 321, "all": 322, "ub": 323, "key": 324, "ect": 325, "data": 326, "uest": 327, "out": 328, "error": 329, "ri": 330, "request": 331, "ti": 332, "our": 333, "um": 334, "ve": 335, "ass": 336, "list": 337, "ren": 338, "obj": 339, "pl": 340, "ource": 341, "path": 342, "not": 343, "option": 344, "wi": 345, "fo": 346, "lic": 347, "ic": 348, "add": 349, "able": 350, "he": 351, "var": 352, "si": 353, "bo": 354, "ta": 355, "len": 356, "with": 357, "ase": 358, "mat": 359, "param": 360, "pon": 361, "ull": 362, "ray": 363, "sh": 364, "array": 365, "col": 366, "age": 367, "sc": 368, "resource": 369, "arg": 370, "ht": 371, "date": 372, "object": 373, "nil": 374, "one": 375, "ol": 376, "qu": 377, "ers": 378, "ort": 379, "che": 380, "use": 381, "time": 382, "node": 383, "options": 384, "result": 385, "respon": 386, "bu": 387, "else": 388, "cre": 389, "input": 390, "fro": 391, "eld": 392, "te": 393, "lin": 394, "ance": 395, "from": 396, "ust": 397, "ig": 398, "null": 399, "by": 400, "fig": 401, "class": 402, "app": 403, "ord": 404, "row": 405, "valid": 406, "response": 407, "log": 408, "sion": 409, "config": 410, "pub": 411, "us": 412, "stat": 413, "rent": 414, "field": 415, "ack": 416, "inst": 417, "cur": 418, "exce": 419, "gi": 420, "od": 421, "vice": 422, "pre": 423, "inde": 424, "public": 425, "act": 426, "index": 427, "true": 428, "create": 429, "ind": 430, "meth": 431, "head": 432, "red": 433, "ze": 434, "port": 435, "ib": 436, "call": 437, "fal": 438, "method": 439, "mode": 440, "attr": 441, "read": 442, "false": 443, "context": 444, "ity": 445, "wh": 446, "we": 447, "art": 448, "fe": 449, "output": 450, "la": 451, "op": 452, "ca": 453, "exception": 454, "im": 455, "gro": 456, "has": 457, "ip": 458, "ild": 459, "om": 460, "url": 461, "service": 462, "user": 463, "ev": 464, "lement": 465, "num": 466, "spe": 467, "update": 468, "map": 469, "ition": 470, "func": 471, "ace": 472, "scri": 473, "wr": 474, "gth": 475, "group": 476, "instance": 477, "length": 478, "ger": 479, "unt": 480, "und": 481, "sy": 482, "cess": 483, "that": 484, "ill": 485, "ault": 486, "ument": 487, "params": 488, "sub": 489, "item": 490, "cal": 491, "are": 492, "ange": 493, "mess": 494, "event": 495, "element": 496, "ameter": 497, "start": 498, "parameter": 499, "message": 500, "ac": 501, "back": 502, "default": 503, "form": 504, "ly": 505, "fil": 506, "ory": 507, "ule": 508, "ain": 509, "ure": 510, "check": 511, "ute": 512, "ans": 513, "min": 514, "model": 515, "ifi": 516, "proper": 517, "cli": 518, "api": 519, "info": 520, "none": 521, "spec": 522, "args": 523, "ken": 524, "pos": 525, "load": 526, "state": 527, "tag": 528, "so": 529, "line": 530, "ven": 531, "text": 532, "ach": 533, "token": 534, "format": 535, "js": 536, "attrib": 537, "ho": 538, "ite": 539, "case": 540, "inter": 541, "tp": 542, "count": 543, "hand": 544, "returns": 545, "comm": 546, "will": 547, "given": 548, "match": 549, "ise": 550, "lock": 551, "ator": 552, "size": 553, "quer": 554, "mod": 555, "ber": 556, "throw": 557, "content": 558, "cust": 559, "custom": 560, "headers": 561, "current": 562, "ali": 563, "http": 564, "iter": 565, "query": 566, "doc": 567, "client": 568, "descri": 569, "dele": 570, "ll": 571, "au": 572, "ist": 573, "trans": 574, "low": 575, "base": 576, "ple": 577, "filter": 578, "pr": 579, "ener": 580, "ded": 581, "rect": 582, "tem": 583, "max": 584, "ther": 585, "page": 586, "oper": 587, "remo": 588, "version": 589, "pri": 590, "ay": 591, "ml": 592, "wor": 593, "pres": 594, "ok": 595, "pi": 596, "json": 597, "ive": 598, "ot": 599, "work": 600, "values": 601, "atch": 602, "contain": 603, "send": 604, "py": 605, "table": 606, "ated": 607, "ui": 608, "ary": 609, "can": 610, "action": 611, "ts": 612, "lect": 613, "resources": 614, "dir": 615, "gr": 616, "ies": 617, "point": 618, "ry": 619, "run": 620, "conne": 621, "invalid": 622, "dis": 623, "parse": 624, "static": 625, "ask": 626, "man": 627, "defin": 628, "argument": 629, "build": 630, "tar": 631, "wn": 632, "property": 633, "colum": 634, "column": 635, "parameters": 636, "number": 637, "fix": 638, "fin": 639, "source": 640, "server": 641, "delete": 642, "ms": 643, "av": 644, "gin": 645, "names": 646, "target": 647, "opt": 648, "raise": 649, "auth": 650, "operation": 651, "block": 652, "fir": 653, "direct": 654, "whi": 655, "each": 656, "next": 657, "00": 658, "fore": 659, "gener": 660, "et": 661, "parent": 662, "ave": 663, "word": 664, "try": 665, "status": 666, "exist": 667, "lection": 668, "ject": 669, "dy": 670, "ref": 671, "append": 672, "ff": 673, "ified": 674, "vie": 675, "off": 676, "const": 677, "led": 678, "view": 679, "ces": 680, "first": 681, "lab": 682, "su": 683, "write": 684, "fa": 685, "find": 686, "child": 687, "der": 688, "ima": 689, "range": 690, "clo": 691, "place": 692, "print": 693, "command": 694, "handl": 695, "attribute": 696, "rec": 697, "char": 698, "image": 699, "hash": 700, "pty": 701, "arch": 702, "label": 703, "local": 704, "ang": 705, "empty": 706, "change": 707, "ec": 708, "sho": 709, "net": 710, "uct": 711, "db": 712, "module": 713, "its": 714, "sig": 715, "bind": 716, "select": 717, "uld": 718, "ils": 719, "cache": 720, "stre": 721, "wid": 722, "sup": 723, "ak": 724, "used": 725, "requi": 726, "entity": 727, "sto": 728, "clu": 729, "link": 730, "uration": 731, "vel": 732, "stream": 733, "ws": 734, "body": 735, "dep": 736, "ph": 737, "callback": 738, "nc": 739, "pass": 740, "ates": 741, "loc": 742, "utes": 743, "process": 744, "sing": 745, "last": 746, "ting": 747, "init": 748, "remove": 749, "lean": 750, "vo": 751, "ific": 752, "keys": 753, "ep": 754, "files": 755, "when": 756, "ations": 757, "ial": 758, "sets": 759, "feren": 760, "connection": 761, "ard": 762, "only": 763, "vari": 764, "rel": 765, "pace": 766, "opts": 767, "contro": 768, "whe": 769, "document": 770, "task": 771, "bre": 772, "other": 773, "entry": 774, "mar": 775, "regi": 776, "collection": 777, "jo": 778, "ag": 779, "polic": 780, "cond": 781, "logger": 782, "tern": 783, "root": 784, "templ": 785, "fields": 786, "break": 787, "handler": 788, "main": 789, "order": 790, "final": 791, "ree": 792, "post": 793, "rule": 794, "vate": 795, "que": 796, "met": 797, "replace": 798, "sign": 799, "face": 800, "io": 801, "any": 802, "bug": 803, "offset": 804, "exec": 805, "specified": 806, "af": 807, "host": 808, "pack": 809, "private": 810, "policy": 811, "iz": 812, "ight": 813, "ssion": 814, "level": 815, "np": 816, "sed": 817, "ant": 818, "ci": 819, "less": 820, "sty": 821, "must": 822, "ify": 823, "ress": 824, "vis": 825, "search": 826, "found": 827, "header": 828, "cor": 829, "join": 830, "debug": 831, "pat": 832, "mis": 833, "lay": 834, "prefix": 835, "width": 836, "ush": 837, "equ": 838, "dict": 839, "position": 840, "ong": 841, "tes": 842, "binding": 843, "sco": 844, "uri": 845, "ron": 846, "errors": 847, "session": 848, "referen": 849, "old": 850, "which": 851, "html": 852, "stem": 853, "open": 854, "template": 855, "os": 856, "ctx": 857, "inclu": 858, "dat": 859, "iali": 860, "results": 861, "attributes": 862, "configuration": 863, "asy": 864, "sert": 865, "store": 866, "access": 867, "conver": 868, "aws": 869, "record": 870, "resol": 871, "mer": 872, "describe": 873, "spl": 874, "lename": 875, "metad": 876, "part": 877, "directory": 878, "metadata": 879, "filename": 880, "mit": 881, "flo": 882, "struct": 883, "reg": 884, "raw": 885, "style": 886, "setting": 887, "but": 888, "container": 889, "defined": 890, "mem": 891, "boo": 892, "ply": 893, "should": 894, "ample": 895, "have": 896, "ster": 897, "timeout": 898, "full": 899, "md": 900, "ident": 901, "then": 902, "ension": 903, "ence": 904, "system": 905, "into": 906, "xml": 907, "ir": 908, "lication": 909, "arguments": 910, "boolean": 911, "sort": 912, "project": 913, "top": 914, "see": 915, "validate": 916, "buff": 917, "cle": 918, "items": 919, "cr": 920, "variable": 921, "ties": 922, "lang": 923, "deta": 924, "ifier": 925, "let": 926, "exists": 927, "async": 928, "required": 929, "sha": 930, "mp": 931, "tect": 932, "ally": 933, "properties": 934, "float": 935, "unless": 936, "ning": 937, "tree": 938, "enc": 939, "lob": 940, "interface": 941, "non": 942, "tch": 943, "iv": 944, "handle": 945, "ager": 946, "buffer": 947, "ign": 948, "inte": 949, "make": 950, "sr": 951, "ou": 952, "sum": 953, "pattern": 954, "ponent": 955, "fetch": 956, "ses": 957, "vid": 958, "present": 959, "br": 960, "win": 961, "ids": 962, "push": 963, "manager": 964, "mult": 965, "throws": 966, "exp": 967, "split": 968, "ual": 969, "types": 970, "ava": 971, "down": 972, "unk": 973, "ann": 974, "fol": 975, "cer": 976, "using": 977, "pop": 978, "ght": 979, "hel": 980, "color": 981, "fr": 982, "job": 983, "allow": 984, "comple": 985, "address": 986, "orig": 987, "ine": 988, "ted": 989, "application": 990, "ding": 991, "tags": 992, "tit": 993, "bool": 994, "component": 995, "void": 996, "reference": 997, "sym": 998, "orm": 999, "description": 1000, "fact": 1001, "copy": 1002, "msg": 1003, "same": 1004, "over": 1005, "sche": 1006, "aut": 1007, "equal": 1008, "extr": 1009, "war": 1010, "wa": 1011, "foreach": 1012, "ft": 1013, "fn": 1014, "title": 1015, "sq": 1016, "after": 1017, "pect": 1018, "controll": 1019, "scope": 1020, "mark": 1021, "byte": 1022, "include": 1023, "frame": 1024, "play": 1025, "where": 1026, "dest": 1027, "scal": 1028, "fl": 1029, "pression": 1030, "windo": 1031, "import": 1032, "grap": 1033, "stack": 1034, "close": 1035, "before": 1036, "prom": 1037, "provid": 1038, "you": 1039, "sk": 1040, "queue": 1041, "ature": 1042, "suc": 1043, "go": 1044, "graph": 1045, "support": 1046, "stop": 1047, "cate": 1048, "does": 1049, "glob": 1050, "prop": 1051, "merge": 1052, "kw": 1053, "wrap": 1054, "height": 1055, "controller": 1056, "sp": 1057, "ax": 1058, "asso": 1059, "limit": 1060, "while": 1061, "ready": 1062, "network": 1063, "igno": 1064, "elements": 1065, "meta": 1066, "apply": 1067, "pay": 1068, "tected": 1069, "location": 1070, "extension": 1071, "bytes": 1072, "builder": 1073, "utils": 1074, "norm": 1075, "settings": 1076, "ments": 1077, "integer": 1078, "annot": 1079, "formation": 1080, "uni": 1081, "catch": 1082, "plu": 1083, "datab": 1084, "ative": 1085, "termin": 1086, "box": 1087, "mon": 1088, "ns": 1089, "wait": 1090, "expression": 1091, "lag": 1092, "bin": 1093, "database": 1094, "clust": 1095, "left": 1096, "kwargs": 1097, "sw": 1098, "origin": 1099, "success": 1100, "day": 1101, "auto": 1102, "role": 1103, "device": 1104, "endpoint": 1105, "enable": 1106, "uble": 1107, "associ": 1108, "addition": 1109, "indi": 1110, "mt": 1111, "ens": 1112, "ility": 1113, "ish": 1114, "objects": 1115, "returned": 1116, "temp": 1117, "expect": 1118, "64": 1119, "double": 1120, "dif": 1121, "connect": 1122, "plugin": 1123, "sec": 1124, "itor": 1125, "ible": 1126, "ous": 1127, "ution": 1128, "10": 1129, "provi": 1130, "sim": 1131, "annel": 1132, "identifier": 1133, "stor": 1134, "nodes": 1135, "protected": 1136, "contin": 1137, "depend": 1138, "need": 1139, "ved": 1140, "uage": 1141, "channel": 1142, "proto": 1143, "envi": 1144, "language": 1145, "flag": 1146, "domain": 1147, "begin": 1148, "cket": 1149, "schema": 1150, "script": 1151, "environ": 1152, "prod": 1153, "ast": 1154, "coun": 1155, "window": 1156, "sin": 1157, "parser": 1158, "cluster": 1159, "author": 1160, "events": 1161, "cs": 1162, "ped": 1163, "promise": 1164, "namespace": 1165, "thing": 1166, "iled": 1167, "provider": 1168, "global": 1169, "ide": 1170, "right": 1171, "way": 1172, "bound": 1173, "active": 1174, "trace": 1175, "zer": 1176, "step": 1177, "save": 1178, "account": 1179, "there": 1180, "mission": 1181, "mail": 1182, "represent": 1183, "information": 1184, "encode": 1185, "ia": 1186, "avail": 1187, "long": 1188, "password": 1189, "alias": 1190, "ched": 1191, "site": 1192, "was": 1193, "package": 1194, "register": 1195, "cul": 1196, "single": 1197, "lines": 1198, "optional": 1199, "bl": 1200, "idx": 1201, "elif": 1202, "generate": 1203, "columns": 1204, "like": 1205, "second": 1206, "src": 1207, "isset": 1208, "convert": 1209, "helper": 1210, "sequ": 1211, "wo": 1212, "rt": 1213, "children": 1214, "df": 1215, "tal": 1216, "definition": 1217, "imp": 1218, "route": 1219, "sample": 1220, "profile": 1221, "now": 1222, "enco": 1223, "og": 1224, "abs": 1225, "web": 1226, "ignore": 1227, "math": 1228, "already": 1229, "chunk": 1230, "except": 1231, "sl": 1232, "core": 1233, "continue": 1234, "nit": 1235, "medi": 1236, "look": 1237, "report": 1238, "creates": 1239, "pool": 1240, "patch": 1241, "undefined": 1242, "ume": 1243, "condition": 1244, "env": 1245, "dist": 1246, "member": 1247, "uid": 1248, "contains": 1249, "sql": 1250, "render": 1251, "transl": 1252, "atta": 1253, "test": 1254, "cert": 1255, "ov": 1256, "bol": 1257, "seriali": 1258, "details": 1259, "note": 1260, "cat": 1261, "available": 1262, "seg": 1263, "resh": 1264, "resolve": 1265, "charact": 1266, "assert": 1267, "gex": 1268, "regex": 1269, "ug": 1270, "ptor": 1271, "permission": 1272, "lot": 1273, "ker": 1274, "categ": 1275, "fail": 1276, "factory": 1277, "shape": 1278, "more": 1279, "batch": 1280, "cance": 1281, "very": 1282, "own": 1283, "transform": 1284, "assign": 1285, "methods": 1286, "storage": 1287, "space": 1288, "emit": 1289, "specific": 1290, "syn": 1291, "decl": 1292, "determin": 1293, "mask": 1294, "matches": 1295, "mi": 1296, "retri": 1297, "sn": 1298, "expected": 1299, "environment": 1300, "total": 1301, "control": 1302, "construct": 1303, "stats": 1304, "nb": 1305, "criter": 1306, "matri": 1307, "amp": 1308, "based": 1309, "section": 1310, "failed": 1311, "cent": 1312, "gets": 1313, "strings": 1314, "payload": 1315, "may": 1316, "roll": 1317, "instanceof": 1318, "lower": 1319, "lib": 1320, "equals": 1321, "insert": 1322, "ds": 1323, "side": 1324, "statement": 1325, "apping": 1326, "listener": 1327, "scale": 1328, "bund": 1329, "cell": 1330, "paths": 1331, "pas": 1332, "symbol": 1333, "vol": 1334, "tmp": 1335, "posit": 1336, "itch": 1337, "zed": 1338, "sli": 1339, "rece": 1340, "buf": 1341, "locale": 1342, "export": 1343, "extract": 1344, "relation": 1345, "email": 1346, "comput": 1347, "xy": 1348, "intern": 1349, "writ": 1350, "ize": 1351, "criteria": 1352, "overr": 1353, "just": 1354, "matrix": 1355, "warning": 1356, "bundle": 1357, "yi": 1358, "mary": 1359, "parts": 1360, "pare": 1361, "than": 1362, "encoding": 1363, "descriptor": 1364, "thread": 1365, "called": 1366, "ud": 1367, "tup": 1368, "added": 1369, "ash": 1370, "commit": 1371, "constr": 1372, "sent": 1373, "edge": 1374, "provided": 1375, "product": 1376, "rows": 1377, "dependenc": 1378, "spect": 1379, "ics": 1380, "entic": 1381, "sequence": 1382, "execute": 1383, "nitro": 1384, "unit": 1385, "isinstance": 1386, "reader": 1387, "rand": 1388, "ors": 1389, "mach": 1390, "initiali": 1391, "attach": 1392, "authentic": 1393, "original": 1394, "track": 1395, "na": 1396, "ures": 1397, "rules": 1398, "typeof": 1399, "runtime": 1400, "ating": 1401, "skip": 1402, "groups": 1403, "calcul": 1404, "cept": 1405, "whether": 1406, "ten": 1407, "separ": 1408, "tokens": 1409, "prev": 1410, "lat": 1411, "coord": 1412, "aint": 1413, "admin": 1414, "once": 1415, "cf": 1416, "normali": 1417, "mapping": 1418, "tuple": 1419, "some": 1420, "points": 1421, "diction": 1422, "disable": 1423, "loop": 1424, "contents": 1425, "kind": 1426, "don": 1427, "secret": 1428, "writer": 1429, "lem": 1430, "pix": 1431, "bar": 1432, "dec": 1433, "been": 1434, "wise": 1435, "show": 1436, "32": 1437, "bit": 1438, "passed": 1439, "pair": 1440, "switch": 1441, "css": 1442, "additional": 1443, "idd": 1444, "popul": 1445, "bet": 1446, "arr": 1447, "sist": 1448, "php": 1449, "decode": 1450, "az": 1451, "how": 1452, "ities": 1453, "ie": 1454, "constraint": 1455, "cause": 1456, "yield": 1457, "pages": 1458, "dom": 1459, "men": 1460, "ging": 1461, "clear": 1462, "iterator": 1463, "internal": 1464, "ear": 1465, "12": 1466, "vision": 1467, "override": 1468, "flow": 1469, "force": 1470, "cho": 1471, "created": 1472, "annotation": 1473, "subscri": 1474, "da": 1475, "nown": 1476, "multip": 1477, "messages": 1478, "they": 1479, "org": 1480, "pipe": 1481, "cmd": 1482, "ants": 1483, "category": 1484, "vect": 1485, "fs": 1486, "existing": 1487, "transaction": 1488, "tx": 1489, "done": 1490, "stamp": 1491, "igh": 1492, "remote": 1493, "two": 1494, "strip": 1495, "100": 1496, "els": 1497, "dr": 1498, "display": 1499, "example": 1500, "vious": 1501, "sync": 1502, "sa": 1503, "accept": 1504, "est": 1505, "alog": 1506, "cy": 1507, "pan": 1508, "fmt": 1509, "dim": 1510, "ization": 1511, "cred": 1512, "socket": 1513, "util": 1514, "enabled": 1515, "feature": 1516, "backup": 1517, "ical": 1518, "gen": 1519, "checks": 1520, "rout": 1521, "slice": 1522, "asses": 1523, "parsed": 1524, "machine": 1525, "interval": 1526, "bas": 1527, "previous": 1528, "metr": 1529, "since": 1530, "aly": 1531, "trig": 1532, "anch": 1533, "menu": 1534, "registr": 1535, "extend": 1536, "aded": 1537, "pn": 1538, "20": 1539, "missing": 1540, "hook": 1541, "counter": 1542, "proxy": 1543, "reposit": 1544, "classes": 1545, "enum": 1546, "repository": 1547, "printf": 1548, "multi": 1549, "cp": 1550, "layer": 1551, "implement": 1552, "clean": 1553, "analy": 1554, "parti": 1555, "ability": 1556, "del": 1557, "card": 1558, "folder": 1559, "ner": 1560, "fully": 1561, "calend": 1562, "duration": 1563, "ump": 1564, "changed": 1565, "cook": 1566, "protocol": 1567, "ential": 1568, "perform": 1569, "calendar": 1570, "imum": 1571, "also": 1572, "month": 1573, "dri": 1574, "loaded": 1575, "ton": 1576, "ween": 1577, "exclu": 1578, "reset": 1579, "leg": 1580, "layout": 1581, "between": 1582, "selector": 1583, "rop": 1584, "editor": 1585, "rag": 1586, "otherwise": 1587, "determine": 1588, "supported": 1589, "username": 1590, "multiple": 1591, "oc": 1592, "esca": 1593, "require": 1594, "thon": 1595, "resp": 1596, "bro": 1597, "rad": 1598, "bers": 1599, "timestamp": 1600, "selected": 1601, "cannot": 1602, "filters": 1603, "inspect": 1604, "region": 1605, "year": 1606, "random": 1607, "defaults": 1608, "upload": 1609, "sole": 1610, "agent": 1611, "simple": 1612, "hist": 1613, "ves": 1614, "words": 1615, "ssl": 1616, "validation": 1617, "defer": 1618, "adds": 1619, "mock": 1620, "unset": 1621, "my": 1622, "cfg": 1623, "without": 1624, "trim": 1625, "declar": 1626, "generates": 1627, "term": 1628, "pc": 1629, "bot": 1630, "book": 1631, "button": 1632, "curs": 1633, "about": 1634, "ift": 1635, "vector": 1636, "uint": 1637, "tra": 1638, "volume": 1639, "cls": 1640, "virt": 1641, "activ": 1642, "pend": 1643, "scroll": 1644, "hy": 1645, "segment": 1646, "sd": 1647, "zip": 1648, "ell": 1649, "mut": 1650, "dictionary": 1651, "collect": 1652, "rection": 1653, "wrapper": 1654, "manage": 1655, "tered": 1656, "ized": 1657, "ular": 1658, "real": 1659, "sv": 1660, "conf": 1661, "conn": 1662, "git": 1663, "diff": 1664, "gram": 1665, "certific": 1666, "axis": 1667, "ank": 1668, "virtual": 1669, "comp": 1670, "sprintf": 1671, "variables": 1672, "eval": 1673, "rele": 1674, "sure": 1675, "super": 1676, "indent": 1677, "mag": 1678, "lish": 1679, "follow": 1680, "gest": 1681, "listen": 1682, "them": 1683, "cip": 1684, "watch": 1685, "cb": 1686, "tab": 1687, "flags": 1688, "console": 1689, "instances": 1690, "distance": 1691, "recur": 1692, "ries": 1693, "python": 1694, "series": 1695, "updateresource": 1696, "prob": 1697, "gre": 1698, "ori": 1699, "16": 1700, "install": 1701, "sys": 1702, "spa": 1703, "initial": 1704, "zone": 1705, "ward": 1706, "common": 1707, "thro": 1708, "labels": 1709, "redirect": 1710, "ugh": 1711, "driver": 1712, "entries": 1713, "amb": 1714, "verse": 1715, "ification": 1716, "props": 1717, "uuid": 1718, "tool": 1719, "could": 1720, "models": 1721, "expi": 1722, "geo": 1723, "credential": 1724, "prior": 1725, "partition": 1726, "updates": 1727, "div": 1728, "chain": 1729, "constructor": 1730, "character": 1731, "sol": 1732, "attem": 1733, "unique": 1734, "attempt": 1735, "poss": 1736, "25": 1737, "persist": 1738, "rep": 1739, "packet": 1740, "tl": 1741, "signature": 1742, "aa": 1743, "media": 1744, "ln": 1745, "representing": 1746, "ither": 1747, "brow": 1748, "pk": 1749, "identity": 1750, "logging": 1751, "curren": 1752, "changes": 1753, "ured": 1754, "selection": 1755, "complete": 1756, "actions": 1757, "stand": 1758, "zero": 1759, "kes": 1760, "ste": 1761, "iss": 1762, "requests": 1763, "relative": 1764, "peri": 1765, "here": 1766, "starts": 1767, "lif": 1768, "prog": 1769, "ories": 1770, "worker": 1771, "move": 1772, "depth": 1773, "sm": 1774, "reject": 1775, "through": 1776, "gra": 1777, "short": 1778, "rest": 1779, "successfully": 1780, "loy": 1781, "allowed": 1782, "coll": 1783, "desc": 1784, "modified": 1785, "generator": 1786, "rate": 1787, "widget": 1788, "uses": 1789, "validator": 1790, "filtered": 1791, "either": 1792, "her": 1793, "std": 1794, "https": 1795, "fill": 1796, "adding": 1797, "modules": 1798, "engin": 1799, "branch": 1800, "ination": 1801, "high": 1802, "issue": 1803, "dump": 1804, "img": 1805, "fit": 1806, "acc": 1807, "cms": 1808, "edit": 1809, "span": 1810, "sap": 1811, "authentication": 1812, "actual": 1813, "cn": 1814, "download": 1815, "slot": 1816, "weight": 1817, "bean": 1818, "99": 1819, "cursor": 1820, "shift": 1821, "running": 1822, "lookup": 1823, "gate": 1824, "seconds": 1825, "containing": 1826, "ensure": 1827, "ada": 1828, "because": 1829, "deli": 1830, "prec": 1831, "sorted": 1832, "area": 1833, "icon": 1834, "18": 1835, "until": 1836, "angle": 1837, "compar": 1838, "exit": 1839, "trigger": 1840, "nest": 1841, "mean": 1842, "feat": 1843, "deploy": 1844, "topic": 1845, "chron": 1846, "attrs": 1847, "ship": 1848, "browser": 1849, "amo": 1850, "dn": 1851, "addresource": 1852, "setup": 1853, "extra": 1854, "direction": 1855, "separator": 1856, "secur": 1857, "tax": 1858, "handlers": 1859, "escape": 1860, "dup": 1861, "coordin": 1862, "ifact": 1863, "artifact": 1864, "certificate": 1865, "security": 1866, "marsh": 1867, "binary": 1868, "grid": 1869, "todo": 1870, "operator": 1871, "eve": 1872, "release": 1873, "eded": 1874, "stri": 1875, "unknown": 1876, "plan": 1877, "upper": 1878, "engine": 1879, "ctr": 1880, "decor": 1881, "safe": 1882, "correct": 1883, "suf": 1884, "ful": 1885, "lan": 1886, "execut": 1887, "java": 1888, "utf": 1889, "ites": 1890, "ions": 1891, "ek": 1892, "destination": 1893, "within": 1894, "press": 1895, "vert": 1896, "login": 1897, "cloud": 1898, "oid": 1899, "primary": 1900, "addr": 1901, "transport": 1902, "flat": 1903, "compute": 1904, "libr": 1905, "lex": 1906, "registry": 1907, "signal": 1908, "son": 1909, "fer": 1910, "dtype": 1911, "serialize": 1912, "dependency": 1913, "absol": 1914, "plat": 1915, "ffect": 1916, "finish": 1917, "possible": 1918, "rypt": 1919, "under": 1920, "nd": 1921, "declaration": 1922, "want": 1923, "ose": 1924, "marshal": 1925, "dimension": 1926, "progress": 1927, "absolute": 1928, "cancell": 1929, "platform": 1930, "cancel": 1931, "owner": 1932, "retrieve": 1933, "uch": 1934, "dispatch": 1935, "sive": 1936, "mx": 1937, "fon": 1938, "awserr": 1939, "constants": 1940, "ived": 1941, "lists": 1942, "visible": 1943, "bed": 1944, "elem": 1945, "seq": 1946, "med": 1947, "cue": 1948, "ww": 1949, "publish": 1950, "warn": 1951, "compi": 1952, "scan": 1953, "every": 1954, "bounds": 1955, "times": 1956, "references": 1957, "pho": 1958, "pointer": 1959, "compare": 1960, "subscription": 1961, "agg": 1962, "ason": 1963, "refresh": 1964, "cancellation": 1965, "ways": 1966, "cookie": 1967, "suffix": 1968, "populated": 1969, "clone": 1970, "updateresources": 1971, "priority": 1972, "numer": 1973, "inv": 1974, "execution": 1975, "verify": 1976, "adapt": 1977, "ground": 1978, "unicode": 1979, "records": 1980, "provision": 1981, "ration": 1982, "your": 1983, "cla": 1984, "define": 1985, "keep": 1986, "drop": 1987, "calculate": 1988, "ead": 1989, "substr": 1990, "addresources": 1991, "proces": 1992, "asset": 1993, "cached": 1994, "instead": 1995, "updated": 1996, "bits": 1997, "ced": 1998, "score": 1999, "permissions": 2000, "ping": 2001, "services": 2002, "characters": 2003, "lied": 2004, "numpy": 2005, "ha": 2006, "click": 2007, "pending": 2008, "completes": 2009, "commands": 2010, "nested": 2011, "matching": 2012, "errorf": 2013, "alt": 2014, "60": 2015, "indices": 2016, "des": 2017, "named": 2018, "dataset": 2019, "repo": 2020, "meas": 2021, "dns": 2022, "shot": 2023, "aml": 2024, "legal": 2025, "plot": 2026, "idden": 2027, "rescue": 2028, "expand": 2029, "sav": 2030, "images": 2031, "ater": 2032, "round": 2033, "arti": 2034, "structure": 2035, "xx": 2036, "their": 2037, "association": 2038, "snap": 2039, "related": 2040, "thresh": 2041, "ld": 2042, "httpmethod": 2043, "sched": 2044, "amount": 2045, "cast": 2046, "lode": 2047, "vpn": 2048, "maximum": 2049, "draw": 2050, "photo": 2051, "loader": 2052, "associated": 2053, "needed": 2054, "peer": 2055, "ename": 2056, "ets": 2057, "tasks": 2058, "subject": 2059, "components": 2060, "doesn": 2061, "redu": 2062, "comments": 2063, "atom": 2064, "master": 2065, "invo": 2066, "vserver": 2067, "prepare": 2068, "heal": 2069, "versions": 2070, "reco": 2071, "frag": 2072, "ferent": 2073, "alg": 2074, "httppath": 2075, "registe": 2076, "standard": 2077, "concat": 2078, "delta": 2079, "lamb": 2080, "mime": 2081, "ctrl": 2082, "credentials": 2083, "ioexception": 2084, "responses": 2085, "many": 2086, "acl": 2087, "obser": 2088, "removed": 2089, "inner": 2090, "verbo": 2091, "wal": 2092, "hex": 2093, "fire": 2094, "dot": 2095, "calls": 2096, "period": 2097, "background": 2098, "usage": 2099, "registered": 2100, "broker": 2101, "ipv": 2102, "closed": 2103, "rot": 2104, "ware": 2105, "11": 2106, "theme": 2107, "ps": 2108, "alph": 2109, "rende": 2110, "cd": 2111, "history": 2112, "vide": 2113, "tom": 2114, "ba": 2115, "ude": 2116, "velo": 2117, "incre": 2118, "lambda": 2119, "always": 2120, "delay": 2121, "illegal": 2122, "both": 2123, "appro": 2124, "arrays": 2125, "ually": 2126, "summary": 2127, "indic": 2128, "ice": 2129, "foc": 2130, "configured": 2131, "rer": 2132, "ically": 2133, "features": 2134, "extern": 2135, "functions": 2136, "alle": 2137, "listeners": 2138, "stored": 2139, "evalu": 2140, "radi": 2141, "following": 2142, "td": 2143, "dependencies": 2144, "mac": 2145, "snapshot": 2146, "aggreg": 2147, "vars": 2148, "she": 2149, "ins": 2150, "ended": 2151, "links": 2152, "println": 2153, "different": 2154, "memory": 2155, "pagin": 2156, "older": 2157, "deleted": 2158, "40": 2159, "cand": 2160, "manif": 2161, "ense": 2162, "sdk": 2163, "retry": 2164, "activity": 2165, "correspon": 2166, "200": 2167, "special": 2168, "capt": 2169, "such": 2170, "most": 2171, "threshold": 2172, "izer": 2173, "extensions": 2174, "failure": 2175, "pixel": 2176, "boot": 2177, "cker": 2178, "modify": 2179, "raises": 2180, "normalize": 2181, "callable": 2182, "zes": 2183, "sb": 2184, "datetime": 2185, "elsif": 2186, "elseif": 2187, "reason": 2188, "synchron": 2189, "font": 2190, "library": 2191, "pipeline": 2192, "metric": 2193, "astic": 2194, "initialize": 2195, "health": 2196, "checked": 2197, "enumer": 2198, "being": 2199, "roy": 2200, "ient": 2201, "wer": 2202, "fall": 2203, "lon": 2204, "users": 2205, "help": 2206, "chars": 2207, "destroy": 2208, "percent": 2209, "bra": 2210, "unmarshal": 2211, "bad": 2212, "exclude": 2213, "reverse": 2214, "another": 2215, "ged": 2216, "iterable": 2217, "midd": 2218, "middle": 2219, "dout": 2220, "nel": 2221, "restore": 2222, "effect": 2223, "rg": 2224, "country": 2225, "15": 2226, "exceptions": 2227, "factor": 2228, "imal": 2229, "dialog": 2230, "v1": 2231, "vm": 2232, "elastic": 2233, "these": 2234, "hint": 2235, "requested": 2236, "liter": 2237, "takes": 2238, "verbose": 2239, "wd": 2240, "zz": 2241, "quo": 2242, "supp": 2243, "lb": 2244, "zation": 2245, "partial": 2246, "specify": 2247, "maint": 2248, "flush": 2249, "hydr": 2250, "pose": 2251, "padding": 2252, "stdout": 2253, "ble": 2254, "resolver": 2255, "candid": 2256, "samples": 2257, "schedule": 2258, "timer": 2259, "formatter": 2260, "units": 2261, "forward": 2262, "reflect": 2263, "visit": 2264, "docs": 2265, "catalog": 2266, "hour": 2267, "literal": 2268, "keyword": 2269, "qual": 2270, "pid": 2271, "week": 2272, "take": 2273, "puts": 2274, "vault": 2275, "bucket": 2276, "what": 2277, "attachment": 2278, "best": 2279, "touch": 2280, "article": 2281, "preg": 2282, "csv": 2283, "algori": 2284, "generated": 2285, "strict": 2286, "algorith": 2287, "router": 2288, "rc": 2289, "detect": 2290, "received": 2291, "numeric": 2292, "encoded": 2293, "basic": 2294, "substring": 2295, "measure": 2296, "translation": 2297, "nam": 2298, "monitor": 2299, "ick": 2300, "spaces": 2301, "abu": 2302, "working": 2303, "mig": 2304, "asc": 2305, "duplic": 2306, "mapper": 2307, "big": 2308, "external": 2309, "currency": 2310, "grade": 2311, "converts": 2312, "train": 2313, "manifest": 2314, "fast": 2315, "light": 2316, "repe": 2317, "fixed": 2318, "lint": 2319, "reser": 2320, "ily": 2321, "slug": 2322, "vely": 2323, "necess": 2324, "tain": 2325, "marker": 2326, "ends": 2327, "tick": 2328, "proc": 2329, "aud": 2330, "plugins": 2331, "currently": 2332, "transition": 2333, "ving": 2334, "holder": 2335, "adapter": 2336, "foo": 2337, "href": 2338, "cols": 2339, "gp": 2340, "via": 2341, "jobs": 2342, "vertex": 2343, "numbers": 2344, "starting": 2345, "verage": 2346, "annotations": 2347, "tile": 2348, "24": 2349, "s3": 2350, "tables": 2351, "targets": 2352, "ire": 2353, "compile": 2354, "hidden": 2355, "scheme": 2356, "ison": 2357, "pret": 2358, "tion": 2359, "ilt": 2360, "video": 2361, "compa": 2362, "detail": 2363, "chart": 2364, "hit": 2365, "edges": 2366, "vlan": 2367, "neg": 2368, "verti": 2369, "dt": 2370, "gt": 2371, "shared": 2372, "routes": 2373, "lar": 2374, "ier": 2375, "cc": 2376, "notify": 2377, "collections": 2378, "removes": 2379, "produ": 2380, "entities": 2381, "calling": 2382, "life": 2383, "contr": 2384, "conditions": 2385, "deferred": 2386, "comparison": 2387, "focus": 2388, "ops": 2389, "14": 2390, "respond": 2391, "normal": 2392, "blank": 2393, "necessary": 2394, "compat": 2395, "assignment": 2396, "align": 2397, "remain": 2398, "algorithm": 2399, "templates": 2400, "consum": 2401, "blocks": 2402, "abstr": 2403, "reply": 2404, "shell": 2405, "ian": 2406, "alpha": 2407, "roles": 2408, "prototype": 2409, "board": 2410, "organ": 2411, "needs": 2412, "equi": 2413, "generic": 2414, "audi": 2415, "sources": 2416, "coordinates": 2417, "iso": 2418, "archive": 2419, "authorization": 2420, "gy": 2421, "inject": 2422, "bottom": 2423, "center": 2424, "mix": 2425, "sentence": 2426, "tempor": 2427, "matcher": 2428, "vec": 2429, "licit": 2430, "automat": 2431, "30": 2432, "anim": 2433, "reads": 2434, "ibility": 2435, "resolved": 2436, "poly": 2437, "sheet": 2438, "fut": 2439, "ings": 2440, "retriev": 2441, "itude": 2442, "fragment": 2443, "yaml": 2444, "txt": 2445, "embed": 2446, "processing": 2447, "inline": 2448, "75": 2449, "cos": 2450, "urls": 2451, "ype": 2452, "decorator": 2453, "feed": 2454, "rf": 2455, "customer": 2456, "px": 2457, "matched": 2458, "processor": 2459, "got": 2460, "tcp": 2461, "mainten": 2462, "codes": 2463, "abstract": 2464, "maintenance": 2465, "did": 2466, "dev": 2467, "normalized": 2468, "constraints": 2469, "rs": 2470, "syntax": 2471, "kl": 2472, "warnings": 2473, "uring": 2474, "combin": 2475, "digest": 2476, "assume": 2477, "cade": 2478, "would": 2479, "days": 2480, "corresponding": 2481, "quote": 2482, "distr": 2483, "members": 2484, "await": 2485, "formatted": 2486, "mouse": 2487, "squ": 2488, "reflection": 2489, "formed": 2490, "ndarray": 2491, "ess": 2492, "requires": 2493, "audit": 2494, "anti": 2495, "built": 2496, "audio": 2497, "includes": 2498, "v2": 2499, "ler": 2500, "sender": 2501, "cm": 2502, "int64": 2503, "encrypt": 2504, "ross": 2505, "statist": 2506, "free": 2507, "player": 2508, "city": 2509, "disk": 2510, "distrib": 2511, "metrics": 2512, "zy": 2513, "constant": 2514, "rpc": 2515, "segments": 2516, "quot": 2517, "blob": 2518, "pane": 2519, "notification": 2520, "nothing": 2521, "inf": 2522, "representation": 2523, "foreign": 2524, "fw": 2525, "allows": 2526, "ux": 2527, "compil": 2528, "native": 2529, "recei": 2530, "cu": 2531, "inside": 2532, "ency": 2533, "dst": 2534, "50": 2535, "sis": 2536, "instr": 2537, "deprec": 2538, "ow": 2539, "written": 2540, "cut": 2541, "processed": 2542, "contact": 2543, "je": 2544, "yy": 2545, "rtype": 2546, "goog": 2547, "metry": 2548, "known": 2549, "amaz": 2550, "amazon": 2551, "ifiers": 2552, "states": 2553, "0000": 2554, "maj": 2555, "pot": 2556, "pur": 2557, "tools": 2558, "kernel": 2559, "expr": 2560, "80": 2561, "configure": 2562, "counts": 2563, "inputs": 2564, "increment": 2565, "management": 2566, "positions": 2567, "connected": 2568, "too": 2569, "dirname": 2570, "cular": 2571, "mb": 2572, "saved": 2573, "extends": 2574, "signed": 2575, "bill": 2576, "even": 2577, "pull": 2578, "locator": 2579, "mater": 2580, "steps": 2581, "operations": 2582, "whites": 2583, "hs": 2584, "hostname": 2585, "inher": 2586, "implementation": 2587, "rat": 2588, "finally": 2589, "decimal": 2590, "minimum": 2591, "basename": 2592, "recursive": 2593, "swap": 2594, "translate": 2595, "scre": 2596, "mong": 2597, "backend": 2598, "delim": 2599, "caller": 2600, "cons": 2601, "gh": 2602, "dynam": 2603, "bul": 2604, "accord": 2605, "future": 2606, "patterns": 2607, "skill": 2608, "13": 2609, "arn": 2610, "bindings": 2611, "chan": 2612, "poll": 2613, "windows": 2614, "collector": 2615, "formats": 2616, "fallback": 2617, "capa": 2618, "phase": 2619, "late": 2620, "gg": 2621, "aliase": 2622, "quest": 2623, "callbacks": 2624, "deep": 2625, "pad": 2626, "radius": 2627, "bal": 2628, "indexes": 2629, "filepath": 2630, "flatten": 2631, "supplied": 2632, "renderer": 2633, "according": 2634, "ference": 2635, "ignored": 2636, "pb": 2637, "inspects": 2638, "avoid": 2639, "prompt": 2640, "klass": 2641, "conv": 2642, "aro": 2643, "person": 2644, "upgrade": 2645, "prevent": 2646, "scen": 2647, "ones": 2648, "chunks": 2649, "relationship": 2650, "whitespace": 2651, "come": 2652, "resses": 2653, "deployment": 2654, "remaining": 2655, "ric": 2656, "cart": 2657, "ycle": 2658, "program": 2659, "google": 2660, "readable": 2661, "freq": 2662, "screen": 2663, "definitions": 2664, "associate": 2665, "ences": 2666, "least": 2667, "01": 2668, "team": 2669, "filesystem": 2670, "included": 2671, "argv": 2672, "means": 2673, "hold": 2674, "directories": 2675, "pixels": 2676, "stderr": 2677, "greater": 2678, "umb": 2679, "replication": 2680, "ipv6": 2681, "lazy": 2682, "gith": 2683, "echo": 2684, "loading": 2685, "github": 2686, "predi": 2687, "lead": 2688, "ele": 2689, "jection": 2690, "54": 2691, "disabled": 2692, "loads": 2693, "mediate": 2694, "ifies": 2695, "svg": 2696, "fab": 2697, "deletes": 2698, "abort": 2699, "ision": 2700, "azure": 2701, "receiver": 2702, "reduce": 2703, "sep": 2704, "stype": 2705, "views": 2706, "i18": 2707, "lifec": 2708, "lifecycle": 2709, "sur": 2710, "creating": 2711, "tm": 2712, "x1": 2713, "revision": 2714, "canv": 2715, "mm": 2716, "shad": 2717, "havi": 2718, "provide": 2719, "gu": 2720, "behavi": 2721, "connections": 2722, "strlen": 2723, "consumer": 2724, "tun": 2725, "clause": 2726, "bel": 2727, "submit": 2728, "redis": 2729, "dirs": 2730, "routing": 2731, "watcher": 2732, "works": 2733, "dra": 2734, "rgb": 2735, "walk": 2736, "bi": 2737, "canvas": 2738, "appfw": 2739, "observ": 2740, "inherit": 2741, "license": 2742, "payment": 2743, "gui": 2744, "base64": 2745, "organization": 2746, "assertions": 2747, "curl": 2748, "subnet": 2749, "abo": 2750, "notes": 2751, "started": 2752, "managed": 2753, "unable": 2754, "vr": 2755, "statistics": 2756, "outer": 2757, "repeat": 2758, "slash": 2759, "optim": 2760, "explode": 2761, "ttl": 2762, "pie": 2763, "xpath": 2764, "dig": 2765, "dates": 2766, "analysis": 2767, "navi": 2768, "aga": 2769, "explicit": 2770, "cing": 2771, "against": 2772, "ranges": 2773, "cap": 2774, "variant": 2775, "detailed": 2776, "ters": 2777, "aries": 2778, "grant": 2779, "www": 2780, "geometry": 2781, "yet": 2782, "plain": 2783, "para": 2784, "exc": 2785, "etc": 2786, "tran": 2787, "car": 2788, "distribution": 2789, "gateway": 2790, "1000": 2791, "19": 2792, "ju": 2793, "foli": 2794, "deprecated": 2795, "capture": 2796, "ptr": 2797, "envelo": 2798, "writes": 2799, "lies": 2800, "applic": 2801, "sal": 2802, "styles": 2803, "home": 2804, "aler": 2805, "were": 2806, "cam": 2807, "converted": 2808, "float64": 2809, "regular": 2810, "gn": 2811, "fabric": 2812, "might": 2813, "utc": 2814, "later": 2815, "reserved": 2816, "unlock": 2817, "middleware": 2818, "providers": 2819, "issues": 2820, "nx": 2821, "oauth": 2822, "seed": 2823, "ii": 2824, "categories": 2825, "cipher": 2826, "directly": 2827, "enter": 2828, "mesh": 2829, "confir": 2830, "still": 2831, "cost": 2832, "ifications": 2833, "instal": 2834, "hide": 2835, "candidate": 2836, "mongo": 2837, "ared": 2838, "tre": 2839, "intent": 2840, "levels": 2841, "attempts": 2842, "negative": 2843, "ef": 2844, "envelope": 2845, "png": 2846, "affi": 2847, "addresses": 2848, "portfoli": 2849, "strto": 2850, "appropri": 2851, "aliases": 2852, "documents": 2853, "installed": 2854, "gation": 2855, "ratio": 2856, "ckets": 2857, "those": 2858, "maps": 2859, "appropriate": 2860, "comma": 2861, "grad": 2862, "i18n": 2863, "closing": 2864, "curr": 2865, "prin": 2866, "rub": 2867, "aller": 2868, "gers": 2869, "price": 2870, "adjust": 2871, "magic": 2872, "refs": 2873, "wild": 2874, "invoke": 2875, "iteration": 2876, "instanti": 2877, "terms": 2878, "pdf": 2879, "workflow": 2880, "border": 2881, "orde": 2882, "exact": 2883, "encoder": 2884, "ordered": 2885, "strate": 2886, "runs": 2887, "drag": 2888, "hr": 2889, "stage": 2890, "jb": 2891, "san": 2892, "sound": 2893, "sever": 2894, "sively": 2895, "automatically": 2896, "dynamic": 2897, "iling": 2898, "ural": 2899, "neigh": 2900, "princip": 2901, "ives": 2902, "wrapped": 2903, "ng": 2904, "enumerate": 2905, "gl": 2906, "era": 2907, "registration": 2908, "sibl": 2909, "during": 2910, "who": 2911, "pkg": 2912, "disco": 2913, "zo": 2914, "bootstr": 2915, "material": 2916, "waiting": 2917, "logs": 2918, "pressed": 2919, "servers": 2920, "ql": 2921, "33": 2922, "fron": 2923, "anner": 2924, "neighb": 2925, "stmt": 2926, "angular": 2927, "gue": 2928, "mount": 2929, "proced": 2930, "configs": 2931, "ders": 2932, "closure": 2933, "trun": 2934, "fli": 2935, "checking": 2936, "hub": 2937, "cid": 2938, "dash": 2939, "svc": 2940, "queries": 2941, "sil": 2942, "itive": 2943, "ines": 2944, "completed": 2945, "rm": 2946, "precision": 2947, "principal": 2948, "frames": 2949, "actor": 2950, "paren": 2951, "rank": 2952, "regexp": 2953, "facade": 2954, "confirm": 2955, "migration": 2956, "colors": 2957, "cation": 2958, "brid": 2959, "predicate": 2960, "commun": 2961, "consist": 2962, "average": 2963, "nan": 2964, "cross": 2965, "serial": 2966, "hier": 2967, "bootstrap": 2968, "elasticsearch": 2969, "indicator": 2970, "delimiter": 2971, "workspace": 2972, "receive": 2973, "assets": 2974, "band": 2975, "weights": 2976, "twi": 2977, "ldap": 2978, "above": 2979, "computed": 2980, "finished": 2981, "bon": 2982, "hor": 2983, "cells": 2984, "recursively": 2985, "statements": 2986, "referenced": 2987, "resize": 2988, "persistence": 2989, "iterate": 2990, "leaf": 2991, "compact": 2992, "cld": 2993, "happ": 2994, "complex": 2995, "replacement": 2996, "parsing": 2997, "ely": 2998, "du": 2999, "implode": 3000, "forms": 3001, "rev": 3002, "ampl": 3003, "md5": 3004, "duplicate": 3005, "compo": 3006, "strpos": 3007, "channels": 3008, "simil": 3009, "occurren": 3010, "les": 3011, "oth": 3012, "front": 3013, "subst": 3014, "returning": 3015, "mill": 3016, "useful": 3017, "placeholder": 3018, "jav": 3019, "devices": 3020, "portfolio": 3021, "orient": 3022, "arrow": 3023, "pairs": 3024, "000": 3025, "mic": 3026, "similar": 3027, "overwrite": 3028, "pu": 3029, "creation": 3030, "ink": 3031, "ancestor": 3032, "parents": 3033, "below": 3034, "digits": 3035, "slo": 3036, "stringify": 3037, "reach": 3038, "fd": 3039, "diag": 3040, "phone": 3041, "tries": 3042, "question": 3043, "hum": 3044, "startswith": 3045, "zeros": 3046, "vip": 3047, "particular": 3048, "cii": 3049, "ness": 3050, "tt": 3051, "x2": 3052, "bulk": 3053, "mk": 3054, "uction": 3055, "rename": 3056, "transfer": 3057, "deserialize": 3058, "immediate": 3059, "policylabel": 3060, "cases": 3061, "sof": 3062, "packages": 3063, "makes": 3064, "cleanup": 3065, "strategy": 3066, "busin": 3067, "around": 3068, "business": 3069, "unexpected": 3070, "getattr": 3071, "256": 3072, "copi": 3073, "theta": 3074, "ga": 3075, "vot": 3076, "framework": 3077, "clip": 3078, "aging": 3079, "mid": 3080, "large": 3081, "ending": 3082, "problem": 3083, "well": 3084, "obtain": 3085, "discard": 3086, "coordinate": 3087, "initialized": 3088, "mr": 3089, "desi": 3090, "ls": 3091, "rds": 3092, "hal": 3093, "upt": 3094, "inc": 3095, "shut": 3096, "fici": 3097, "answer": 3098, "including": 3099, "pagination": 3100, "recogn": 3101, "trailing": 3102, "ferences": 3103, "unch": 3104, "ascii": 3105, "endpoints": 3106, "examples": 3107, "white": 3108, "soft": 3109, "dispatcher": 3110, "exports": 3111, "nat": 3112, "wildcard": 3113, "basel": 3114, "threads": 3115, "parses": 3116, "chem": 3117, "logical": 3118, "positive": 3119, "pick": 3120, "reading": 3121, "rotation": 3122, "aria": 3123, "wp": 3124, "bg": 3125, "lt": 3126, "fp": 3127, "share": 3128, "major": 3129, "consu": 3130, "handles": 3131, "conversion": 3132, "orter": 3133, "serialized": 3134, "merged": 3135, "retval": 3136, "updat": 3137, "someth": 3138, "cnabu": 3139, "reload": 3140, "modifier": 3141, "desired": 3142, "stores": 3143, "individ": 3144, "helpers": 3145, "something": 3146, "hours": 3147, "rv": 3148, "scopes": 3149, "choice": 3150, "tls": 3151, "sizes": 3152, "highlight": 3153, "suppress": 3154, "speed": 3155, "know": 3156, "turn": 3157, "7554": 3158, "scene": 3159, "symbols": 3160, "expires": 3161, "retrieves": 3162, "17": 3163, "ript": 3164, "micro": 3165, "relations": 3166, "again": 3167, "dd": 3168, "compress": 3169, "belong": 3170, "chro": 3171, "dimensions": 3172, "colo": 3173, "tri": 3174, "ojb": 3175, "vals": 3176, "ider": 3177, "attachments": 3178, "processes": 3179, "sqrt": 3180, "minutes": 3181, "general": 3182, "fra": 3183, "hooks": 3184, "actually": 3185, "ruby": 3186, "impl": 3187, "cmp": 3188, "hierarch": 3189, "alloc": 3190, "interpo": 3191, "game": 3192, "languages": 3193, "sect": 3194, "allel": 3195, "prefer": 3196, "preview": 3197, "leton": 3198, "please": 3199, "king": 3200, "equipa": 3201, "ough": 3202, "aggregation": 3203, "uint32": 3204, "coming": 3205, "pw": 3206, "design": 3207, "xhr": 3208, "land": 3209, "equipament": 3210, "marked": 3211, "tc": 3212, "vend": 3213, "rb": 3214, "deco": 3215, "provisioning": 3216, "charset": 3217, "linked": 3218, "hydrated": 3219, "aj": 3220, "h5": 3221, "dbcluster": 3222, "baseline": 3223, "develo": 3224, "sle": 3225, "prepa": 3226, "adv": 3227, "came": 3228, "determines": 3229, "continu": 3230, "x0": 3231, "trust": 3232, "corp": 3233, "pin": 3234, "expan": 3235, "visibility": 3236, "occur": 3237, "eol": 3238, "tail": 3239, "lict": 3240, "dbc": 3241, "docker": 3242, "tic": 3243, "den": 3244, "itself": 3245, "compatible": 3246, "mutable": 3247, "ssh": 3248, "offsets": 3249, "pdo": 3250, "ficient": 3251, "gsub": 3252, "22": 3253, "replic": 3254, "eg": 3255, "writing": 3256, "posite": 3257, "solution": 3258, "255": 3259, "ilities": 3260, "sat": 3261, "quant": 3262, "layers": 3263, "charm": 3264, "ensitive": 3265, "marks": 3266, "sanit": 3267, "exchange": 3268, "resolution": 3269, "unsupported": 3270, "bridge": 3271, "procedure": 3272, "tor": 3273, "jdbc": 3274, "rewrite": 3275, "picker": 3276, "conflict": 3277, "behavior": 3278, "escaped": 3279, "asse": 3280, "coords": 3281, "outputs": 3282, "mir": 3283, "crop": 3284, "fered": 3285, "individual": 3286, "temporary": 3287, "alize": 3288, "secure": 3289, "attached": 3290, "upon": 3291, "converter": 3292, "scaler": 3293, "comb": 3294, "applied": 3295, "altern": 3296, "opa": 3297, "checksum": 3298, "evaluate": 3299, "separated": 3300, "guess": 3301, "wave": 3302, "mappings": 3303, "executor": 3304, "successful": 3305, "plus": 3306, "ki": 3307, "claz": 3308, "clazz": 3309, "pars": 3310, "vendor": 3311, "pretty": 3312, "crit": 3313, "deg": 3314, "logic": 3315, "maker": 3316, "apsed": 3317, "sleep": 3318, "finder": 3319, "evt": 3320, "gc": 3321, "ipv4": 3322, "provides": 3323, "recovery": 3324, "claim": 3325, "substit": 3326, "square": 3327, "ascript": 3328, "isn": 3329, "dj": 3330, "rhs": 3331, "ports": 3332, "nu": 3333, "cookies": 3334, "idle": 3335, "pathname": 3336, "cas": 3337, "finds": 3338, "typed": 3339, "bs": 3340, "writable": 3341, "scanner": 3342, "nn": 3343, "ception": 3344, "seen": 3345, "delegate": 3346, "runner": 3347, "clock": 3348, "blue": 3349, "digit": 3350, "specification": 3351, "horiz": 3352, "builds": 3353, "invok": 3354, "ror": 3355, "cpy": 3356, "dl": 3357, "seek": 3358, "wire": 3359, "lice": 3360, "live": 3361, "preser": 3362, "calc": 3363, "mel": 3364, "containers": 3365, "handling": 3366, "applications": 3367, "beat": 3368, "equipamento": 3369, "panel": 3370, "three": 3371, "buffered": 3372, "facet": 3373, "launch": 3374, "never": 3375, "tics": 3376, "delivery": 3377, "togg": 3378, "persistent": 3379, "pear": 3380, "compiler": 3381, "dc": 3382, "mole": 3383, "lap": 3384, "maybe": 3385, "javascript": 3386, "sends": 3387, "tip": 3388, "acy": 3389, "camera": 3390, "vertical": 3391, "optionally": 3392, "millis": 3393, "stro": 3394, "secrets": 3395, "cour": 3396, "dead": 3397, "policies": 3398, "fat": 3399, "indicates": 3400, "linear": 3401, "perm": 3402, "detach": 3403, "zoom": 3404, "black": 3405, "discu": 3406, "getting": 3407, "interest": 3408, "embedded": 3409, "pen": 3410, "animation": 3411, "compiled": 3412, "90": 3413, "9999": 3414, "xi": 3415, "populate": 3416, "paces": 3417, "erce": 3418, "encrypted": 3419, "transformer": 3420, "synchronized": 3421, "specim": 3422, "cwd": 3423, "repos": 3424, "oct": 3425, "scheduled": 3426, "discussion": 3427, "ention": 3428, "pd": 3429, "p2": 3430, "translator": 3431, "implemented": 3432, "scripts": 3433, "aaa": 3434, "notebook": 3435, "curve": 3436, "sibling": 3437, "panic": 3438, "navigation": 3439, "balance": 3440, "fam": 3441, "horizon": 3442, "estim": 3443, "ices": 3444, "transformation": 3445, "autom": 3446, "handled": 3447, "ring": 3448, "36": 3449, "annotate": 3450, "tabs": 3451, "p1": 3452, "simul": 3453, "floor": 3454, "anchor": 3455, "recent": 3456, "integr": 3457, "utf8": 3458, "equip": 3459, "ssm": 3460, "cycle": 3461, "training": 3462, "hashes": 3463, "rdf": 3464, "cir": 3465, "shard": 3466, "axes": 3467, "colour": 3468, "pref": 3469, "hosts": 3470, "rendered": 3471, "things": 3472, "tok": 3473, "loss": 3474, "serializer": 3475, "canon": 3476, "hyper": 3477, "eof": 3478, "responder": 3479, "shutdown": 3480, "reports": 3481, "due": 3482, "gvr": 3483, "performs": 3484, "orth": 3485, "translations": 3486, "frequ": 3487, "mapped": 3488, "att": 3489, "initi": 3490, "variance": 3491, "mirror": 3492, "supports": 3493, "removing": 3494, "certain": 3495, "ango": 3496, "datas": 3497, "netscaler": 3498, "za": 3499, "fid": 3500, "severity": 3501, "cach": 3502, "58": 3503, "dbinstance": 3504, "consume": 3505, "tw": 3506, "leading": 3507, "good": 3508, "made": 3509, "prefixes": 3510, "ys": 3511, "composite": 3512, "sending": 3513, "terminal": 3514, "ime": 3515, "retries": 3516, "published": 3517, "star": 3518, "provisioned": 3519, "configurations": 3520, "experi": 3521, "subset": 3522, "subscribe": 3523, "inser": 3524, "ensity": 3525, "bc": 3526, "pmag": 3527, "fails": 3528, "rollback": 3529, "cog": 3530, "sigma": 3531, "popup": 3532, "extent": 3533, "inverse": 3534, "strtolower": 3535, "tpl": 3536, "tim": 3537, "plural": 3538, "expressions": 3539, "dial": 3540, "six": 3541, "fname": 3542, "timezone": 3543, "lst": 3544, "broad": 3545, "latitude": 3546, "small": 3547, "separate": 3548, "imports": 3549, "ajax": 3550, "comparator": 3551, "cha": 3552, "thumb": 3553, "authors": 3554, "beta": 3555, "visitor": 3556, "minor": 3557, "verb": 3558, "difference": 3559, "parallel": 3560, "syll": 3561, "billing": 3562, "codec": 3563, "shadow": 3564, "sections": 3565, "grees": 3566, "lying": 3567, "decrypt": 3568, "pand": 3569, "uff": 3570, "locations": 3571, "pet": 3572, "sters": 3573, "va": 3574, "rendering": 3575, "uint64": 3576, "notifications": 3577, "newline": 3578, "gau": 3579, "gem": 3580, "mtas": 3581, "wrong": 3582, "accessor": 3583, "longitude": 3584, "splice": 3585, "beginning": 3586, "applies": 3587, "accepts": 3588, "dependent": 3589, "clients": 3590, "sequences": 3591, "degrees": 3592, "latest": 3593, "power": 3594, "expired": 3595, "keywords": 3596, "gap": 3597, "directive": 3598, "hits": 3599, "eq": 3600, "instruction": 3601, "contrib": 3602, "candidates": 3603, "fatal": 3604, "conditional": 3605, "logged": 3606, "efficient": 3607, "uploaded": 3608, "choices": 3609, "streams": 3610, "anything": 3611, "appear": 3612, "stan": 3613, "probab": 3614, "nt": 3615, "rd": 3616, "sampl": 3617, "alive": 3618, "partitions": 3619, "interr": 3620, "incoming": 3621, "hasattr": 3622, "apps": 3623, "hydrate": 3624, "paginator": 3625, "implements": 3626, "interfaces": 3627, "overflow": 3628, "txn": 3629, "variants": 3630, "zap": 3631, "eng": 3632, "depending": 3633, "marg": 3634, "extended": 3635, "validates": 3636, "nav": 3637, "modal": 3638, "paragraph": 3639, "scalar": 3640, "orientation": 3641, "calculates": 3642, "mixed": 3643, "accepted": 3644, "assigned": 3645, "prepared": 3646, "02": 3647, "cnt": 3648, "ables": 3649, "vertices": 3650, "tenant": 3651, "solr": 3652, "pod": 3653, "taken": 3654, "whole": 3655, "review": 3656, "piece": 3657, "namespaces": 3658, "traject": 3659, "vs": 3660, "serialization": 3661, "percentage": 3662, "projects": 3663, "anon": 3664, "interrupt": 3665, "pal": 3666, "tracker": 3667, "39": 3668, "dx": 3669, "gene": 3670, "2d": 3671, "dum": 3672, "ao": 3673, "expanded": 3674, "markdown": 3675, "affic": 3676, "expiration": 3677, "lim": 3678, "beam": 3679, "mil": 3680, "texture": 3681, "underlying": 3682, "triggers": 3683, "unpack": 3684, "utility": 3685, "bus": 3686, "orph": 3687, "ryption": 3688, "contract": 3689, "uc": 3690, "bson": 3691, "toggle": 3692, "sip": 3693, "connector": 3694, "odata": 3695, "raised": 3696, "infin": 3697, "typ": 3698, "torrent": 3699, "smo": 3700, "half": 3701, "mf": 3702, "fk": 3703, "stal": 3704, "n1": 3705, "combine": 3706, "qualified": 3707, "globals": 3708, "registers": 3709, "deps": 3710, "conc": 3711, "opened": 3712, "invent": 3713, "craw": 3714, "throwable": 3715, "backtrace": 3716, "wards": 3717, "singleton": 3718, "cognit": 3719, "alert": 3720, "compression": 3721, "explan": 3722, "asyn": 3723, "gzip": 3724, "compressed": 3725, "fri": 3726, "flash": 3727, "trip": 3728, "disconnect": 3729, "letter": 3730, "boundary": 3731, "tection": 3732, "recorder": 3733, "propa": 3734, "draft": 3735, "family": 3736, "salt": 3737, "coverage": 3738, "prediction": 3739, "communic": 3740, "spans": 3741, "networkapi": 3742, "represents": 3743, "locales": 3744, "servicegroup": 3745, "executed": 3746, "equival": 3747, "dic": 3748, "srv": 3749, "cognito": 3750, "preferences": 3751, "sock": 3752, "human": 3753, "rx": 3754, "anno": 3755, "tice": 3756, "far": 3757, "hav": 3758, "kill": 3759, "qp": 3760, "tap": 3761, "tuples": 3762, "udp": 3763, "inventory": 3764, "pg": 3765, "sso": 3766, "green": 3767, "along": 3768, "preferred": 3769, "authorized": 3770, "excluded": 3771, "checker": 3772, "dry": 3773, "mand": 3774, "dirty": 3775, "going": 3776, "interpret": 3777, "rfc": 3778, "explicitly": 3779, "ively": 3780, "quad": 3781, "previously": 3782, "replaced": 3783, "gauss": 3784, "pm": 3785, "wk": 3786, "eslint": 3787, "sid": 3788, "sug": 3789, "associations": 3790, "water": 3791, "atype": 3792, "asynchron": 3793, "rever": 3794, "qui": 3795, "nr": 3796, "certificates": 3797, "whose": 3798, "authenticated": 3799, "wallet": 3800, "affect": 3801, "observer": 3802, "gsl": 3803, "asynchronous": 3804, "eno": 3805, "quality": 3806, "sures": 3807, "intersect": 3808, "lier": 3809, "union": 3810, "bb": 3811, "fraction": 3812, "configur": 3813, "snmp": 3814, "wind": 3815, "memo": 3816, "documentation": 3817, "contexts": 3818, "ka": 3819, "indicate": 3820, "executable": 3821, "ube": 3822, "mkdir": 3823, "controls": 3824, "tagged": 3825, "resulting": 3826, "uint8": 3827, "ix": 3828, "completion": 3829, "passing": 3830, "wall": 3831, "scores": 3832, "schem": 3833, "give": 3834, "resume": 3835, "gon": 3836, "grou": 3837, "ral": 3838, "quotes": 3839, "horizontal": 3840, "23": 3841, "stopped": 3842, "404": 3843, "ctype": 3844, "hierarchy": 3845, "workers": 3846, "pandas": 3847, "sible": 3848, "everything": 3849, "jid": 3850, "experiment": 3851, "mpp": 3852, "accessible": 3853, "ticks": 3854, "entire": 3855, "singular": 3856, "cover": 3857, "accounts": 3858, "analytics": 3859, "500": 3860, "mutex": 3861, "pse": 3862, "kit": 3863, "identifiers": 3864, "wiki": 3865, "submission": 3866, "rails": 3867, "wt": 3868, "silent": 3869, "mpx": 3870, "molec": 3871, "lover": 3872, "phra": 3873, "sites": 3874, "oe": 3875, "ffff": 3876, "initializes": 3877, "defines": 3878, "recip": 3879, "milli": 3880, "encryption": 3881, "activation": 3882, "declarations": 3883, "replica": 3884, "temporal": 3885, "broadcast": 3886, "fur": 3887, "adj": 3888, "mal": 3889, "creator": 3890, "equivalent": 3891, "colon": 3892, "gpf": 3893, "advance": 3894, "tn": 3895, "float32": 3896, "temper": 3897, "aspect": 3898, "brackets": 3899, "suggest": 3900, "gam": 3901, "hdr": 3902, "machines": 3903, "happen": 3904, "hints": 3905, "systems": 3906, "queues": 3907, "nick": 3908, "scaling": 3909, "declared": 3910, "months": 3911, "combined": 3912, "recipient": 3913, "bins": 3914, "overlap": 3915, "looks": 3916, "interpol": 3917, "django": 3918, "y1": 3919, "doi": 3920, "atomic": 3921, "restrict": 3922, "molecule": 3923, "figure": 3924, "detected": 3925, "classname": 3926, "ird": 3927, "executes": 3928, "deletion": 3929, "bundles": 3930, "sky": 3931, "margin": 3932, "vectors": 3933, "refer": 3934, "leave": 3935, "caption": 3936, "concaten": 3937, "posts": 3938, "polygon": 3939, "66": 3940, "ipa": 3941, "viol": 3942, "canonical": 3943, "derived": 3944, "immediately": 3945, "rotate": 3946, "gslb": 3947, "intersection": 3948, "capacity": 3949, "exponent": 3950, "expire": 3951, "classifier": 3952, "getter": 3953, "xp": 3954, "analysi": 3955, "analysistype": 3956, "spawn": 3957, "qt": 3958, "quoted": 3959, "pq": 3960, "longer": 3961, "mg": 3962, "symbo": 3963, "quick": 3964, "spection": 3965, "reconnect": 3966, "primit": 3967, "prf": 3968, "flux": 3969, "stanza": 3970, "mv": 3971, "locals": 3972, "defs": 3973, "authenticate": 3974, "uth": 3975, "frequency": 3976, "updating": 3977, "sage": 3978, "deriv": 3979, "ism": 3980, "locked": 3981, "sampling": 3982, "subclass": 3983, "yes": 3984, "lexception": 3985, "ordin": 3986, "cto": 3987, "ensures": 3988, "shr": 3989, "wb": 3990, "csr": 3991, "performance": 3992, "pause": 3993, "inspector": 3994, "melis": 3995, "unix": 3996, "population": 3997, "mutation": 3998, "stroke": 3999, "closer": 4000, "48": 4001, "howe": 4002, "however": 4003, "lik": 4004, "jar": 4005, "prints": 4006, "sx": 4007, "recomm": 4008, "flick": 4009, "dh": 4010, "better": 4011, "respect": 4012, "pp": 4013, "decoder": 4014, "measurement": 4015, "further": 4016, "indexed": 4017, "elapsed": 4018, "invocation": 4019, "ui5": 4020, "wl": 4021, "news": 4022, "markup": 4023, "ape": 4024, "automation": 4025, "profiles": 4026, "rame": 4027, "belongs": 4028, "sorting": 4029, "35": 4030, "identify": 4031, "overrides": 4032, "capab": 4033, "immutable": 4034, "posed": 4035, "opacity": 4036, "preset": 4037, "xmpp": 4038, "gb": 4039, "limited": 4040, "opening": 4041, "geno": 4042, "stub": 4043, "schemas": 4044, "cab": 4045, "gradient": 4046, "apo": 4047, "ensor": 4048, "ini": 4049, "vote": 4050, "s1": 4051, "clusters": 4052, "decoded": 4053, "trajectory": 4054, "mpxj": 4055, "computes": 4056, "fing": 4057, "domains": 4058, "promises": 4059, "authorizer": 4060, "quantity": 4061, "coupon": 4062, "intro": 4063, "rating": 4064, "unused": 4065, "infos": 4066, "aggregate": 4067, "har": 4068, "tracks": 4069, "overlay": 4070, "copied": 4071, "topics": 4072, "discovery": 4073, "mu": 4074, "allele": 4075, "lbvserver": 4076, "conven": 4077, "routine": 4078, "building": 4079, "messaging": 4080, "plt": 4081, "pread": 4082, "assertion": 4083, "27": 4084, "phing": 4085, "predict": 4086, "lu": 4087, "int32": 4088, "bum": 4089, "addon": 4090, "calculated": 4091, "prepend": 4092, "peak": 4093, "disc": 4094, "bounding": 4095, "having": 4096, "enabu": 4097, "synchronous": 4098, "collap": 4099, "buttons": 4100, "consider": 4101, "hot": 4102, "ipaddress": 4103, "occurrence": 4104, "relev": 4105, "tokenizer": 4106, "comes": 4107, "obs": 4108, "ceptor": 4109, "modification": 4110, "terminate": 4111, "preserve": 4112, "sun": 4113, "hmm": 4114, "radio": 4115, "44": 4116, "choose": 4117, "logy": 4118, "tell": 4119, "thrown": 4120, "blocking": 4121, "camel": 4122, "outbound": 4123, "outside": 4124, "urnal": 4125, "phi": 4126, "neighbors": 4127, "cud": 4128, "validated": 4129, "bold": 4130, "visor": 4131, "spread": 4132, "generation": 4133, "histo": 4134, "emon": 4135, "operand": 4136, "dumps": 4137, "mdl": 4138, "jump": 4139, "rack": 4140, "folders": 4141, "compilation": 4142, "replaces": 4143, "requirements": 4144, "correlation": 4145, "batches": 4146, "commits": 4147, "endswith": 4148, "fold": 4149, "injection": 4150, "properly": 4151, "conside": 4152, "fetched": 4153, "ambient": 4154, "wsgi": 4155, "solver": 4156, "chr": 4157, "bond": 4158, "enough": 4159, "won": 4160, "vation": 4161, "elems": 4162, "lemma": 4163, "lng": 4164, "spr": 4165, "scr": 4166, "decorated": 4167, "sf": 4168, "libraries": 4169, "upo": 4170, "observed": 4171, "phrase": 4172, "ipy": 4173, "iq": 4174, "pivot": 4175, "iterates": 4176, "vl": 4177, "anony": 4178, "specimen": 4179, "slots": 4180, "stdin": 4181, "presence": 4182, "sessions": 4183, "ience": 4184, "bread": 4185, "chat": 4186, "coefficient": 4187, "visited": 4188, "appflow": 4189, "closest": 4190, "itories": 4191, "spacing": 4192, "trying": 4193, "west": 4194, "uler": 4195, "endian": 4196, "tooltip": 4197, "repr": 4198, "aux": 4199, "album": 4200, "considered": 4201, "moment": 4202, "contained": 4203, "verification": 4204, "nonce": 4205, "iframe": 4206, "nl": 4207, "galler": 4208, "simply": 4209, "modifiers": 4210, "histogram": 4211, "vpnglobal": 4212, "yields": 4213, "gether": 4214, "yar": 4215, "volumes": 4216, "cpe": 4217, "instantiate": 4218, "substitution": 4219, "restart": 4220, "hi": 4221, "daemon": 4222, "tle": 4223, "mous": 4224, "controllers": 4225, "composer": 4226, "moved": 4227, "grouped": 4228, "posal": 4229, "memberof": 4230, "wheel": 4231, "calculation": 4232, "looking": 4233, "lc": 4234, "fits": 4235, "deleteresource": 4236, "calib": 4237, "guid": 4238, "gamma": 4239, "song": 4240, "lize": 4241, "membership": 4242, "ahead": 4243, "taxon": 4244, "others": 4245, "inbound": 4246, "dm": 4247, "together": 4248, "flickr": 4249, "masked": 4250, "unsetresource": 4251, "inserted": 4252, "photos": 4253, "relevant": 4254, "interaction": 4255, "legacy": 4256, "selectors": 4257, "mgt": 4258, "checkout": 4259, "fetching": 4260, "performed": 4261, "crumb": 4262, "probability": 4263, "increase": 4264, "promo": 4265, "effective": 4266, "guest": 4267, "exported": 4268, "availability": 4269, "apic": 4270, "boxes": 4271, "anonymous": 4272, "course": 4273, "recv": 4274, "ec2": 4275, "thr": 4276, "unce": 4277, "station": 4278, "flex": 4279, "friend": 4280, "world": 4281, "datatype": 4282, "31": 4283, "kv": 4284, "effects": 4285, "lane": 4286, "rather": 4287, "plo": 4288, "unders": 4289, "explanation": 4290, "nw": 4291, "products": 4292, "filenames": 4293, "arm": 4294, "sanitize": 4295, "77": 4296, "fle": 4297, "pow": 4298, "dataframe": 4299, "temperature": 4300, "decre": 4301, "saves": 4302, "logpolicy": 4303, "arc": 4304, "lit": 4305, "utter": 4306, "primitive": 4307, "aio": 4308, "lopt": 4309, "getfiltered": 4310, "servicetype": 4311, "z0": 4312, "45": 4313, "occurrences": 4314, "v4": 4315, "nullable": 4316, "proposal": 4317, "appoint": 4318, "resse": 4319, "sequent": 4320, "libs": 4321, "infer": 4322, "ips": 4323, "emitter": 4324, "transformed": 4325, "timing": 4326, "easy": 4327, "95": 4328, "smooth": 4329, "xxx": 4330, "minim": 4331, "abol": 4332, "nome": 4333, "qb": 4334, "interceptor": 4335, "correctly": 4336, "sqlexception": 4337, "guide": 4338, "dummy": 4339, "tracking": 4340, "vocab": 4341, "repositories": 4342, "metabol": 4343, "equipment": 4344, "react": 4345, "say": 4346, "specs": 4347, "peg": 4348, "cx": 4349, "simulated": 4350, "important": 4351, "hap": 4352, "provisioner": 4353, "rectangle": 4354, "suit": 4355, "traffic": 4356, "busy": 4357, "iterations": 4358, "sparse": 4359, "edb": 4360, "tuning": 4361, "rti": 4362, "occurs": 4363, "inserts": 4364, "datum": 4365, "igu": 4366, "circle": 4367, "summar": 4368, "atar": 4369, "revo": 4370, "fake": 4371, "compli": 4372, "atts": 4373, "widgets": 4374, "bracket": 4375, "popbill": 4376, "season": 4377, "proble": 4378, "making": 4379, "gaussian": 4380, "finger": 4381, "vx": 4382, "holders": 4383, "offer": 4384, "popo": 4385, "stripped": 4386, "astype": 4387, "ambiente": 4388, "vered": 4389, "pun": 4390, "cudnn": 4391, "ado": 4392, "hest": 4393, "compatibility": 4394, "umul": 4395, "hard": 4396, "insensitive": 4397, "juju": 4398, "ighest": 4399, "gs": 4400, "invoked": 4401, "rtl": 4402, "renders": 4403, "versal": 4404, "developer": 4405, "firewall": 4406, "highest": 4407, "confid": 4408, "aes": 4409, "skipped": 4410, "hello": 4411, "projection": 4412, "syllable": 4413, "convention": 4414, "palet": 4415, "fh": 4416, "ee": 4417, "gallery": 4418, "pict": 4419, "roid": 4420, "succe": 4421, "nost": 4422, "neare": 4423, "relationships": 4424, "enh": 4425, "bank": 4426, "adresse": 4427, "algo": 4428, "ivate": 4429, "regions": 4430, "listing": 4431, "zing": 4432, "extracted": 4433, "stops": 4434, "queued": 4435, "guard": 4436, "veloc": 4437, "vest": 4438, "graphic": 4439, "sentences": 4440, "lineno": 4441, "subprocess": 4442, "traverse": 4443, "chn": 4444, "scaled": 4445, "regexes": 4446, "disassociate": 4447, "outine": 4448, "eas": 4449, "extractor": 4450, "shader": 4451, "journal": 4452, "installation": 4453, "workteam": 4454, "suitable": 4455, "grupo": 4456, "notice": 4457, "gd": 4458, "dbsnapshot": 4459, "lear": 4460, "oring": 4461, "migr": 4462, "flip": 4463, "lengths": 4464, "assignments": 4465, "scat": 4466, "peers": 4467, "1024": 4468, "island": 4469, "transcript": 4470, "genus": 4471, "compose": 4472, "pup": 4473, "fixer": 4474, "fif": 4475, "sha256": 4476, "knx": 4477, "learning": 4478, "ben": 4479, "activate": 4480, "descriptions": 4481, "inherited": 4482, "convenience": 4483, "curlopt": 4484, "insn": 4485, "translated": 4486, "intervals": 4487, "istic": 4488, "nearest": 4489, "remember": 4490, "deleteresources": 4491, "subscriptions": 4492, "96": 4493, "nom": 4494, "purge": 4495, "filled": 4496, "footer": 4497, "twig": 4498, "identified": 4499, "describ": 4500, "mimetype": 4501, "combination": 4502, "rho": 4503, "quiet": 4504, "chrome": 4505, "izing": 4506, "vpnvserver": 4507, "english": 4508, "omial": 4509, "pieces": 4510, "arbit": 4511, "likely": 4512, "devi": 4513, "crl": 4514, "dropdown": 4515, "playlist": 4516, "surface": 4517, "objective": 4518, "s2": 4519, "diagnost": 4520, "128": 4521, "branches": 4522, "polling": 4523, "rete": 4524, "preference": 4525, "dicts": 4526, "wraps": 4527, "ae": 4528, "satis": 4529, "duplicates": 4530, "peek": 4531, "portal": 4532, "exactly": 4533, "deregister": 4534, "daily": 4535, "morph": 4536, "expects": 4537, "dmatrix": 4538, "ctor": 4539, "initialization": 4540, "treat": 4541, "copies": 4542, "ordering": 4543, "descriptors": 4544, "meter": 4545, "gas": 4546, "une": 4547, "blockly": 4548, "assoc": 4549, "atory": 4550, "atoms": 4551, "reached": 4552, "usually": 4553, "ario": 4554, "gz": 4555, "btn": 4556, "sitem": 4557, "orders": 4558, "yin": 4559, "processors": 4560, "88": 4561, "uniq": 4562, "reshape": 4563, "cao": 4564, "medium": 4565, "serve": 4566, "errs": 4567, "assumes": 4568, "puppet": 4569, "simpl": 4570, "descend": 4571, "balan": 4572, "grow": 4573, "enfor": 4574, "unchecked": 4575, "smart": 4576, "extracts": 4577, "locate": 4578, "76": 4579, "collapse": 4580, "ami": 4581, "stock": 4582, "blog": 4583, "declare": 4584, "pitch": 4585, "ered": 4586, "care": 4587, "networks": 4588, "experimental": 4589, "demo": 4590, "sha1": 4591, "unary": 4592, "tau": 4593, "builtin": 4594, "aioxmpp": 4595, "topt": 4596, "asn1": 4597, "listed": 4598, "higher": 4599, "checkbox": 4600, "jsonobject": 4601, "xr": 4602, "palette": 4603, "trusted": 4604, "sitemap": 4605, "selections": 4606, "intf": 4607, "inspection": 4608, "deal": 4609, "26": 4610, "omit": 4611, "magnit": 4612, "funcs": 4613, "claims": 4614, "affected": 4615, "grammar": 4616, "jwt": 4617, "mass": 4618, "tracked": 4619, "debugging": 4620, "calendars": 4621, "vers": 4622, "ks": 4623, "milliseconds": 4624, "keyboard": 4625, "y2": 4626, "alignment": 4627, "macro": 4628, "evaluation": 4629, "icontact": 4630, "problems": 4631, "downloaded": 4632, "por": 4633, "permit": 4634, "functional": 4635, "splits": 4636, "reactions": 4637, "analyze": 4638, "csrf": 4639, "noise": 4640, "monomial": 4641, "synthe": 4642, "degree": 4643, "facebook": 4644, "division": 4645, "atures": 4646, "observations": 4647, "lee": 4648, "thus": 4649, "crawl": 4650, "really": 4651, "mechan": 4652, "ny": 4653, "manually": 4654, "ied": 4655, "vpc": 4656, "enhance": 4657, "dna": 4658, "waf": 4659, "retrieved": 4660, "adjac": 4661, "gesture": 4662, "reaction": 4663, "sport": 4664, "pem": 4665, "edm": 4666, "sampled": 4667, "acing": 4668, "restri": 4669, "restriction": 4670, "transforms": 4671, "appends": 4672, "signing": 4673, "limits": 4674, "pred": 4675, "avg": 4676, "producer": 4677, "gick": 4678, "across": 4679, "fine": 4680, "doing": 4681, "fifo": 4682, "cascade": 4683, "cating": 4684, "develop": 4685, "izations": 4686, "npm": 4687, "commerce": 4688, "assemb": 4689, "leav": 4690, "estimate": 4691, "texts": 4692, "uint16": 4693, "ram": 4694, "ators": 4695, "announce": 4696, "nor": 4697, "dia": 4698, "represented": 4699, "yml": 4700, "loan": 4701, "gid": 4702, "specifies": 4703, "calibration": 4704, "interrupted": 4705, "splash": 4706, "unst": 4707, "ropy": 4708, "cry": 4709, "defining": 4710, "initializer": 4711, "various": 4712, "deployed": 4713, "rr": 4714, "lhs": 4715, "xs": 4716, "yo": 4717, "infinity": 4718, "arbitr": 4719, "matter": 4720, "unsafe": 4721, "reporting": 4722, "jun": 4723, "skills": 4724, "formatting": 4725, "touches": 4726, "roots": 4727, "seeds": 4728, "oney": 4729, "nice": 4730, "repl": 4731, "oauth2": 4732, "downcase": 4733, "distin": 4734, "tot": 4735, "gives": 4736, "magnitude": 4737, "detector": 4738, "authorize": 4739, "particip": 4740, "gal": 4741, "issu": 4742, "sdp": 4743, "tour": 4744, "alone": 4745, "occ": 4746, "browsers": 4747, "yarpc": 4748, "atable": 4749, "fu": 4750, "unif": 4751, "community": 4752, "spline": 4753, "ko": 4754, "webhook": 4755, "dp": 4756, "infof": 4757, "grab": 4758, "radians": 4759, "truncate": 4760, "v3": 4761, "supplement": 4762, "mc": 4763, "inclusive": 4764, "third": 4765, "correction": 4766, "possib": 4767, "widths": 4768, "uation": 4769, "tube": 4770, "errno": 4771, "mq": 4772, "ane": 4773, "prep": 4774, "pto": 4775, "28": 4776, "circ": 4777, "discount": 4778, "cancelled": 4779, "tests": 4780, "allen": 4781, "bone": 4782, "cally": 4783, "400": 4784, "displayed": 4785, "ceil": 4786, "continuation": 4787, "moves": 4788, "room": 4789, "prox": 4790, "signatures": 4791, "focused": 4792, "sensitive": 4793, "phased": 4794, "jd": 4795, "vv": 4796, "pel": 4797, "observable": 4798, "probably": 4799, "illa": 4800, "38": 4801, "resid": 4802, "story": 4803, "equation": 4804, "portion": 4805, "dos": 4806, "ji": 4807, "dyn": 4808, "counters": 4809, "2015": 4810, "ovs": 4811, "placement": 4812, "t1": 4813, "rejected": 4814, "tz": 4815, "oned": 4816, "persi": 4817, "episo": 4818, "depends": 4819, "unregister": 4820, "ender": 4821, "dashboard": 4822, "meaning": 4823, "dock": 4824, "nv": 4825, "happens": 4826, "minute": 4827, "feedback": 4828, "caches": 4829, "intensity": 4830, "seem": 4831, "compared": 4832, "toler": 4833, "captcha": 4834, "certkey": 4835, "wx": 4836, "itation": 4837, "determined": 4838, "ially": 4839, "regard": 4840, "distinct": 4841, "onto": 4842, "jsonrpc": 4843, "strconv": 4844, "fetches": 4845, "sus": 4846, "eff": 4847, "fragments": 4848, "though": 4849, "artifacts": 4850, "mixin": 4851, "37": 4852, "classification": 4853, "multipart": 4854, "outfile": 4855, "instrument": 4856, "convol": 4857, "afka": 4858, "serv": 4859, "executing": 4860, "measurements": 4861, "alphab": 4862, "runn": 4863, "approx": 4864, "integration": 4865, "alternative": 4866, "34": 4867, "finite": 4868, "debugf": 4869, "a1": 4870, "central": 4871, "validity": 4872, "avatar": 4873, "stopping": 4874, "observation": 4875, "coroutine": 4876, "copyright": 4877, "iterating": 4878, "freeze": 4879, "plane": 4880, "covariance": 4881, "nex": 4882, "unsigned": 4883, "ipt": 4884, "kafka": 4885, "codon": 4886, "ioerror": 4887, "r2": 4888, "identical": 4889, "tele": 4890, "environments": 4891, "setter": 4892, "composition": 4893, "epg": 4894, "perio": 4895, "utilities": 4896, "streaming": 4897, "implicit": 4898, "mtime": 4899, "constructs": 4900, "cores": 4901, "failures": 4902, "mage": 4903, "paint": 4904, "enforce": 4905, "fg": 4906, "shar": 4907, "interpolation": 4908, "why": 4909, "hmac": 4910, "annotated": 4911, "viewport": 4912, "versioned": 4913, "punct": 4914, "scatter": 4915, "coerce": 4916, "pip": 4917, "tk": 4918, "dag": 4919, "ablish": 4920, "trees": 4921, "zend": 4922, "friendly": 4923, "lifetime": 4924, "cpu": 4925, "nsip": 4926, "59": 4927, "genes": 4928, "breadcrumb": 4929, "trap": 4930, "ling": 4931, "acqu": 4932, "positional": 4933, "arbitrary": 4934, "elli": 4935, "lowest": 4936, "usable": 4937, "ravel": 4938, "assum": 4939, "appointment": 4940, "rms": 4941, "c1": 4942, "quit": 4943, "synchronize": 4944, "acces": 4945, "prefixed": 4946, "much": 4947, "acl6": 4948, "pseu": 4949, "compound": 4950, "ari": 4951, "bj": 4952, "indicating": 4953, "arger": 4954, "apis": 4955, "reservation": 4956, "smar": 4957, "strong": 4958, "kg": 4959, "e1": 4960, "callee": 4961, "bio": 4962, "unshift": 4963, "workspaces": 4964, "deci": 4965, "squared": 4966, "perms": 4967, "shop": 4968, "grunt": 4969, "shortcut": 4970, "compliance": 4971, "pressure": 4972, "scenario": 4973, "density": 4974, "reboot": 4975, "phys": 4976, "tf": 4977, "encoun": 4978, "encountered": 4979, "patches": 4980, "tipo": 4981, "subtree": 4982, "hood": 4983, "velocity": 4984, "fai": 4985, "modes": 4986, "uniform": 4987, "ano": 4988, "hyph": 4989, "smaller": 4990, "pseudo": 4991, "underscore": 4992, "soap": 4993, "itter": 4994, "establish": 4995, "tokenize": 4996, "ever": 4997, "formul": 4998, "sen": 4999, "imat": 5000, "today": 5001, "protection": 5002, "prime": 5003, "unsetresources": 5004, "ancestors": 5005, "transactions": 5006, "dimensional": 5007, "coeff": 5008, "ru": 5009, "overridden": 5010, "y0": 5011, "minus": 5012, "saf": 5013, "doclet": 5014, "victo": 5015, "victoire": 5016, "hrf": 5017, "value1": 5018, "artist": 5019, "unlink": 5020, "online": 5021, "iff": 5022, "allocate": 5023, "unauthorized": 5024, "mechanism": 5025, "mysql": 5026, "raster": 5027, "deleting": 5028, "suite": 5029, "lookahead": 5030, "notation": 5031, "512": 5032, "crypto": 5033, "r1": 5034, "urlen": 5035, "lgc": 5036, "potential": 5037, "hdf": 5038, "e2": 5039, "localized": 5040, "onal": 5041, "parenthe": 5042, "little": 5043, "several": 5044, "ante": 5045, "seman": 5046, "capit": 5047, "05": 5048, "dem": 5049, "sla": 5050, "anned": 5051, "webdriver": 5052, "fault": 5053, "lient": 5054, "observe": 5055, "cube": 5056, "gdn": 5057, "magick": 5058, "grouping": 5059, "signals": 5060, "04": 5061, "sas": 5062, "fitting": 5063, "ised": 5064, "guar": 5065, "publisher": 5066, "setopt": 5067, "partment": 5068, "tolerance": 5069, "neighbor": 5070, "discussions": 5071, "proj": 5072, "3d": 5073, "xff": 5074, "capabilities": 5075, "resolves": 5076, "larger": 5077, "ito": 5078, "ome": 5079, "asynchronously": 5080, "flu": 5081, "android": 5082, "21": 5083, "joined": 5084, "assumed": 5085, "past": 5086, "finding": 5087, "ema": 5088, "consistent": 5089, "sense": 5090, "blocked": 5091, "semi": 5092, "choo": 5093, "editable": 5094, "transformers": 5095, "specifier": 5096, "sale": 5097, "deliver": 5098, "thumbna": 5099, "stuff": 5100, "trimmed": 5101, "unavailable": 5102, "spot": 5103, "flask": 5104, "cron": 5105, "faster": 5106, "corr": 5107, "addrs": 5108, "timestamps": 5109, "istr": 5110, "owla": 5111, "owlaxi": 5112, "owlaxiom": 5113, "ught": 5114, "spell": 5115, "kunst": 5116, "kunstma": 5117, "kunstmaan": 5118, "subsequent": 5119, "sudo": 5120, "rol": 5121, "pul": 5122, "iguous": 5123, "indentation": 5124, "eig": 5125, "sexp": 5126, "jed": 5127, "zr": 5128, "fleet": 5129, "discover": 5130, "300": 5131, "ftp": 5132, "communication": 5133, "combo": 5134, "etag": 5135, "generating": 5136, "propagation": 5137, "ivity": 5138, "sheets": 5139, "hl": 5140, "whitelist": 5141, "enqueue": 5142, "tensor": 5143, "shorth": 5144, "shorthand": 5145, "configurator": 5146, "pts": 5147, "textarea": 5148, "passes": 5149, "away": 5150, "changelog": 5151, "gopt": 5152, "manual": 5153, "imported": 5154, "licen": 5155, "polynom": 5156, "bag": 5157, "utor": 5158, "bib": 5159, "preload": 5160, "apon": 5161, "sg": 5162, "65": 5163, "dee": 5164, "advanced": 5165, "invisible": 5166, "jq": 5167, "fish": 5168, "cel": 5169, "weapon": 5170, "skipping": 5171, "forwar": 5172, "precip": 5173, "inet": 5174, "mble": 5175, "matrices": 5176, "subtitle": 5177, "polynomial": 5178, "failover": 5179, "places": 5180, "hop": 5181, "rmaj": 5182, "snip": 5183, "zwave": 5184, "filtering": 5185, "enforcer": 5186, "c2": 5187, "sprite": 5188, "jedis": 5189, "tunnel": 5190, "assembly": 5191, "development": 5192, "releases": 5193, "zh": 5194, "orol": 5195, "rune": 5196, "cleo": 5197, "fla": 5198, "cv": 5199, "lia": 5200, "abel": 5201, "software": 5202, "weak": 5203, "soup": 5204, "recommended": 5205, "linux": 5206, "aug": 5207, "29": 5208, "basedir": 5209, "extras": 5210, "180": 5211, "rem": 5212, "summaries": 5213, "psr": 5214, "pian": 5215, "pianorol": 5216, "years": 5217, "persisted": 5218, "acquire": 5219, "utive": 5220, "truncation": 5221, "ske": 5222, "scheduler": 5223, "alter": 5224, "backwards": 5225, "vox": 5226, "sit": 5227, "dbid": 5228, "cgroup": 5229, "mfa": 5230, "synset": 5231, "aren": 5232, "zi": 5233, "ignoring": 5234, "stale": 5235, "pager": 5236, "legend": 5237, "independ": 5238, "509": 5239, "xso": 5240, "rid": 5241, "picture": 5242, "jj": 5243, "nii": 5244, "mandatory": 5245, "anging": 5246, "produce": 5247, "zen": 5248, "confidence": 5249, "amqp": 5250, "conflicts": 5251, "stylesheet": 5252, "invoice": 5253, "authority": 5254, "placeholders": 5255, "areas": 5256, "emo": 5257, "psf": 5258, "crf": 5259, "timephased": 5260, "trafficpolicy": 5261, "wel": 5262, "runnable": 5263, "internally": 5264, "moz": 5265, "writel": 5266, "chase": 5267, "breaks": 5268, "siblings": 5269, "desk": 5270, "trunc": 5271, "administr": 5272, "xo": 5273, "greg": 5274, "consec": 5275, "party": 5276, "triangle": 5277, "mobi": 5278, "microsoft": 5279, "xmlerror": 5280, "alarm": 5281, "advisor": 5282, "longest": 5283, "indexing": 5284, "shown": 5285, "unded": 5286, "xyz": 5287, "gray": 5288, "bbox": 5289, "broken": 5290, "jcd": 5291, "crc": 5292, "saving": 5293, "eli": 5294, "solve": 5295, "interpolate": 5296, "described": 5297, "recover": 5298, "geom": 5299, "episode": 5300, "recognized": 5301, "revoke": 5302, "b58": 5303, "cti": 5304, "exclusive": 5305, "subtype": 5306, "continuous": 5307, "arraycopy": 5308, "deserialization": 5309, "subtr": 5310, "near": 5311, "ints": 5312, "charge": 5313, "slow": 5314, "countries": 5315, "xm": 5316, "yel": 5317, "xsl": 5318, "pwd": 5319, "ordinal": 5320, "readout": 5321, "tb": 5322, "distances": 5323, "closes": 5324, "uit": 5325, "independent": 5326, "retain": 5327, "normalization": 5328, "rich": 5329, "nets": 5330, "uris": 5331, "shares": 5332, "executions": 5333, "thumbnail": 5334, "blur": 5335, "backoff": 5336, "visual": 5337, "uis": 5338, "folds": 5339, "applicable": 5340, "tds": 5341, "caching": 5342, "sand": 5343, "persister": 5344, "replacements": 5345, "isk": 5346, "t2": 5347, "hdu": 5348, "animate": 5349, "mobile": 5350, "confirmation": 5351, "ador": 5352, "compe": 5353, "contacts": 5354, "serializ": 5355, "opens": 5356, "initiate": 5357, "reviewing": 5358, "loops": 5359, "localhost": 5360, "questions": 5361, "nf": 5362, "purchase": 5363, "cri": 5364, "replay": 5365, "yellow": 5366, "ket": 5367, "taxonom": 5368, "gain": 5369, "explo": 5370, "csvserver": 5371, "injector": 5372, "slashes": 5373, "merges": 5374, "four": 5375, "grpc": 5376, "ict": 5377, "epub": 5378, "epo": 5379, "gered": 5380, "es6": 5381, "elm": 5382, "websocket": 5383, "shrink": 5384, "maintain": 5385, "lets": 5386, "haplo": 5387, "modifies": 5388, "insertion": 5389, "bench": 5390, "gregori": 5391, "gregorian": 5392, "strf": 5393, "scoped": 5394, "detection": 5395, "thre": 5396, "w3": 5397, "updater": 5398, "concatenate": 5399, "scrolling": 5400, "vc": 5401, "lowercase": 5402, "supplemental": 5403, "metabolites": 5404, "numtype": 5405, "aware": 5406, "complet": 5407, "strftime": 5408, "67": 5409, "qs": 5410, "possibly": 5411, "emitted": 5412, "differences": 5413, "iam": 5414, "tex": 5415, "bots": 5416, "labeling": 5417, "m2": 5418, "ialized": 5419, "alized": 5420, "labelname": 5421, "gav": 5422, "scall": 5423, "eds": 5424, "equality": 5425, "violation": 5426, "accur": 5427, "traceback": 5428, "ech": 5429, "moder": 5430, "backups": 5431, "waits": 5432, "datasets": 5433, "attribs": 5434, "syscall": 5435, "probabilities": 5436, "released": 5437, "strop": 5438, "strophe": 5439, "stren": 5440, "searches": 5441, "stacks": 5442, "statuses": 5443, "drive": 5444, "consecutive": 5445, "dont": 5446, "specifying": 5447, "triggered": 5448, "isol": 5449, "money": 5450, "trait": 5451, "secondary": 5452, "blueprint": 5453, "slide": 5454, "integers": 5455, "b2": 5456, "hdf5": 5457, "vagrant": 5458, "ky": 5459, "stu": 5460, "strength": 5461, "caught": 5462, "cookbook": 5463, "committed": 5464, "deleg": 5465, "competing": 5466, "scipy": 5467, "reported": 5468, "v6": 5469, "issuer": 5470, "ghost": 5471, "articles": 5472, "yii": 5473, "apa": 5474, "gutter": 5475, "nslimit": 5476, "timed": 5477, "rema": 5478, "guarante": 5479, "occurred": 5480, "x3": 5481, "locks": 5482, "payer": 5483, "cern": 5484, "cutoff": 5485, "poses": 5486, "goes": 5487, "interests": 5488, "ares": 5489, "queryset": 5490, "fy": 5491, "tier": 5492, "htm": 5493, "pools": 5494, "prune": 5495, "air": 5496, "optimize": 5497, "gbif": 5498, "bookmark": 5499, "newer": 5500, "universal": 5501, "therefore": 5502, "deviation": 5503, "haml": 5504, "doctr": 5505, "doctrine": 5506, "datasource": 5507, "gov": 5508, "jquery": 5509, "contiv": 5510, "changing": 5511, "migrations": 5512, "epoch": 5513, "credit": 5514, "plotlib": 5515, "shake": 5516, "potent": 5517, "spar": 5518, "popover": 5519, "fixt": 5520, "challen": 5521, "challenge": 5522, "pic": 5523, "listening": 5524, "newly": 5525, "jpeg": 5526, "dar": 5527, "sessionpolicy": 5528, "hack": 5529, "vey": 5530, "orderby": 5531, "writeln": 5532, "reduced": 5533, "izes": 5534, "concurrent": 5535, "webpack": 5536, "transmit": 5537, "referrer": 5538, "h2": 5539, "enumerable": 5540, "produces": 5541, "sass": 5542, "buckets": 5543, "deck": 5544, "pinyin": 5545, "recurse": 5546, "leaves": 5547, "had": 5548, "couldn": 5549, "03": 5550, "setdefault": 5551, "didn": 5552, "xss": 5553, "backward": 5554, "fed": 5555, "cleaned": 5556, "rgba": 5557, "pil": 5558, "junction": 5559, "subscribed": 5560, "hyphen": 5561, "installer": 5562, "cosmo": 5563, "html5": 5564, "pf": 5565, "cial": 5566, "existe": 5567, "followed": 5568, "matchers": 5569, "fork": 5570, "interactive": 5571, "yyyy": 5572, "brand": 5573, "gly": 5574, "timeline": 5575, "needle": 5576, "d2": 5577, "lig": 5578, "bitmap": 5579, "coder": 5580, "cleoti": 5581, "contour": 5582, "prefs": 5583, "transpose": 5584, "transi": 5585, "transient": 5586, "destroyed": 5587, "formula": 5588, "iout": 5589, "isfile": 5590, "paused": 5591, "contenttype": 5592, "thrift": 5593, "submitted": 5594, "celer": 5595, "cors": 5596, "excludes": 5597, "aaauser": 5598, "derive": 5599, "criterion": 5600, "recursion": 5601, "production": 5602, "particle": 5603, "inder": 5604, "datepicker": 5605, "n2": 5606, "jet": 5607, "factories": 5608, "licenses": 5609, "optimization": 5610, "mw": 5611, "exe": 5612, "shi": 5613, "located": 5614, "navig": 5615, "nao": 5616, "subtract": 5617, "cro": 5618, "cov": 5619, "arange": 5620, "x00": 5621, "moving": 5622, "median": 5623, "blo": 5624, "ai": 5625, "packets": 5626, "redirects": 5627, "intents": 5628, "bars": 5629, "protobuf": 5630, "beans": 5631, "edits": 5632, "shif": 5633, "manip": 5634, "reuse": 5635, "rum": 5636, "value2": 5637, "nucleoti": 5638, "vdn": 5639, "follows": 5640, "instructions": 5641, "ipset": 5642, "nth": 5643, "dan": 5644, "reactor": 5645, "wav": 5646, "dims": 5647, "forced": 5648, "punctuation": 5649, "energy": 5650, "lx": 5651, "labe": 5652, "proxies": 5653, "zones": 5654, "matical": 5655, "mn": 5656, "aaaa": 5657, "vic": 5658, "groupname": 5659, "stable": 5660, "rebuild": 5661, "periodic": 5662, "ja": 5663, "autoscale": 5664, "repeated": 5665, "classic": 5666, "querystring": 5667, "printed": 5668, "symmetric": 5669, "vary": 5670, "hh": 5671, "labeled": 5672, "intermediate": 5673, "lf": 5674, "crs": 5675, "hue": 5676, "servlet": 5677, "gopter": 5678, "forb": 5679, "circular": 5680, "abc": 5681, "compressor": 5682, "cies": 5683, "stick": 5684, "manipul": 5685, "dhcp": 5686, "requirement": 5687, "appfwprofile": 5688, "diam": 5689, "ansi": 5690, "spectrum": 5691, "spat": 5692, "leader": 5693, "brace": 5694, "ldml": 5695, "warm": 5696, "dictionaries": 5697, "searching": 5698, "overwritten": 5699, "ake": 5700, "gomock": 5701, "invest": 5702, "polar": 5703, "ensus": 5704, "tiles": 5705, "validators": 5706, "seo": 5707, "mas": 5708, "kers": 5709, "emp": 5710, "wide": 5711, "uber": 5712, "pylint": 5713, "70": 5714, "datapo": 5715, "uf": 5716, "mutate": 5717, "van": 5718, "vue": 5719, "dog": 5720, "pianoroll": 5721, "sized": 5722, "sorts": 5723, "deployments": 5724, "slack": 5725, "inform": 5726, "mini": 5727, "sph": 5728, "evaluated": 5729, "lake": 5730, "operators": 5731, "uids": 5732, "ni": 5733, "readonly": 5734, "x509": 5735, "verbos": 5736, "verbosity": 5737, "amin": 5738, "fingerprint": 5739, "mlmodel": 5740, "graphics": 5741, "symbolic": 5742, "archi": 5743, "activated": 5744, "appended": 5745, "gist": 5746, "incomplete": 5747, "offline": 5748, "apache": 5749, "umin": 5750, "collapsed": 5751, "delayed": 5752, "urlencode": 5753, "cds": 5754, "rxn": 5755, "fq": 5756, "qq": 5757, "parsers": 5758, "goto": 5759, "slave": 5760, "preced": 5761, "ote": 5762, "gar": 5763, "rsa": 5764, "dismis": 5765, "undo": 5766, "xxxx": 5767, "pairwise": 5768, "correspond": 5769, "specimens": 5770, "assignable": 5771, "priv": 5772, "attempting": 5773, "cod": 5774, "osen": 5775, "swi": 5776, "periods": 5777, "mwp": 5778, "brokers": 5779, "clusternode": 5780, "nego": 5781, "fresh": 5782, "wit": 5783, "aborted": 5784, "logout": 5785, "tg": 5786, "grace": 5787, "seems": 5788, "smtp": 5789, "terr": 5790, "sz": 5791, "putility": 5792, "grav": 5793, "serializable": 5794, "nsp": 5795, "prospect": 5796, "principals": 5797, "stalk": 5798, "arer": 5799, "playing": 5800, "inheritance": 5801, "babel": 5802, "literals": 5803, "127": 5804, "ndim": 5805, "hierarchical": 5806, "xhtml": 5807, "bases": 5808, "fac": 5809, "beanstalk": 5810, "connecting": 5811, "aper": 5812, "uploads": 5813, "directions": 5814, "atives": 5815, "collected": 5816, "likeli": 5817, "mol": 5818, "becomes": 5819, "nonnull": 5820, "jetty": 5821, "decorate": 5822, "prim": 5823, "mes": 5824, "die": 5825, "grammatical": 5826, "critical": 5827, "announcement": 5828, "equalities": 5829, "invalidate": 5830, "overload": 5831, "nickname": 5832, "largest": 5833, "wrapping": 5834, "56": 5835, "mux": 5836, "concrete": 5837, "unwrap": 5838, "fav": 5839, "fc": 5840, "cards": 5841, "normalizer": 5842, "wg": 5843, "lexer": 5844, "deadline": 5845, "ios": 5846, "treated": 5847, "profil": 5848, "converting": 5849, "vpnclient": 5850, "accumul": 5851, "intval": 5852, "wsdl": 5853, "toc": 5854, "automaton": 5855, "mul": 5856, "ons": 5857, "inker": 5858, "floating": 5859, "satisfi": 5860, "likelihood": 5861, "stash": 5862, "reci": 5863, "eps": 5864, "vb": 5865, "consistency": 5866, "handshake": 5867, "vp": 5868, "compartment": 5869, "auditns": 5870, "auditnslogpolicy": 5871, "proof": 5872, "apiclient": 5873, "mpputility": 5874, "alternate": 5875, "d1": 5876, "playback": 5877, "wanted": 5878, "negoti": 5879, "displays": 5880, "approxim": 5881, "tempfile": 5882, "arity": 5883, "scales": 5884, "autocomplete": 5885, "subclasses": 5886, "chal": 5887, "kid": 5888, "weeks": 5889, "lax": 5890, "hed": 5891, "iom": 5892, "enta": 5893, "ball": 5894, "twice": 5895, "mismatch": 5896, "precedence": 5897, "disconnected": 5898, "markers": 5899, "ioc": 5900, "assist": 5901, "prebuilt": 5902, "udf": 5903, "startup": 5904, "uploader": 5905, "supply": 5906, "bearer": 5907, "realpath": 5908, "resets": 5909, "deprecation": 5910, "ingress": 5911, "shrinker": 5912, "dao": 5913, "mvc": 5914, "prc": 5915, "compares": 5916, "upgra": 5917, "storing": 5918, "subscriber": 5919, "123": 5920, "p3": 5921, "fired": 5922, "heading": 5923, "computation": 5924, "phan": 5925, "nstates": 5926, "regenerate": 5927, "dbsecurity": 5928, "smalle": 5929, "smallest": 5930, "identific": 5931, "divide": 5932, "uted": 5933, "become": 5934, "gender": 5935, "verifier": 5936, "tv": 5937, "hol": 5938, "slices": 5939, "manifold": 5940, "answ": 5941, "answers": 5942, "passive": 5943, "layouts": 5944, "unbind": 5945, "qr": 5946, "wc": 5947, "inx": 5948, "clique": 5949, "triple": 5950, "egg": 5951, "street": 5952, "spatial": 5953, "sslcertkey": 5954, "oneway": 5955, "fox": 5956, "sometimes": 5957, "behaviour": 5958, "prise": 5959, "ents": 5960, "ression": 5961, "uricomponent": 5962, "jr": 5963, "tro": 5964, "recs": 5965, "pes": 5966, "joint": 5967, "subsystem": 5968, "boundaries": 5969, "denom": 5970, "verified": 5971, "chosen": 5972, "balancer": 5973, "signific": 5974, "letters": 5975, "cdaccount": 5976, "realm": 5977, "raml": 5978, "detached": 5979, "phantom": 5980, "perf": 5981, "chooser": 5982, "sms": 5983, "cty": 5984, "primer": 5985, "contextual": 5986, "reporter": 5987, "reversed": 5988, "kms": 5989, "protect": 5990, "quota": 5991, "impro": 5992, "abspath": 5993, "kuber": 5994, "kubernet": 5995, "kubernetes": 5996, "circuit": 5997, "hourly": 5998, "removal": 5999, "exif": 6000, "reducer": 6001, "purpose": 6002, "sink": 6003, "nspbr": 6004, "fastlane": 6005, "10000": 6006, "describes": 6007, "speech": 6008, "incorrect": 6009, "fills": 6010, "delimited": 6011, "paginate": 6012, "subscribers": 6013, "bgp": 6014, "enumeration": 6015, "acceptable": 6016, "gavc": 6017, "pathinfo": 6018, "redshift": 6019, "firefox": 6020, "maxresults": 6021, "arily": 6022, "nabu": 6023, "foreignkey": 6024, "notifier": 6025, "decide": 6026, "annotatef": 6027, "fld": 6028, "shipping": 6029, "isation": 6030, "subnets": 6031, "heap": 6032, "agger": 6033, "modifications": 6034, "substitutions": 6035, "shows": 6036, "replacing": 6037, "intended": 6038, "weighted": 6039, "retention": 6040, "vxlan": 6041, "mediote": 6042, "unchanged": 6043, "bp": 6044, "worksheet": 6045, "themes": 6046, "cidr": 6047, "transitions": 6048, "analyzed": 6049, "l2": 6050, "concern": 6051, "dur": 6052, "gm": 6053, "directives": 6054, "propagate": 6055, "eni": 6056, "reachable": 6057, "53": 6058, "creds": 6059, "cycles": 6060, "genotype": 6061, "transparent": 6062, "ptime": 6063, "cdn": 6064, "consensus": 6065, "chalk": 6066, "ifiable": 6067, "convolution": 6068, "sqlite": 6069, "extname": 6070, "paragraphs": 6071, "standalone": 6072, "heart": 6073, "naming": 6074, "aege": 6075, "aegean": 6076, "dynamo": 6077, "appender": 6078, "basestring": 6079, "ticket": 6080, "associative": 6081, "keydown": 6082, "currencies": 6083, "express": 6084, "reorder": 6085, "infile": 6086, "ember": 6087, "a0": 6088, "enterprise": 6089, "lbmonitor": 6090, "axiom": 6091, "cyan": 6092, "retrieving": 6093, "enumerator": 6094, "adjacent": 6095, "identificador": 6096, "normally": 6097, "multiply": 6098, "weet": 6099, "frozen": 6100, "spin": 6101, "p0": 6102, "snake": 6103, "diagnostic": 6104, "amico": 6105, "backdrop": 6106, "walker": 6107, "ascending": 6108, "multiplier": 6109, "preconditions": 6110, "caas": 6111, "corner": 6112, "chdir": 6113, "fonts": 6114, "2006": 6115, "fee": 6116, "jsx": 6117, "incl": 6118, "iteritems": 6119, "erb": 6120, "nm": 6121, "archit": 6122, "architect": 6123, "nesting": 6124, "matplotlib": 6125, "assuming": 6126, "97": 6127, "clnt": 6128, "setattr": 6129, "peop": 6130, "prede": 6131, "iiif": 6132, "pdb": 6133, "ancy": 6134, "47": 6135, "instantiation": 6136, "asarray": 6137, "prag": 6138, "vcf": 6139, "b1": 6140, "cash": 6141, "superclass": 6142, "cda": 6143, "inver": 6144, "predecess": 6145, "dialect": 6146, "edbobject": 6147, "survey": 6148, "bias": 6149, "indice": 6150, "concept": 6151, "chains": 6152, "scratch": 6153, "rounding": 6154, "taking": 6155, "lost": 6156, "pnp": 6157, "profilename": 6158, "buffers": 6159, "connectivity": 6160, "plots": 6161, "permitted": 6162, "wlm": 6163, "int8": 6164, "idim": 6165, "people": 6166, "alleles": 6167, "gable": 6168, "shapes": 6169, "rpm": 6170, "pure": 6171, "acer": 6172, "decimals": 6173, "alphabet": 6174, "testing": 6175, "encodes": 6176, "intercept": 6177, "downloads": 6178, "generators": 6179, "invite": 6180, "formatters": 6181, "matur": 6182, "linjection": 6183, "flattened": 6184, "rstrip": 6185, "early": 6186, "lout": 6187, "iny": 6188, "indirection": 6189, "infinite": 6190, "readline": 6191, "substitute": 6192, "functionality": 6193, "overview": 6194, "prm": 6195, "locking": 6196, "rek": 6197, "authenticationvserver": 6198, "physical": 6199, "medioteca": 6200, "shouldn": 6201, "sses": 6202, "prece": 6203, "configurable": 6204, "autoload": 6205, "swagger": 6206, "blocklist": 6207, "auditsys": 6208, "auditsyslogpolicy": 6209, "callsign": 6210, "fasta": 6211, "nst": 6212, "acls": 6213, "aneous": 6214, "aw": 6215, "blk": 6216, "rss": 6217, "skeleton": 6218, "predictions": 6219, "tid": 6220, "dex": 6221, "exposed": 6222, "clears": 6223, "imator": 6224, "assigns": 6225, "snippet": 6226, "ngram": 6227, "finalize": 6228, "acct": 6229, "website": 6230, "eu": 6231, "sentin": 6232, "fips": 6233, "wf": 6234, "inactive": 6235, "constructed": 6236, "b64": 6237, "appq": 6238, "appqoe": 6239, "stackoverflow": 6240, "abbre": 6241, "pragma": 6242, "ances": 6243, "cop": 6244, "populates": 6245, "subs": 6246, "coding": 6247, "fixme": 6248, "exclusion": 6249, "rede": 6250, "601": 6251, "applying": 6252, "getenv": 6253, "shield": 6254, "odd": 6255, "rp": 6256, "bare": 6257, "revert": 6258, "drain": 6259, "diameter": 6260, "structures": 6261, "requester": 6262, "99999999": 6263, "fullpath": 6264, "internet": 6265, "bn": 6266, "desktop": 6267, "featured": 6268, "databases": 6269, "dip": 6270, "vanilla": 6271, "factors": 6272, "cni": 6273, "arp": 6274, "species": 6275, "rnat": 6276, "searchable": 6277, "ising": 6278, "ath": 6279, "multil": 6280, "decorators": 6281, "parens": 6282, "emul": 6283, "cdf": 6284, "allocation": 6285, "rekord": 6286, "accounting": 6287, "lm": 6288, "plans": 6289, "icons": 6290, "dots": 6291, "gather": 6292, "gw": 6293, "rebalance": 6294, "objs": 6295, "vera": 6296, "few": 6297, "scans": 6298, "enclosing": 6299, "forbidden": 6300, "voldem": 6301, "voldemort": 6302, "validating": 6303, "providing": 6304, "xdoclet": 6305, "bud": 6306, "i2": 6307, "kb": 6308, "bub": 6309, "eta": 6310, "mbean": 6311, "slop": 6312, "adjusted": 6313, "navigator": 6314, "ados": 6315, "succeeded": 6316, "relay": 6317, "outgoing": 6318, "coefficients": 6319, "basis": 6320, "forget": 6321, "mile": 6322, "natural": 6323, "cers": 6324, "49": 6325, "mocks": 6326, "engines": 6327, "angles": 6328, "fisher": 6329, "tld": 6330, "qualifier": 6331, "hydrator": 6332, "marc": 6333, "contribution": 6334, "verifies": 6335, "aster": 6336, "presets": 6337, "z1": 6338, "ioutil": 6339, "rip": 6340, "08": 6341, "selects": 6342, "remainder": 6343, "rounded": 6344, "sandbox": 6345, "vrid": 6346, "nstr": 6347, "dispose": 6348, "techn": 6349, "truncated": 6350, "waveform": 6351, "xw": 6352, "metrict": 6353, "metrictable": 6354, "banner": 6355, "augment": 6356, "propel": 6357, "perman": 6358, "permanent": 6359, "combinations": 6360, "residual": 6361, "canceled": 6362, "snapshots": 6363, "printer": 6364, "automatic": 6365, "jsonresponse": 6366, "validations": 6367, "vocabul": 6368, "vocabulary": 6369, "recommend": 6370, "expl": 6371, "dnss": 6372, "denied": 6373, "lessaccess": 6374, "coer": 6375, "selves": 6376, "sem": 6377, "opcode": 6378, "environs": 6379, "produced": 6380, "duplicated": 6381, "upsert": 6382, "86": 6383, "lua": 6384, "cachepolicy": 6385, "ymin": 6386, "typically": 6387, "caps": 6388, "rtrim": 6389, "macaro": 6390, "exceeded": 6391, "hasher": 6392, "sex": 6393, "restricted": 6394, "descending": 6395, "spam": 6396, "forwarding": 6397, "prefetch": 6398, "cspolicy": 6399, "corbel": 6400, "syslog": 6401, "46": 6402, "avro": 6403, "fx": 6404, "analyzer": 6405, "8601": 6406, "award": 6407, "metas": 6408, "gif": 6409, "ban": 6410, "ctypes": 6411, "ora": 6412, "existence": 6413, "noop": 6414, "aligned": 6415, "bor": 6416, "chip": 6417, "accent": 6418, "decrease": 6419, "twitter": 6420, "irc": 6421, "alerts": 6422, "gslbservice": 6423, "systemglobal": 6424, "house": 6425, "ile": 6426, "waiter": 6427, "occup": 6428, "42": 6429, "07": 6430, "disp": 6431, "rights": 6432, "carri": 6433, "nolint": 6434, "corresponds": 6435, "cmap": 6436, "chnk": 6437, "decrement": 6438, "revisions": 6439, "overall": 6440, "ota": 6441, "unzip": 6442, "receives": 6443, "emails": 6444, "procedures": 6445, "sqr": 6446, "dsl": 6447, "360": 6448, "xmin": 6449, "ague": 6450, "requis": 6451, "descricao": 6452, "datastore": 6453, "capability": 6454, "aliased": 6455, "rw": 6456, "statistic": 6457, "carry": 6458, "disposition": 6459, "f0": 6460, "ua": 6461, "players": 6462, "taxonomy": 6463, "aggregated": 6464, "sib": 6465, "structured": 6466, "firebase": 6467, "road": 6468, "stars": 6469, "fft": 6470, "bookmarks": 6471, "flav": 6472, "causes": 6473, "predic": 6474, "dro": 6475, "ssim": 6476, "urne": 6477, "regression": 6478, "mor": 6479, "danger": 6480, "nstraffic": 6481, "nstrafficdomain": 6482, "minimal": 6483, "gold": 6484, "wildcards": 6485, "shuff": 6486, "solid": 6487, "restrictions": 6488, "overrid": 6489, "pointers": 6490, "199": 6491, "kept": 6492, "crawler": 6493, "platforms": 6494, "corrupt": 6495, "demand": 6496, "expiry": 6497, "snow": 6498, "uwsgi": 6499, "company": 6500, "pipes": 6501, "rst": 6502, "hosted": 6503, "sortable": 6504, "lut": 6505, "jpa": 6506, "mutations": 6507, "evene": 6508, "dbinstances": 6509, "fluxes": 6510, "bloco": 6511, "infl": 6512, "ato": 6513, "rounds": 6514, "forever": 6515, "wares": 6516, "unescape": 6517, "outline": 6518, "qa": 6519, "bst": 6520, "directed": 6521, "cdt": 6522, "f2": 6523, "accessed": 6524, "shallow": 6525, "servicegroupname": 6526, "ned": 6527, "chef": 6528, "glyph": 6529, "netmask": 6530, "narrow": 6531, "dotted": 6532, "a2": 6533, "modifiable": 6534, "staging": 6535, "drawing": 6536, "keeping": 6537, "spo": 6538, "fis": 6539, "relax": 6540, "clauses": 6541, "ately": 6542, "toolbar": 6543, "jpg": 6544, "rio": 6545, "loqu": 6546, "frac": 6547, "chord": 6548, "placed": 6549, "vpnclientlessaccess": 6550, "bered": 6551, "exporter": 6552, "asyncio": 6553, "assistant": 6554, "variation": 6555, "cations": 6556, "risk": 6557, "ambiguous": 6558, "graphs": 6559, "sharing": 6560, "125": 6561, "injected": 6562, "policyname": 6563, "campa": 6564, "wy": 6565, "2014": 6566, "prepares": 6567, "isl": 6568, "rotated": 6569, "submodule": 6570, "intran": 6571, "consumers": 6572, "league": 6573, "nz": 6574, "imap": 6575, "sentinel": 6576, "foot": 6577, "v0": 6578, "renamed": 6579, "terminated": 6580, "obtained": 6581, "appears": 6582, "stud": 6583, "paging": 6584, "operating": 6585, "campaign": 6586, "construction": 6587, "whate": 6588, "whatever": 6589, "loquent": 6590, "sts": 6591, "agents": 6592, "ye": 6593, "ues": 6594, "tmpl": 6595, "absent": 6596, "lxd": 6597, "descendant": 6598, "decidim": 6599, "ofnet": 6600, "conjunction": 6601, "xdo": 6602, "oserror": 6603, "recognizer": 6604, "shp": 6605, "decoding": 6606, "parameterized": 6607, "suggestions": 6608, "qpi": 6609, "mgr": 6610, "xmax": 6611, "ymax": 6612, "trg": 6613, "similarity": 6614, "subgal": 6615, "lacon": 6616, "laconic": 6617, "heartbeat": 6618, "grants": 6619, "fluent": 6620, "locally": 6621, "elt": 6622, "diagnostics": 6623, "affili": 6624, "esc": 6625, "invert": 6626, "classify": 6627, "phpcs": 6628, "mgmt": 6629, "hasn": 6630, "lattice": 6631, "buy": 6632, "consumed": 6633, "keyname": 6634, "ntp": 6635, "wires": 6636, "lr": 6637, "classpath": 6638, "votes": 6639, "x7": 6640, "dying": 6641, "north": 6642, "latency": 6643, "aaagroup": 6644, "dnspolicy": 6645, "responsible": 6646, "night": 6647, "strtoupper": 6648, "specifications": 6649, "opener": 6650, "cumul": 6651, "eloquent": 6652, "ital": 6653, "simplify": 6654, "allocated": 6655, "smarti": 6656, "smartirc": 6657, "cmds": 6658, "receiv": 6659, "chromo": 6660, "chromosome": 6661, "sphinx": 6662, "renew": 6663, "bypass": 6664, "anchors": 6665, "asp": 6666, "allowlist": 6667, "stealer": 6668, "clusterinstance": 6669, "samp": 6670, "grand": 6671, "etree": 6672, "ucfirst": 6673, "malformed": 6674, "motion": 6675, "inds": 6676, "webkit": 6677, "middlewares": 6678, "connects": 6679, "minimize": 6680, "jsonarray": 6681, "cobra": 6682, "symlink": 6683, "nonzero": 6684, "regardless": 6685, "titles": 6686, "nba": 6687, "eigen": 6688, "responderpolicy": 6689, "h1": 6690, "maturity": 6691, "sensor": 6692, "reversible": 6693, "asing": 6694, "monitoring": 6695, "expansion": 6696, "strand": 6697, "hoist": 6698, "coeffs": 6699, "homo": 6700, "ffi": 6701, "splitext": 6702, "erlang": 6703, "ivar": 6704, "describing": 6705, "ago": 6706, "dropped": 6707, "separators": 6708, "anode": 6709, "xl": 6710, "hashed": 6711, "treebank": 6712, "zmq": 6713, "cv2": 6714, "esian": 6715, "ciph": 6716, "popper": 6717, "seller": 6718, "irs": 6719, "iday": 6720, "toast": 6721, "evi": 6722, "shuffle": 6723, "characteristic": 6724, "hq": 6725, "noun": 6726, "hib": 6727, "2000": 6728, "1000000": 6729, "traver": 6730, "camelize": 6731, "oldest": 6732, "market": 6733, "tur": 6734, "dv": 6735, "iri": 6736, "fm": 6737, "rates": 6738, "storm": 6739, "oplus": 6740, "performing": 6741, "an2": 6742, "dynamically": 6743, "diagonal": 6744, "chmod": 6745, "pickle": 6746, "neither": 6747, "semicolon": 6748, "idem": 6749, "quantum": 6750, "zers": 6751, "divid": 6752, "edition": 6753, "frontend": 6754, "newest": 6755, "vent": 6756, "o1": 6757, "often": 6758, "unmodifiable": 6759, "elife": 6760, "adapters": 6761, "filesize": 6762, "ering": 6763, "rough": 6764, "key2": 6765, "soon": 6766, "breaker": 6767, "nod": 6768, "hqmf": 6769, "route6": 6770, "exon": 6771, "confound": 6772, "interpreted": 6773, "wants": 6774, "tgt": 6775, "r0": 6776, "shipment": 6777, "colorize": 6778, "enables": 6779, "capitalize": 6780, "55": 6781, "gpu": 6782, "gettype": 6783, "mbl": 6784, "han": 6785, "errback": 6786, "k1": 6787, "resolving": 6788, "upstream": 6789, "downloading": 6790, "masks": 6791, "volat": 6792, "zoo": 6793, "payloads": 6794, "bing": 6795, "ecc": 6796, "contracts": 6797, "dnszone": 6798, "wur": 6799, "benchmark": 6800, "tried": 6801, "macaroon": 6802, "holds": 6803, "drush": 6804, "typo": 6805, "isdir": 6806, "slider": 6807, "copying": 6808, "refe": 6809, "squares": 6810, "printing": 6811, "gv": 6812, "s0": 6813, "pypy": 6814, "proce": 6815, "zzle": 6816, "granted": 6817, "knot": 6818, "epsil": 6819, "epsilon": 6820, "joins": 6821, "xmlns": 6822, "photoset": 6823, "plist": 6824, "rtn": 6825, "fopen": 6826, "informed": 6827, "fires": 6828, "easily": 6829, "receipt": 6830, "sst": 6831, "workaround": 6832, "certs": 6833, "voice": 6834, "newlines": 6835, "overl": 6836, "jsh": 6837, "reserve": 6838, "showing": 6839, "silently": 6840, "keyspace": 6841, "recipients": 6842, "linter": 6843, "facets": 6844, "tou": 6845, "lease": 6846, "club": 6847, "topo": 6848, "escap": 6849, "v2logging": 6850, "iser": 6851, "synthetic": 6852, "gradebook": 6853, "completely": 6854, "meters": 6855, "predicates": 6856, "imagin": 6857, "dark": 6858, "rise": 6859, "corpor": 6860, "turns": 6861, "timeouts": 6862, "holding": 6863, "authn": 6864, "tel": 6865, "stationary": 6866, "manial": 6867, "manialink": 6868, "urllib": 6869, "utorial": 6870, "pedia": 6871, "coral": 6872, "readme": 6873, "amd": 6874, "fixing": 6875, "offi": 6876, "ats": 6877, "whenever": 6878, "ational": 6879, "sslvserver": 6880, "jshint": 6881, "tempo": 6882, "spotify": 6883, "ledge": 6884, "initiated": 6885, "sted": 6886, "semantic": 6887, "maven": 6888, "significant": 6889, "pv": 6890, "east": 6891, "undef": 6892, "xt": 6893, "bubble": 6894, "cloned": 6895, "mailer": 6896, "op2": 6897, "kma": 6898, "plaint": 6899, "serializes": 6900, "85": 6901, "tells": 6902, "thrott": 6903, "purposes": 6904, "scrollbar": 6905, "antize": 6906, "requesting": 6907, "bid": 6908, "preprocessor": 6909, "keyed": 6910, "isolation": 6911, "potentially": 6912, "contribut": 6913, "interim": 6914, "codepoint": 6915, "sockets": 6916, "spil": 6917, "spillover": 6918, "hu": 6919, "concurrency": 6920, "browse": 6921, "dac": 6922, "tions": 6923, "izable": 6924, "f1": 6925, "vk": 6926, "tutorial": 6927, "nvgraph": 6928, "plaintext": 6929, "symfon": 6930, "acle": 6931, "obsole": 6932, "l3": 6933, "chance": 6934, "blocksize": 6935, "uel": 6936, "istan": 6937, "istanbul": 6938, "lelement": 6939, "privi": 6940, "derivative": 6941, "curly": 6942, "tilt": 6943, "overlapping": 6944, "izers": 6945, "guaranteed": 6946, "userdata": 6947, "recor": 6948, "observers": 6949, "migrate": 6950, "alization": 6951, "aps": 6952, "discri": 6953, "eper": 6954, "inp": 6955, "yn": 6956, "thead": 6957, "midi": 6958, "fout": 6959, "monomials": 6960, "established": 6961, "89": 6962, "rsp": 6963, "neighbour": 6964, "fclose": 6965, "z2": 6966, "nsip6": 6967, "captures": 6968, "sku": 6969, "2013": 6970, "remedi": 6971, "ham": 6972, "tone": 6973, "forwarded": 6974, "ox": 6975, "swipe": 6976, "analyses": 6977, "popen": 6978, "tdc": 6979, "constrain": 6980, "activities": 6981, "etcd": 6982, "presenter": 6983, "uppercase": 6984, "lp": 6985, "oracle": 6986, "thelia": 6987, "obsolete": 6988, "errorcode": 6989, "bower": 6990, "chk": 6991, "nslimitidentifier": 6992, "truth": 6993, "mcs": 6994, "shel": 6995, "probe": 6996, "destruct": 6997, "nano": 6998, "hsl": 6999, "aker": 7000, "evaluator": 7001, "atten": 7002, "formato": 7003, "enhanced": 7004, "screenshot": 7005, "presentation": 7006, "collab": 7007, "i1": 7008, "uintptr": 7009, "xc": 7010, "fastq": 7011, "pkt": 7012, "indy": 7013, "chimp": 7014, "symfony": 7015, "delimit": 7016, "atively": 7017, "ip6": 7018, "multiline": 7019, "disables": 7020, "omp": 7021, "traces": 7022, "jrdesign": 7023, "upgrad": 7024, "abbrevi": 7025, "chunked": 7026, "sidebar": 7027, "codecs": 7028, "odb": 7029, "accuracy": 7030, "sounds": 7031, "phy": 7032, "unsubscribe": 7033, "onerror": 7034, "smoo": 7035, "illumin": 7036, "sight": 7037, "ij": 7038, "inverted": 7039, "installment": 7040, "touched": 7041, "tains": 7042, "recorded": 7043, "cmppolicy": 7044, "escaping": 7045, "plevel": 7046, "schemes": 7047, "wikipedia": 7048, "vcard": 7049, "omega": 7050, "keeps": 7051, "deepcopy": 7052, "readdir": 7053, "badge": 7054, "timedelta": 7055, "assemble": 7056, "nbsp": 7057, "privile": 7058, "consul": 7059, "painter": 7060, "netprofile": 7061, "ili": 7062, "clamp": 7063, "grp": 7064, "3600": 7065, "72": 7066, "pypyr": 7067, "noinspection": 7068, "vtx": 7069, "identities": 7070, "constructors": 7071, "recording": 7072, "lnk": 7073, "indirect": 7074, "wurfl": 7075, "generally": 7076, "ious": 7077, "nside": 7078, "tiny": 7079, "gens": 7080, "comparable": 7081, "cgi": 7082, "lix": 7083, "trash": 7084, "recently": 7085, "001": 7086, "diagram": 7087, "int16": 7088, "approach": 7089, "ond": 7090, "synced": 7091, "phar": 7092, "callers": 7093, "expose": 7094, "safely": 7095, "ctl": 7096, "surn": 7097, "wheres": 7098, "ming": 7099, "79": 7100, "chine": 7101, "chinese": 7102, "pron": 7103, "deny": 7104, "ked": 7105, "recognition": 7106, "computer": 7107, "genome": 7108, "suspend": 7109, "explanations": 7110, "liers": 7111, "exts": 7112, "overlaps": 7113, "bonds": 7114, "los": 7115, "pbkey": 7116, "accessors": 7117, "reqs": 7118, "among": 7119, "estimated": 7120, "numbered": 7121, "fps": 7122, "recaptcha": 7123, "tmpdir": 7124, "ascent": 7125, "wirevector": 7126, "appfwpolicy": 7127, "surname": 7128, "orters": 7129, "m1": 7130, "ciphers": 7131, "videos": 7132, "percentile": 7133, "menus": 7134, "stra": 7135, "mxmap": 7136, "apple": 7137, "redund": 7138, "forge": 7139, "octet": 7140, "chemy": 7141, "arg1": 7142, "synchronously": 7143, "namespaced": 7144, "indented": 7145, "chaining": 7146, "satisfy": 7147, "authenticator": 7148, "courses": 7149, "invol": 7150, "ols": 7151, "vhost": 7152, "planned": 7153, "gul": 7154, "cleaning": 7155, "metabolite": 7156, "editing": 7157, "4j": 7158, "reasons": 7159, "00000000": 7160, "timers": 7161, "sanitized": 7162, "cumulative": 7163, "actors": 7164, "bear": 7165, "pysv": 7166, "dsn": 7167, "crypt": 7168, "conj": 7169, "hay": 7170, "publishing": 7171, "pobs": 7172, "nameserver": 7173, "entail": 7174, "bourne": 7175, "point2d": 7176, "svn": 7177, "haven": 7178, "v20": 7179, "pushed": 7180, "lip": 7181, "captured": 7182, "subdir": 7183, "interactions": 7184, "matic": 7185, "implementations": 7186, "gulp": 7187, "perobs": 7188, "organizations": 7189, "kr": 7190, "postal": 7191, "pkcs": 7192, "mro": 7193, "tan": 7194, "shoot": 7195, "contrast": 7196, "rubo": 7197, "cleared": 7198, "proceed": 7199, "ont": 7200, "plate": 7201, "wkt": 7202, "lsx": 7203, "curen": 7204, "gslbsite": 7205, "1d": 7206, "ich": 7207, "postfix": 7208, "infohash": 7209, "orb": 7210, "servic": 7211, "trav": 7212, "sentry": 7213, "adjacency": 7214, "arec": 7215, "entailment": 7216, "melbourne": 7217, "c0": 7218, "initialise": 7219, "findall": 7220, "alchemy": 7221, "rpos": 7222, "jax": 7223, "itu": 7224, "parenthesis": 7225, "okhttp": 7226, "anyway": 7227, "materiali": 7228, "configures": 7229, "corrected": 7230, "harvest": 7231, "binder": 7232, "transformpolicy": 7233, "dialogs": 7234, "recognize": 7235, "disks": 7236, "solar": 7237, "prepar": 7238, "covered": 7239, "blockchain": 7240, "acknow": 7241, "rive": 7242, "signer": 7243, "fetcher": 7244, "ptype": 7245, "06": 7246, "aff": 7247, "visu": 7248, "discrete": 7249, "tbody": 7250, "invocations": 7251, "colspan": 7252, "xref": 7253, "asm": 7254, "folded": 7255, "nucleotides": 7256, "k8": 7257, "groupby": 7258, "inplace": 7259, "runlock": 7260, "201": 7261, "employ": 7262, "unmatched": 7263, "declaring": 7264, "prote": 7265, "thresholds": 7266, "approved": 7267, "fieldname": 7268, "eth": 7269, "wan": 7270, "instantiated": 7271, "localization": 7272, "omitted": 7273, "evaluates": 7274, "acceptance": 7275, "discrimin": 7276, "unrecognized": 7277, "sess": 7278, "keeper": 7279, "cartesian": 7280, "obtains": 7281, "fuzz": 7282, "mounted": 7283, "importer": 7284, "tol": 7285, "servicename": 7286, "ecs": 7287, "citation": 7288, "drawable": 7289, "detects": 7290, "rlock": 7291, "astropy": 7292, "expecting": 7293, "easier": 7294, "fitted": 7295, "linalg": 7296, "pointing": 7297, "threading": 7298, "learn": 7299, "translatable": 7300, "xlink": 7301, "remediation": 7302, "hd": 7303, "lizer": 7304, "dpt": 7305, "homepage": 7306, "diffs": 7307, "oboe": 7308, "x80": 7309, "eras": 7310, "postings": 7311, "ache": 7312, "swe": 7313, "vowel": 7314, "tical": 7315, "nie": 7316, "occuren": 7317, "pmd": 7318, "relaxation": 7319, "nml": 7320, "toplevel": 7321, "dto": 7322, "howler": 7323, "peering": 7324, "l1": 7325, "evenement": 7326, "dnsaction": 7327, "sslcrl": 7328, "mz": 7329, "concent": 7330, "wasn": 7331, "sufficient": 7332, "oids": 7333, "prevents": 7334, "squareup": 7335, "dit": 7336, "plug": 7337, "slope": 7338, "numerical": 7339, "songs": 7340, "accordingly": 7341, "dpo": 7342, "entropy": 7343, "sslcipher": 7344, "structs": 7345, "decodes": 7346, "stride": 7347, "cacertificate": 7348, "owned": 7349, "latin": 7350, "lv": 7351, "operands": 7352, "volatility": 7353, "recall": 7354, "optimized": 7355, "analog": 7356, "84": 7357, "t0": 7358, "jas": 7359, "sector": 7360, "fade": 7361, "trade": 7362, "algorithms": 7363, "azim": 7364, "spi": 7365, "segmentation": 7366, "axioms": 7367, "xcode": 7368, "eto": 7369, "asser": 7370, "nodoc": 7371, "introspection": 7372, "shards": 7373, "hover": 7374, "miss": 7375, "argparse": 7376, "ipv6prefix": 7377, "strtotime": 7378, "uffix": 7379, "stages": 7380, "gravity": 7381, "faces": 7382, "bitfield": 7383, "allowing": 7384, "logo": 7385, "robots": 7386, "movie": 7387, "prompts": 7388, "bt": 7389, "decrypted": 7390, "optimizer": 7391, "plur": 7392, "pai": 7393, "exceeds": 7394, "artifactory": 7395, "pricing": 7396, "sslpolicy": 7397, "thop": 7398, "synsets": 7399, "seper": 7400, "oo": 7401, "kine": 7402, "meshes": 7403, "82": 7404, "nssim": 7405, "nssimple": 7406, "incremental": 7407, "hang": 7408, "mastercfg": 7409, "protocols": 7410, "doctype": 7411, "multiprocessing": 7412, "referer": 7413, "mention": 7414, "investig": 7415, "voxel": 7416, "linspace": 7417, "scho": 7418, "invokes": 7419, "tweet": 7420, "id2": 7421, "pubsub": 7422, "standar": 7423, "eric": 7424, "chomp": 7425, "committe": 7426, "redirection": 7427, "encies": 7428, "itution": 7429, "base58": 7430, "viz": 7431, "crosst": 7432, "specialized": 7433, "entered": 7434, "authenticationradius": 7435, "hdulist": 7436, "apos": 7437, "adresses": 7438, "clipped": 7439, "ipv6address": 7440, "nexthop": 7441, "htt": 7442, "ico": 7443, "belonging": 7444, "tregex": 7445, "ensemble": 7446, "ade": 7447, "essent": 7448, "promote": 7449, "acting": 7450, "haplotype": 7451, "upcase": 7452, "inserting": 7453, "relational": 7454, "ners": 7455, "hexa": 7456, "dbus": 7457, "standardi": 7458, "rubocop": 7459, "ran": 7460, "sbmodel": 7461, "apost": 7462, "gdata": 7463, "prot": 7464, "transmitter": 7465, "xsd": 7466, "monitorname": 7467, "rdn": 7468, "ripple": 7469, "interceptors": 7470, "snm": 7471, "tabb": 7472, "gor": 7473, "bait": 7474, "403": 7475, "3000": 7476, "pathlib": 7477, "zipfile": 7478, "mgo": 7479, "fan": 7480, "jek": 7481, "rolled": 7482, "apirequest": 7483, "improve": 7484, "thin": 7485, "responsive": 7486, "descendants": 7487, "tobj": 7488, "mpeg": 7489, "imaginary": 7490, "clob": 7491, "reed": 7492, "accumulator": 7493, "profiler": 7494, "secs": 7495, "baz": 7496, "padded": 7497, "microtime": 7498, "promotion": 7499, "domin": 7500, "chromosomes": 7501, "switches": 7502, "decomposition": 7503, "corrupted": 7504, "dbparameter": 7505, "weaponlike": 7506, "dlg": 7507, "intranet": 7508, "intranetapplication": 7509, "hmat": 7510, "zlib": 7511, "excluding": 7512, "forwarder": 7513, "jeky": 7514, "jekyll": 7515, "usr": 7516, "destport": 7517, "funcinfo": 7518, "scroller": 7519, "mousedown": 7520, "metabo": 7521, "emer": 7522, "passwords": 7523, "predefined": 7524, "uk": 7525, "pra": 7526, "blend": 7527, "itoa": 7528, "facts": 7529, "jack": 7530, "smarty": 7531, "hexadecimal": 7532, "nsacl6": 7533, "debugger": 7534, "cmy": 7535, "63": 7536, "imgur": 7537, "mentions": 7538, "jasper": 7539, "elect": 7540, "holiday": 7541, "replicas": 7542, "bur": 7543, "empt": 7544, "brush": 7545, "azimuth": 7546, "reduction": 7547, "fv": 7548, "constantize": 7549, "navigate": 7550, "drup": 7551, "drupal": 7552, "semantics": 7553, "segs": 7554, "reli": 7555, "metabolic": 7556, "tmax": 7557, "09": 7558, "floats": 7559, "poller": 7560, "sze": 7561, "datapoint": 7562, "succeed": 7563, "respectively": 7564, "his": 7565, "archives": 7566, "drm": 7567, "iap": 7568, "enroll": 7569, "misc": 7570, "maxim": 7571, "obj2": 7572, "colours": 7573, "institution": 7574, "fixtures": 7575, "crosstab": 7576, "rewind": 7577, "fobj": 7578, "imer": 7579, "rewritepolicy": 7580, "postcode": 7581, "sales": 7582, "wm": 7583, "destin": 7584, "sti": 7585, "anymore": 7586, "depre": 7587, "wound": 7588, "k8s": 7589, "rval": 7590, "tmsessionpolicy": 7591, "distributed": 7592, "regarding": 7593, "bust": 7594, "maxlen": 7595, "charts": 7596, "pol": 7597, "complement": 7598, "opaque": 7599, "biom": 7600, "biomass": 7601, "spark": 7602, "automated": 7603, "skus": 7604, "nd6": 7605, "ya": 7606, "haplotypes": 7607, "pipe2": 7608, "pipe2py": 7609, "changeset": 7610, "69": 7611, "okay": 7612, "checkpoint": 7613, "ith": 7614, "pca": 7615, "tif": 7616, "uite": 7617, "filterpolicy": 7618, "ivars": 7619, "fstate": 7620, "molecular": 7621, "shutil": 7622, "opcodes": 7623, "initializing": 7624, "staged": 7625, "safety": 7626, "lstrip": 7627, "tech": 7628, "iface": 7629, "remap": 7630, "lvl": 7631, "importing": 7632, "auxi": 7633, "augh": 7634, "edited": 7635, "lbwlm": 7636, "seque": 7637, "refun": 7638, "clipping": 7639, "traversal": 7640, "unlike": 7641, "numeral": 7642, "getcwd": 7643, "inclusion": 7644, "tmin": 7645, "receiving": 7646, "donor": 7647, "parame": 7648, "typing": 7649, "sci": 7650, "tracef": 7651, "fixture": 7652, "rts": 7653, "srid": 7654, "sslciphers": 7655, "sslciphersuite": 7656, "proportion": 7657, "vnode": 7658, "study": 7659, "manu": 7660, "hid": 7661, "flavor": 7662, "p4": 7663, "aggregations": 7664, "fixnum": 7665, "cdata": 7666, "vpnsessionpolicy": 7667, "attaches": 7668, "elevation": 7669, "gant": 7670, "gob": 7671, "taint": 7672, "comparing": 7673, "quoting": 7674, "qname": 7675, "validf": 7676, "builders": 7677, "nomin": 7678, "director": 7679, "dated": 7680, "offerings": 7681, "wake": 7682, "gran": 7683, "estimator": 7684, "dblog": 7685, "subdom": 7686, "x1b": 7687, "kcdaccount": 7688, "unnecessary": 7689, "index1": 7690, "clog": 7691, "paired": 7692, "rna": 7693, "resultset": 7694, "accessory": 7695, "tbl": 7696, "twisted": 7697, "vow": 7698, "apt": 7699, "comparer": 7700, "imshow": 7701, "libor": 7702, "reln": 7703, "tnet": 7704, "filt": 7705, "decompress": 7706, "cult": 7707, "notifies": 7708, "consists": 7709, "kick": 7710, "heat": 7711, "attack": 7712, "capable": 7713, "oh": 7714, "utterances": 7715, "scattering": 7716, "tub": 7717, "crud": 7718, "pyrtl": 7719, "hanode": 7720, "ana": 7721, "posted": 7722, "bandwidth": 7723, "o2": 7724, "ecr": 7725, "attendee": 7726, "sslservicegroup": 7727, "partner": 7728, "dg": 7729, "1111": 7730, "enrich": 7731, "pronac": 7732, "qpart": 7733, "invitation": 7734, "unserialize": 7735, "k2": 7736, "conson": 7737, "maked": 7738, "haystack": 7739, "tracer": 7740, "gettext": 7741, "ene": 7742, "ndb": 7743, "vpnurl": 7744, "sqli": 7745, "replies": 7746, "hf": 7747, "manufact": 7748, "cta": 7749, "funding": 7750, "bdf": 7751, "basically": 7752, "pluck": 7753, "optimal": 7754, "emits": 7755, "wish": 7756, "introdu": 7757, "bf": 7758, "eventually": 7759, "merging": 7760, "architecture": 7761, "rolling": 7762, "pout": 7763, "sasl": 7764, "earlier": 7765, "clicked": 7766, "pks": 7767, "residuals": 7768, "amber": 7769, "auxili": 7770, "giving": 7771, "ipython": 7772, "submodules": 7773, "mrof": 7774, "unmodified": 7775, "associates": 7776, "iapws": 7777, "arith": 7778, "appflowpolicy": 7779, "stry": 7780, "standing": 7781, "ret0": 7782, "exiting": 7783, "deletions": 7784, "inferred": 7785, "steal": 7786, "calculations": 7787, "susp": 7788, "trire": 7789, "trireme": 7790, "postg": 7791, "tabindex": 7792, "bw": 7793, "lk": 7794, "blacklist": 7795, "mysqli": 7796, "deprecate": 7797, "bez": 7798, "libo": 7799, "libovs": 7800, "libovsdb": 7801, "permutation": 7802, "assess": 7803, "systemgroup": 7804, "metries": 7805, "bey": 7806, "kins": 7807, "labelled": 7808, "kinetic": 7809, "strrpos": 7810, "descr": 7811, "overwrites": 7812, "varchar": 7813, "ignores": 7814, "pct": 7815, "docstring": 7816, "ably": 7817, "incompatible": 7818, "accessing": 7819, "leap": 7820, "bm": 7821, "splitter": 7822, "ipsec": 7823, "think": 7824, "apikey": 7825, "couch": 7826, "snowball": 7827, "valor": 7828, "divi": 7829, "oelib": 7830, "57": 7831, "semver": 7832, "coded": 7833, "binds": 7834, "multiplex": 7835, "mixins": 7836, "dnsview": 7837, "ligand": 7838, "hexdigest": 7839, "south": 7840, "vin": 7841, "pump": 7842, "passwd": 7843, "subdomain": 7844, "openssl": 7845, "dean": 7846, "predecessor": 7847, "bump": 7848, "emoji": 7849, "grain": 7850, "xarray": 7851, "vowels": 7852, "expn": 7853, "customizing": 7854, "bewit": 7855, "sslfips": 7856, "zf": 7857, "behaviors": 7858, "synchronization": 7859, "exits": 7860, "uploading": 7861, "healpix": 7862, "bridgegroup": 7863, "sqlalchemy": 7864, "begins": 7865, "aclname": 7866, "gence": 7867, "gantt": 7868, "responds": 7869, "istics": 7870, "goal": 7871, "eager": 7872, "ltrim": 7873, "trie": 7874, "decoration": 7875, "indicated": 7876, "arel": 7877, "wood": 7878, "draws": 7879, "otaupdate": 7880, "rote": 7881, "stm": 7882, "win32": 7883, "gues": 7884, "clic": 7885, "aci": 7886, "expos": 7887, "caused": 7888, "movement": 7889, "adapted": 7890, "ads": 7891, "offering": 7892, "quater": 7893, "quatern": 7894, "corporate": 7895, "postgres": 7896, "outbounds": 7897, "modality": 7898, "gslbvserver": 7899, "gce": 7900, "launcher": 7901, "bkg": 7902, "locdf": 7903, "elementslib": 7904, "osm": 7905, "kno": 7906, "lid": 7907, "requisi": 7908, "refactor": 7909, "2012": 7910, "tty": 7911, "abling": 7912, "acesso": 7913, "w1": 7914, "activations": 7915, "boldgrid": 7916, "instant": 7917, "orphan": 7918, "rely": 7919, "sax": 7920, "contiguous": 7921, "bugs": 7922, "mpv": 7923, "nexus": 7924, "zhu": 7925, "logfile": 7926, "infra": 7927, "interp": 7928, "social": 7929, "penal": 7930, "key1": 7931, "ndi": 7932, "editors": 7933, "acon": 7934, "cg": 7935, "teneto": 7936, "backing": 7937, "fuse": 7938, "feeds": 7939, "convers": 7940, "fuzzy": 7941, "normals": 7942, "srs": 7943, "obj1": 7944, "inat": 7945, "bezier": 7946, "redirected": 7947, "syncing": 7948, "iet": 7949, "ietf": 7950, "owners": 7951, "identifies": 7952, "forma": 7953, "introspect": 7954, "noko": 7955, "nokogi": 7956, "nokogiri": 7957, "basics": 7958, "las": 7959, "installs": 7960, "microseconds": 7961, "conform": 7962, "spilloverpolicy": 7963, "kapost": 7964, "quar": 7965, "favi": 7966, "templating": 7967, "teams": 7968, "vcl": 7969, "zepi": 7970, "amplitude": 7971, "law": 7972, "fsm": 7973, "tails": 7974, "lbmetrictable": 7975, "accel": 7976, "scra": 7977, "customize": 7978, "splitting": 7979, "192": 7980, "naive": 7981, "respective": 7982, "targeted": 7983, "threat": 7984, "monthly": 7985, "puid": 7986, "ploid": 7987, "portfolios": 7988, "spaceship": 7989, "itory": 7990, "cleans": 7991, "sanity": 7992, "materialized": 7993, "arma": 7994, "terminating": 7995, "initially": 7996, "forwards": 7997, "paper": 7998, "measures": 7999, "rl": 8000, "401": 8001, "maxiter": 8002, "bcc": 8003, "isogeo": 8004, "interpreter": 8005, "viewer": 8006, "cfgs": 8007, "disableresources": 8008, "went": 8009, "escapes": 8010, "beg": 8011, "dome": 8012, "futures": 8013, "polygons": 8014, "specificity": 8015, "cname": 8016, "xbin": 8017, "hawk": 8018, "bri": 8019, "overtime": 8020, "incident": 8021, "breakpoint": 8022, "odmg": 8023, "mozilla": 8024, "discovered": 8025, "foreground": 8026, "realtime": 8027, "orthog": 8028, "000000": 8029, "interested": 8030, "exponential": 8031, "w2": 8032, "fwrite": 8033, "jan": 8034, "computing": 8035, "snif": 8036, "tu": 8037, "auxiliary": 8038, "restjson": 8039, "contributors": 8040, "triples": 8041, "rake": 8042, "acl6name": 8043, "uml": 8044, "zoned": 8045, "meant": 8046, "forces": 8047, "outfilename": 8048, "drawer": 8049, "fb": 8050, "esome": 8051, "tmglobal": 8052, "workteams": 8053, "msgid": 8054, "ym": 8055, "implementor": 8056, "earth": 8057, "dual": 8058, "ellipse": 8059, "versioning": 8060, "accented": 8061, "resizer": 8062, "bla": 8063, "repair": 8064, "watchers": 8065, "geocoder": 8066, "ength": 8067, "vpntrafficpolicy": 8068, "unnel": 8069, "inspi": 8070, "verts": 8071, "mono": 8072, "aser": 8073, "adjustment": 8074, "took": 8075, "crash": 8076, "hc": 8077, "dragging": 8078, "falha": 8079, "plotting": 8080, "bands": 8081, "registering": 8082, "trajectories": 8083, "panels": 8084, "adder": 8085, "uuids": 8086, "hat": 8087, "totals": 8088, "gcs": 8089, "log10": 8090, "hardware": 8091, "plant": 8092, "shim": 8093, "overcommit": 8094, "bids": 8095, "adb": 8096, "outdated": 8097, "transformations": 8098, "nic": 8099, "balancing": 8100, "forgot": 8101, "sslservice": 8102, "quat": 8103, "erase": 8104, "shortname": 8105, "conversions": 8106, "iso8601": 8107, "pipelines": 8108, "wbs": 8109, "cosm": 8110, "srcport": 8111, "imgs": 8112, "nlp": 8113, "fcomp": 8114, "vable": 8115, "guin": 8116, "guinier": 8117, "nodename": 8118, "acts": 8119, "elimin": 8120, "backed": 8121, "cum": 8122, "leng": 8123, "recy": 8124, "lru": 8125, "fixes": 8126, "exha": 8127, "outcome": 8128, "workbook": 8129, "trial": 8130, "opera": 8131, "investigation": 8132, "onlink": 8133, "mojo": 8134, "multic": 8135, "stylesheets": 8136, "stone": 8137, "denomin": 8138, "syllab": 8139, "violations": 8140, "msgs": 8141, "dismissed": 8142, "gmt": 8143, "packed": 8144, "bes": 8145, "hai": 8146, "fly": 8147, "preprocess": 8148, "loopa": 8149, "loopable": 8150, "participant": 8151, "upgrades": 8152, "nrl": 8153, "ars": 8154, "owl": 8155, "shifted": 8156, "swarm": 8157, "lian": 8158, "makedirs": 8159, "administrator": 8160, "tpr": 8161, "cxn": 8162, "rollup": 8163, "liqu": 8164, "precise": 8165, "clid": 8166, "probs": 8167, "issa": 8168, "jira": 8169, "tte": 8170, "traffi": 8171, "keypress": 8172, "distort": 8173, "great": 8174, "dados": 8175, "seleni": 8176, "selenium": 8177, "tolist": 8178, "satisfies": 8179, "foundation": 8180, "encodings": 8181, "xmlhttp": 8182, "safari": 8183, "stret": 8184, "arg0": 8185, "xrange": 8186, "98": 8187, "unloaded": 8188, "termination": 8189, "sqs": 8190, "bigger": 8191}, "merges": [["r", "e"], ["i", "n"], ["o", "n"], ["e", "r"], ["t", "h"], ["e", "n"], ["a", "t"], ["s", "t"], ["s", "e"], ["d", "e"], ["o", "r"], ["c", "o"], ["a", "l"], ["i", "on"], ["a", "r"], ["l", "e"], ["a", "n"], ["m", "e"], ["en", "t"], ["u", "r"], ["c", "t"], ["i", "s"], ["th", "e"], ["c", "e"], ["i", "f"], ["g", "e"], ["r", "o"], ["i", "t"], ["u", "e"], ["u", "t"], ["u", "n"], ["in", "g"], ["c", "h"], ["f", "i"], ["t", "o"], ["m", "ent"], ["c", "on"], ["re", "t"], ["a", "me"], ["re", "s"], ["a", "s"], ["at", "e"], ["e", "x"], ["ur", "n"], ["co", "m"], ["ret", "urn"], ["i", "d"], ["l", "i"], ["l", "o"], ["a", "d"], ["ge", "t"], ["p", "t"], ["v", "al"], ["co", "de"], ["p", "e"], ["f", "or"], ["u", "l"], ["n", "ame"], ["i", "l"], ["e", "d"], ["e", "l"], ["p", "a"], ["th", "is"], ["n", "o"], ["t", "r"], ["st", "r"], ["n", "e"], ["com", "ment"], ["ct", "ion"], ["a", "p"], ["p", "ar"], ["o", "f"], ["er", "r"], ["an", "d"], ["se", "t"], ["en", "d"], ["at", "ion"], ["c", "k"], ["p", "ro"], ["t", "y"], ["val", "ue"], ["t", "er"], ["f", "un"], ["s", "er"], ["pt", "ion"], ["re", "q"], ["e", "s"], ["a", "b"], ["u", "p"], ["a", "m"], ["k", "e"], ["de", "f"], ["m", "o"], ["p", "o"], ["s", "s"], ["m", "a"], ["con", "t"], ["ty", "pe"], ["se", "l"], ["ne", "w"], ["r", "a"], ["sel", "f"], ["p", "ut"], ["b", "e"], ["fi", "le"], ["ex", "t"], ["at", "a"], ["d", "i"], ["d", "o"], ["in", "t"], ["v", "er"], ["str", "ing"], ["p", "er"], ["ul", "t"], ["c", "l"], ["o", "b"], ["e", "m"], ["fun", "ction"], ["v", "i"], ["al", "l"], ["u", "b"], ["ke", "y"], ["e", "ct"], ["d", "ata"], ["ue", "st"], ["o", "ut"], ["err", "or"], ["r", "i"], ["req", "uest"], ["t", "i"], ["o", "ur"], ["u", "m"], ["v", "e"], ["as", "s"], ["li", "st"], ["re", "n"], ["ob", "j"], ["p", "l"], ["our", "ce"], ["pa", "th"], ["no", "t"], ["o", "ption"], ["w", "i"], ["f", "o"], ["li", "c"], ["i", "c"], ["ad", "d"], ["ab", "le"], ["h", "e"], ["v", "ar"], ["s", "i"], ["b", "o"], ["t", "a"], ["l", "en"], ["wi", "th"], ["a", "se"], ["m", "at"], ["par", "am"], ["p", "on"], ["ul", "l"], ["ra", "y"], ["s", "h"], ["ar", "ray"], ["co", "l"], ["a", "ge"], ["s", "c"], ["res", "ource"], ["ar", "g"], ["h", "t"], ["d", "ate"], ["obj", "ect"], ["n", "il"], ["on", "e"], ["o", "l"], ["q", "u"], ["er", "s"], ["or", "t"], ["ch", "e"], ["u", "se"], ["ti", "me"], ["no", "de"], ["option", "s"], ["res", "ult"], ["res", "pon"], ["b", "u"], ["el", "se"], ["c", "re"], ["in", "put"], ["f", "ro"], ["el", "d"], ["t", "e"], ["l", "in"], ["an", "ce"], ["fro", "m"], ["u", "st"], ["i", "g"], ["n", "ull"], ["b", "y"], ["fi", "g"], ["cl", "ass"], ["ap", "p"], ["or", "d"], ["ro", "w"], ["val", "id"], ["respon", "se"], ["lo", "g"], ["s", "ion"], ["con", "fig"], ["p", "ub"], ["u", "s"], ["st", "at"], ["ren", "t"], ["fi", "eld"], ["a", "ck"], ["in", "st"], ["c", "ur"], ["ex", "ce"], ["g", "i"], ["o", "d"], ["vi", "ce"], ["p", "re"], ["in", "de"], ["pub", "lic"], ["a", "ct"], ["inde", "x"], ["tr", "ue"], ["cre", "ate"], ["in", "d"], ["me", "th"], ["he", "ad"], ["re", "d"], ["z", "e"], ["p", "ort"], ["i", "b"], ["c", "all"], ["f", "al"], ["meth", "od"], ["mo", "de"], ["at", "tr"], ["re", "ad"], ["fal", "se"], ["cont", "ext"], ["it", "y"], ["w", "h"], ["w", "e"], ["ar", "t"], ["f", "e"], ["out", "put"], ["l", "a"], ["o", "p"], ["c", "a"], ["exce", "ption"], ["i", "m"], ["g", "ro"], ["h", "as"], ["i", "p"], ["il", "d"], ["o", "m"], ["ur", "l"], ["ser", "vice"], ["u", "ser"], ["e", "v"], ["le", "ment"], ["n", "um"], ["s", "pe"], ["up", "date"], ["m", "ap"], ["it", "ion"], ["fun", "c"], ["a", "ce"], ["sc", "ri"], ["w", "r"], ["g", "th"], ["gro", "up"], ["inst", "ance"], ["len", "gth"], ["g", "er"], ["un", "t"], ["un", "d"], ["s", "y"], ["ce", "ss"], ["th", "at"], ["il", "l"], ["a", "ult"], ["u", "ment"], ["param", "s"], ["s", "ub"], ["it", "em"], ["c", "al"], ["a", "re"], ["an", "ge"], ["me", "ss"], ["ev", "ent"], ["e", "lement"], ["ame", "ter"], ["st", "art"], ["par", "ameter"], ["mess", "age"], ["a", "c"], ["b", "ack"], ["def", "ault"], ["for", "m"], ["l", "y"], ["fi", "l"], ["or", "y"], ["u", "le"], ["a", "in"], ["u", "re"], ["che", "ck"], ["ut", "e"], ["an", "s"], ["m", "in"], ["mode", "l"], ["if", "i"], ["pro", "per"], ["c", "li"], ["ap", "i"], ["in", "fo"], ["n", "one"], ["spe", "c"], ["arg", "s"], ["k", "en"], ["po", "s"], ["lo", "ad"], ["st", "ate"], ["ta", "g"], ["s", "o"], ["lin", "e"], ["v", "en"], ["t", "ext"], ["a", "ch"], ["to", "ken"], ["for", "mat"], ["j", "s"], ["attr", "ib"], ["h", "o"], ["it", "e"], ["c", "ase"], ["in", "ter"], ["t", "p"], ["co", "unt"], ["h", "and"], ["return", "s"], ["com", "m"], ["w", "ill"], ["gi", "ven"], ["mat", "ch"], ["i", "se"], ["lo", "ck"], ["at", "or"], ["si", "ze"], ["qu", "er"], ["mo", "d"], ["b", "er"], ["th", "row"], ["cont", "ent"], ["c", "ust"], ["cust", "om"], ["head", "ers"], ["cur", "rent"], ["al", "i"], ["ht", "tp"], ["it", "er"], ["quer", "y"], ["do", "c"], ["cli", "ent"], ["de", "scri"], ["de", "le"], ["l", "l"], ["a", "u"], ["i", "st"], ["tr", "ans"], ["lo", "w"], ["b", "ase"], ["p", "le"], ["fil", "ter"], ["p", "r"], ["en", "er"], ["de", "d"], ["re", "ct"], ["t", "em"], ["ma", "x"], ["th", "er"], ["pa", "ge"], ["o", "per"], ["re", "mo"], ["ver", "sion"], ["p", "ri"], ["a", "y"], ["m", "l"], ["w", "or"], ["p", "res"], ["o", "k"], ["p", "i"], ["js", "on"], ["i", "ve"], ["o", "t"], ["wor", "k"], ["value", "s"], ["at", "ch"], ["cont", "ain"], ["s", "end"], ["p", "y"], ["t", "able"], ["ate", "d"], ["u", "i"], ["ar", "y"], ["c", "an"], ["a", "ction"], ["t", "s"], ["le", "ct"], ["resource", "s"], ["di", "r"], ["g", "r"], ["i", "es"], ["po", "int"], ["r", "y"], ["r", "un"], ["con", "ne"], ["in", "valid"], ["d", "is"], ["par", "se"], ["stat", "ic"], ["as", "k"], ["m", "an"], ["def", "in"], ["arg", "ument"], ["bu", "ild"], ["t", "ar"], ["w", "n"], ["proper", "ty"], ["col", "um"], ["colum", "n"], ["parameter", "s"], ["num", "ber"], ["fi", "x"], ["f", "in"], ["s", "ource"], ["ser", "ver"], ["dele", "te"], ["m", "s"], ["a", "v"], ["g", "in"], ["name", "s"], ["tar", "get"], ["o", "pt"], ["ra", "ise"], ["au", "th"], ["oper", "ation"], ["b", "lock"], ["fi", "r"], ["di", "rect"], ["wh", "i"], ["e", "ach"], ["n", "ext"], ["0", "0"], ["fo", "re"], ["g", "ener"], ["e", "t"], ["pa", "rent"], ["a", "ve"], ["w", "ord"], ["tr", "y"], ["stat", "us"], ["ex", "ist"], ["le", "ction"], ["j", "ect"], ["d", "y"], ["re", "f"], ["app", "end"], ["f", "f"], ["ifi", "ed"], ["vi", "e"], ["of", "f"], ["con", "st"], ["le", "d"], ["vie", "w"], ["ce", "s"], ["fir", "st"], ["l", "ab"], ["s", "u"], ["wr", "ite"], ["f", "a"], ["f", "ind"], ["ch", "ild"], ["d", "er"], ["i", "ma"], ["r", "ange"], ["c", "lo"], ["pl", "ace"], ["pr", "int"], ["comm", "and"], ["hand", "l"], ["attrib", "ute"], ["re", "c"], ["ch", "ar"], ["ima", "ge"], ["has", "h"], ["pt", "y"], ["ar", "ch"], ["lab", "el"], ["lo", "cal"], ["an", "g"], ["em", "pty"], ["ch", "ange"], ["e", "c"], ["sh", "o"], ["ne", "t"], ["u", "ct"], ["d", "b"], ["mod", "ule"], ["it", "s"], ["si", "g"], ["b", "ind"], ["se", "lect"], ["ul", "d"], ["il", "s"], ["ca", "che"], ["st", "re"], ["w", "id"], ["s", "up"], ["a", "k"], ["use", "d"], ["req", "ui"], ["ent", "ity"], ["st", "o"], ["cl", "u"], ["lin", "k"], ["ur", "ation"], ["v", "el"], ["stre", "am"], ["w", "s"], ["bo", "dy"], ["de", "p"], ["p", "h"], ["call", "back"], ["n", "c"], ["p", "ass"], ["ate", "s"], ["lo", "c"], ["ut", "es"], ["pro", "cess"], ["s", "ing"], ["la", "st"], ["t", "ing"], ["in", "it"], ["remo", "ve"], ["le", "an"], ["v", "o"], ["if", "ic"], ["key", "s"], ["e", "p"], ["file", "s"], ["wh", "en"], ["ation", "s"], ["i", "al"], ["set", "s"], ["fe", "ren"], ["conne", "ction"], ["ar", "d"], ["on", "ly"], ["var", "i"], ["re", "l"], ["pa", "ce"], ["opt", "s"], ["cont", "ro"], ["w", "he"], ["doc", "ument"], ["t", "ask"], ["b", "re"], ["o", "ther"], ["ent", "ry"], ["m", "ar"], ["re", "gi"], ["col", "lection"], ["j", "o"], ["a", "g"], ["po", "lic"], ["con", "d"], ["log", "ger"], ["ter", "n"], ["ro", "ot"], ["tem", "pl"], ["field", "s"], ["bre", "ak"], ["handl", "er"], ["ma", "in"], ["ord", "er"], ["fin", "al"], ["re", "e"], ["po", "st"], ["r", "ule"], ["v", "ate"], ["q", "ue"], ["me", "t"], ["re", "place"], ["sig", "n"], ["f", "ace"], ["i", "o"], ["an", "y"], ["bu", "g"], ["off", "set"], ["ex", "ec"], ["spec", "ified"], ["a", "f"], ["ho", "st"], ["pa", "ck"], ["pri", "vate"], ["polic", "y"], ["i", "z"], ["ig", "ht"], ["ss", "ion"], ["le", "vel"], ["n", "p"], ["se", "d"], ["an", "t"], ["c", "i"], ["le", "ss"], ["st", "y"], ["m", "ust"], ["if", "y"], ["res", "s"], ["v", "is"], ["se", "arch"], ["fo", "und"], ["head", "er"], ["c", "or"], ["jo", "in"], ["de", "bug"], ["p", "at"], ["m", "is"], ["la", "y"], ["pre", "fix"], ["wid", "th"], ["u", "sh"], ["e", "qu"], ["di", "ct"], ["pos", "ition"], ["on", "g"], ["t", "es"], ["bind", "ing"], ["s", "co"], ["ur", "i"], ["r", "on"], ["error", "s"], ["se", "ssion"], ["re", "feren"], ["ol", "d"], ["whi", "ch"], ["ht", "ml"], ["st", "em"], ["op", "en"], ["templ", "ate"], ["o", "s"], ["ct", "x"], ["in", "clu"], ["d", "at"], ["i", "ali"], ["result", "s"], ["attrib", "utes"], ["config", "uration"], ["as", "y"], ["ser", "t"], ["sto", "re"], ["ac", "cess"], ["con", "ver"], ["a", "ws"], ["rec", "ord"], ["res", "ol"], ["m", "er"], ["descri", "be"], ["s", "pl"], ["len", "ame"], ["met", "ad"], ["par", "t"], ["direct", "ory"], ["metad", "ata"], ["fi", "lename"], ["m", "it"], ["f", "lo"], ["str", "uct"], ["re", "g"], ["ra", "w"], ["sty", "le"], ["set", "ting"], ["b", "ut"], ["contain", "er"], ["defin", "ed"], ["me", "m"], ["bo", "o"], ["pl", "y"], ["sho", "uld"], ["am", "ple"], ["h", "ave"], ["st", "er"], ["time", "out"], ["f", "ull"], ["m", "d"], ["id", "ent"], ["th", "en"], ["en", "sion"], ["en", "ce"], ["sy", "stem"], ["in", "to"], ["x", "ml"], ["i", "r"], ["lic", "ation"], ["argument", "s"], ["boo", "lean"], ["s", "ort"], ["pro", "ject"], ["to", "p"], ["se", "e"], ["valid", "ate"], ["bu", "ff"], ["c", "le"], ["item", "s"], ["c", "r"], ["vari", "able"], ["ti", "es"], ["l", "ang"], ["de", "ta"], ["ifi", "er"], ["le", "t"], ["exist", "s"], ["asy", "nc"], ["requi", "red"], ["sh", "a"], ["m", "p"], ["t", "ect"], ["all", "y"], ["proper", "ties"], ["flo", "at"], ["un", "less"], ["n", "ing"], ["t", "ree"], ["en", "c"], ["lo", "b"], ["inter", "face"], ["n", "on"], ["t", "ch"], ["i", "v"], ["hand", "le"], ["a", "ger"], ["buff", "er"], ["ig", "n"], ["int", "e"], ["ma", "ke"], ["s", "r"], ["o", "u"], ["s", "um"], ["pat", "tern"], ["pon", "ent"], ["fe", "tch"], ["se", "s"], ["v", "id"], ["pres", "ent"], ["b", "r"], ["w", "in"], ["id", "s"], ["p", "ush"], ["man", "ager"], ["m", "ult"], ["throw", "s"], ["ex", "p"], ["spl", "it"], ["u", "al"], ["type", "s"], ["av", "a"], ["do", "wn"], ["un", "k"], ["an", "n"], ["fo", "l"], ["c", "er"], ["us", "ing"], ["po", "p"], ["g", "ht"], ["h", "el"], ["col", "or"], ["f", "r"], ["j", "ob"], ["al", "low"], ["com", "ple"], ["add", "ress"], ["or", "ig"], ["in", "e"], ["t", "ed"], ["app", "lication"], ["d", "ing"], ["tag", "s"], ["t", "it"], ["bo", "ol"], ["com", "ponent"], ["vo", "id"], ["referen", "ce"], ["sy", "m"], ["or", "m"], ["descri", "ption"], ["f", "act"], ["co", "py"], ["ms", "g"], ["s", "ame"], ["o", "ver"], ["s", "che"], ["a", "ut"], ["equ", "al"], ["ex", "tr"], ["w", "ar"], ["w", "a"], ["fore", "ach"], ["f", "t"], ["f", "n"], ["tit", "le"], ["s", "q"], ["af", "ter"], ["pe", "ct"], ["contro", "ll"], ["sco", "pe"], ["mar", "k"], ["by", "te"], ["inclu", "de"], ["fr", "ame"], ["pl", "ay"], ["whe", "re"], ["de", "st"], ["sc", "al"], ["f", "l"], ["pres", "sion"], ["win", "do"], ["im", "port"], ["gr", "ap"], ["st", "ack"], ["clo", "se"], ["be", "fore"], ["pro", "m"], ["pro", "vid"], ["y", "ou"], ["s", "k"], ["que", "ue"], ["at", "ure"], ["su", "c"], ["g", "o"], ["grap", "h"], ["sup", "port"], ["st", "op"], ["c", "ate"], ["do", "es"], ["g", "lob"], ["pro", "p"], ["mer", "ge"], ["k", "w"], ["wr", "ap"], ["he", "ight"], ["controll", "er"], ["s", "p"], ["a", "x"], ["ass", "o"], ["li", "mit"], ["whi", "le"], ["read", "y"], ["net", "work"], ["ig", "no"], ["element", "s"], ["me", "ta"], ["ap", "ply"], ["pa", "y"], ["tect", "ed"], ["loc", "ation"], ["ext", "ension"], ["by", "tes"], ["build", "er"], ["ut", "ils"], ["n", "orm"], ["setting", "s"], ["ment", "s"], ["inte", "ger"], ["an", "not"], ["form", "ation"], ["un", "i"], ["c", "atch"], ["pl", "u"], ["dat", "ab"], ["at", "ive"], ["ter", "min"], ["bo", "x"], ["m", "on"], ["n", "s"], ["wa", "it"], ["ex", "pression"], ["la", "g"], ["b", "in"], ["datab", "ase"], ["cl", "ust"], ["le", "ft"], ["kw", "args"], ["s", "w"], ["orig", "in"], ["suc", "cess"], ["d", "ay"], ["aut", "o"], ["ro", "le"], ["de", "vice"], ["end", "point"], ["en", "able"], ["ub", "le"], ["asso", "ci"], ["add", "ition"], ["in", "di"], ["m", "t"], ["en", "s"], ["il", "ity"], ["is", "h"], ["object", "s"], ["return", "ed"], ["tem", "p"], ["ex", "pect"], ["6", "4"], ["do", "uble"], ["d", "if"], ["conne", "ct"], ["plu", "gin"], ["se", "c"], ["it", "or"], ["ib", "le"], ["o", "us"], ["ut", "ion"], ["1", "0"], ["pro", "vi"], ["si", "m"], ["ann", "el"], ["ident", "ifier"], ["st", "or"], ["node", "s"], ["pro", "tected"], ["cont", "in"], ["dep", "end"], ["ne", "ed"], ["v", "ed"], ["u", "age"], ["ch", "annel"], ["pro", "to"], ["en", "vi"], ["lang", "uage"], ["f", "lag"], ["do", "main"], ["be", "gin"], ["ck", "et"], ["sche", "ma"], ["scri", "pt"], ["envi", "ron"], ["pro", "d"], ["a", "st"], ["co", "un"], ["windo", "w"], ["s", "in"], ["par", "ser"], ["clust", "er"], ["auth", "or"], ["event", "s"], ["c", "s"], ["pe", "d"], ["prom", "ise"], ["names", "pace"], ["th", "ing"], ["i", "led"], ["provid", "er"], ["glob", "al"], ["i", "de"], ["ri", "ght"], ["w", "ay"], ["bo", "und"], ["act", "ive"], ["tr", "ace"], ["z", "er"], ["st", "ep"], ["s", "ave"], ["ac", "count"], ["the", "re"], ["mis", "sion"], ["ma", "il"], ["re", "present"], ["in", "formation"], ["en", "code"], ["i", "a"], ["ava", "il"], ["l", "ong"], ["pass", "word"], ["ali", "as"], ["ch", "ed"], ["s", "ite"], ["w", "as"], ["pack", "age"], ["regi", "ster"], ["c", "ul"], ["sing", "le"], ["lin", "es"], ["option", "al"], ["b", "l"], ["id", "x"], ["el", "if"], ["gener", "ate"], ["column", "s"], ["li", "ke"], ["se", "cond"], ["sr", "c"], ["is", "set"], ["conver", "t"], ["hel", "per"], ["se", "qu"], ["w", "o"], ["r", "t"], ["child", "ren"], ["d", "f"], ["t", "al"], ["defin", "ition"], ["im", "p"], ["ro", "ute"], ["s", "ample"], ["pro", "file"], ["no", "w"], ["en", "co"], ["o", "g"], ["ab", "s"], ["we", "b"], ["igno", "re"], ["ma", "th"], ["al", "ready"], ["ch", "unk"], ["exce", "pt"], ["s", "l"], ["co", "re"], ["contin", "ue"], ["n", "it"], ["me", "di"], ["lo", "ok"], ["re", "port"], ["create", "s"], ["po", "ol"], ["p", "atch"], ["un", "defined"], ["u", "me"], ["cond", "ition"], ["en", "v"], ["di", "st"], ["mem", "ber"], ["u", "id"], ["contain", "s"], ["sq", "l"], ["ren", "der"], ["trans", "l"], ["at", "ta"], ["te", "st"], ["cer", "t"], ["o", "v"], ["bo", "l"], ["ser", "iali"], ["deta", "ils"], ["not", "e"], ["c", "at"], ["avail", "able"], ["se", "g"], ["res", "h"], ["resol", "ve"], ["char", "act"], ["as", "sert"], ["ge", "x"], ["re", "gex"], ["u", "g"], ["pt", "or"], ["per", "mission"], ["lo", "t"], ["k", "er"], ["cate", "g"], ["fa", "il"], ["fact", "ory"], ["sha", "pe"], ["mo", "re"], ["b", "atch"], ["c", "ance"], ["ver", "y"], ["o", "wn"], ["trans", "form"], ["ass", "ign"], ["method", "s"], ["stor", "age"], ["s", "pace"], ["em", "it"], ["spec", "ific"], ["sy", "n"], ["de", "cl"], ["de", "termin"], ["m", "ask"], ["match", "es"], ["m", "i"], ["ret", "ri"], ["s", "n"], ["expect", "ed"], ["environ", "ment"], ["to", "tal"], ["contro", "l"], ["con", "struct"], ["stat", "s"], ["n", "b"], ["cr", "iter"], ["mat", "ri"], ["am", "p"], ["base", "d"], ["se", "ction"], ["fa", "iled"], ["c", "ent"], ["get", "s"], ["string", "s"], ["pay", "load"], ["ma", "y"], ["ro", "ll"], ["instance", "of"], ["low", "er"], ["li", "b"], ["equal", "s"], ["in", "sert"], ["d", "s"], ["si", "de"], ["state", "ment"], ["app", "ing"], ["list", "ener"], ["scal", "e"], ["b", "und"], ["ce", "ll"], ["path", "s"], ["p", "as"], ["sym", "bol"], ["v", "ol"], ["t", "mp"], ["pos", "it"], ["it", "ch"], ["z", "ed"], ["s", "li"], ["re", "ce"], ["bu", "f"], ["local", "e"], ["ex", "port"], ["extr", "act"], ["rel", "ation"], ["e", "mail"], ["com", "put"], ["x", "y"], ["inter", "n"], ["wr", "it"], ["i", "ze"], ["criter", "ia"], ["ov", "err"], ["j", "ust"], ["matri", "x"], ["war", "ning"], ["bund", "le"], ["y", "i"], ["m", "ary"], ["par", "ts"], ["pa", "re"], ["th", "an"], ["enco", "ding"], ["descri", "ptor"], ["th", "read"], ["cal", "led"], ["u", "d"], ["t", "up"], ["ad", "ded"], ["as", "h"], ["comm", "it"], ["con", "str"], ["s", "ent"], ["ed", "ge"], ["provi", "ded"], ["prod", "uct"], ["row", "s"], ["depend", "enc"], ["spe", "ct"], ["ic", "s"], ["ent", "ic"], ["sequ", "ence"], ["exec", "ute"], ["nit", "ro"], ["un", "it"], ["is", "instance"], ["read", "er"], ["r", "and"], ["or", "s"], ["ma", "ch"], ["init", "iali"], ["atta", "ch"], ["auth", "entic"], ["origin", "al"], ["tr", "ack"], ["n", "a"], ["u", "res"], ["rule", "s"], ["type", "of"], ["run", "time"], ["at", "ing"], ["sk", "ip"], ["group", "s"], ["cal", "cul"], ["ce", "pt"], ["whe", "ther"], ["t", "en"], ["se", "par"], ["token", "s"], ["pre", "v"], ["l", "at"], ["co", "ord"], ["a", "int"], ["ad", "min"], ["on", "ce"], ["c", "f"], ["norm", "ali"], ["m", "apping"], ["tup", "le"], ["so", "me"], ["point", "s"], ["di", "ction"], ["dis", "able"], ["lo", "op"], ["content", "s"], ["k", "ind"], ["d", "on"], ["sec", "ret"], ["wr", "iter"], ["le", "m"], ["pi", "x"], ["b", "ar"], ["de", "c"], ["be", "en"], ["wi", "se"], ["sho", "w"], ["3", "2"], ["b", "it"], ["pas", "sed"], ["pa", "ir"], ["sw", "itch"], ["c", "ss"], ["addition", "al"], ["id", "d"], ["pop", "ul"], ["be", "t"], ["ar", "r"], ["si", "st"], ["ph", "p"], ["de", "code"], ["a", "z"], ["ho", "w"], ["it", "ies"], ["i", "e"], ["constr", "aint"], ["ca", "use"], ["yi", "eld"], ["page", "s"], ["do", "m"], ["m", "en"], ["g", "ing"], ["cle", "ar"], ["iter", "ator"], ["intern", "al"], ["e", "ar"], ["1", "2"], ["vis", "ion"], ["overr", "ide"], ["f", "low"], ["for", "ce"], ["ch", "o"], ["create", "d"], ["annot", "ation"], ["sub", "scri"], ["d", "a"], ["no", "wn"], ["mult", "ip"], ["message", "s"], ["the", "y"], ["or", "g"], ["pi", "pe"], ["c", "md"], ["an", "ts"], ["categ", "ory"], ["v", "ect"], ["f", "s"], ["exist", "ing"], ["trans", "action"], ["t", "x"], ["d", "one"], ["st", "amp"], ["ig", "h"], ["remo", "te"], ["t", "wo"], ["str", "ip"], ["1", "00"], ["el", "s"], ["d", "r"], ["dis", "play"], ["ex", "ample"], ["vi", "ous"], ["sy", "nc"], ["s", "a"], ["ac", "cept"], ["e", "st"], ["al", "og"], ["c", "y"], ["p", "an"], ["f", "mt"], ["di", "m"], ["iz", "ation"], ["cre", "d"], ["so", "cket"], ["ut", "il"], ["enable", "d"], ["fe", "ature"], ["back", "up"], ["ic", "al"], ["g", "en"], ["check", "s"], ["ro", "ut"], ["sli", "ce"], ["as", "ses"], ["parse", "d"], ["mach", "ine"], ["inter", "val"], ["b", "as"], ["pre", "vious"], ["me", "tr"], ["sin", "ce"], ["al", "y"], ["tr", "ig"], ["an", "ch"], ["men", "u"], ["regi", "str"], ["ext", "end"], ["a", "ded"], ["p", "n"], ["2", "0"], ["mis", "sing"], ["ho", "ok"], ["coun", "ter"], ["pro", "xy"], ["re", "posit"], ["cl", "asses"], ["en", "um"], ["reposit", "ory"], ["print", "f"], ["mult", "i"], ["c", "p"], ["lay", "er"], ["imp", "lement"], ["c", "lean"], ["an", "aly"], ["par", "ti"], ["ab", "ility"], ["de", "l"], ["c", "ard"], ["fol", "der"], ["n", "er"], ["full", "y"], ["cal", "end"], ["d", "uration"], ["um", "p"], ["change", "d"], ["co", "ok"], ["proto", "col"], ["ent", "ial"], ["per", "form"], ["calend", "ar"], ["im", "um"], ["al", "so"], ["mon", "th"], ["d", "ri"], ["lo", "aded"], ["t", "on"], ["we", "en"], ["ex", "clu"], ["re", "set"], ["le", "g"], ["lay", "out"], ["bet", "ween"], ["select", "or"], ["ro", "p"], ["ed", "itor"], ["ra", "g"], ["other", "wise"], ["determin", "e"], ["support", "ed"], ["user", "name"], ["multip", "le"], ["o", "c"], ["es", "ca"], ["requi", "re"], ["th", "on"], ["res", "p"], ["b", "ro"], ["r", "ad"], ["b", "ers"], ["time", "stamp"], ["select", "ed"], ["can", "not"], ["filter", "s"], ["in", "spect"], ["reg", "ion"], ["y", "ear"], ["rand", "om"], ["default", "s"], ["up", "load"], ["so", "le"], ["ag", "ent"], ["sim", "ple"], ["h", "ist"], ["v", "es"], ["word", "s"], ["ss", "l"], ["valid", "ation"], ["def", "er"], ["add", "s"], ["mo", "ck"], ["un", "set"], ["m", "y"], ["cf", "g"], ["with", "out"], ["tr", "im"], ["decl", "ar"], ["gener", "ates"], ["ter", "m"], ["p", "c"], ["bo", "t"], ["bo", "ok"], ["but", "ton"], ["cur", "s"], ["ab", "out"], ["if", "t"], ["vect", "or"], ["u", "int"], ["tr", "a"], ["vol", "ume"], ["cl", "s"], ["vi", "rt"], ["act", "iv"], ["p", "end"], ["sc", "roll"], ["h", "y"], ["seg", "ment"], ["s", "d"], ["z", "ip"], ["el", "l"], ["m", "ut"], ["diction", "ary"], ["col", "lect"], ["re", "ction"], ["wrap", "per"], ["man", "age"], ["te", "red"], ["iz", "ed"], ["ul", "ar"], ["re", "al"], ["s", "v"], ["con", "f"], ["con", "n"], ["g", "it"], ["dif", "f"], ["gr", "am"], ["cert", "ific"], ["ax", "is"], ["an", "k"], ["virt", "ual"], ["com", "p"], ["s", "printf"], ["variable", "s"], ["e", "val"], ["re", "le"], ["s", "ure"], ["sup", "er"], ["ind", "ent"], ["ma", "g"], ["l", "ish"], ["fol", "low"], ["ge", "st"], ["list", "en"], ["the", "m"], ["c", "ip"], ["w", "atch"], ["c", "b"], ["t", "ab"], ["flag", "s"], ["con", "sole"], ["instance", "s"], ["dist", "ance"], ["re", "cur"], ["ri", "es"], ["py", "thon"], ["ser", "ies"], ["update", "resource"], ["pro", "b"], ["g", "re"], ["or", "i"], ["1", "6"], ["inst", "all"], ["sy", "s"], ["s", "pa"], ["init", "ial"], ["z", "one"], ["w", "ard"], ["comm", "on"], ["th", "ro"], ["label", "s"], ["re", "direct"], ["ug", "h"], ["dri", "ver"], ["ent", "ries"], ["am", "b"], ["ver", "se"], ["ific", "ation"], ["prop", "s"], ["u", "uid"], ["to", "ol"], ["co", "uld"], ["model", "s"], ["ex", "pi"], ["ge", "o"], ["cred", "ential"], ["pri", "or"], ["part", "ition"], ["update", "s"], ["di", "v"], ["ch", "ain"], ["construct", "or"], ["charact", "er"], ["s", "ol"], ["at", "tem"], ["uni", "que"], ["attem", "pt"], ["po", "ss"], ["2", "5"], ["per", "sist"], ["re", "p"], ["pack", "et"], ["t", "l"], ["sign", "ature"], ["a", "a"], ["medi", "a"], ["l", "n"], ["represent", "ing"], ["i", "ther"], ["b", "row"], ["p", "k"], ["id", "entity"], ["log", "ging"], ["cur", "ren"], ["change", "s"], ["u", "red"], ["se", "lection"], ["comple", "te"], ["action", "s"], ["st", "and"], ["zer", "o"], ["k", "es"], ["st", "e"], ["is", "s"], ["request", "s"], ["rel", "ative"], ["per", "i"], ["he", "re"], ["start", "s"], ["l", "if"], ["pro", "g"], ["or", "ies"], ["work", "er"], ["mo", "ve"], ["dep", "th"], ["s", "m"], ["re", "ject"], ["thro", "ugh"], ["g", "ra"], ["sh", "ort"], ["re", "st"], ["success", "fully"], ["lo", "y"], ["allow", "ed"], ["col", "l"], ["de", "sc"], ["mod", "ified"], ["gener", "ator"], ["r", "ate"], ["wid", "get"], ["use", "s"], ["valid", "ator"], ["fil", "tered"], ["e", "ither"], ["h", "er"], ["st", "d"], ["http", "s"], ["fil", "l"], ["add", "ing"], ["module", "s"], ["en", "gin"], ["br", "anch"], ["in", "ation"], ["h", "igh"], ["iss", "ue"], ["d", "ump"], ["im", "g"], ["f", "it"], ["ac", "c"], ["c", "ms"], ["ed", "it"], ["sp", "an"], ["s", "ap"], ["authentic", "ation"], ["act", "ual"], ["c", "n"], ["down", "load"], ["s", "lot"], ["we", "ight"], ["be", "an"], ["9", "9"], ["curs", "or"], ["sh", "ift"], ["run", "ning"], ["look", "up"], ["g", "ate"], ["second", "s"], ["contain", "ing"], ["ens", "ure"], ["ad", "a"], ["be", "cause"], ["de", "li"], ["pre", "c"], ["sort", "ed"], ["are", "a"], ["i", "con"], ["1", "8"], ["unt", "il"], ["ang", "le"], ["com", "par"], ["ex", "it"], ["trig", "ger"], ["ne", "st"], ["me", "an"], ["fe", "at"], ["dep", "loy"], ["top", "ic"], ["ch", "ron"], ["attr", "s"], ["sh", "ip"], ["brow", "ser"], ["am", "o"], ["d", "n"], ["add", "resource"], ["set", "up"], ["extr", "a"], ["di", "rection"], ["separ", "ator"], ["se", "cur"], ["ta", "x"], ["handl", "ers"], ["esca", "pe"], ["d", "up"], ["coord", "in"], ["if", "act"], ["art", "ifact"], ["certific", "ate"], ["secur", "ity"], ["mar", "sh"], ["bin", "ary"], ["gr", "id"], ["to", "do"], ["oper", "ator"], ["e", "ve"], ["rele", "ase"], ["e", "ded"], ["str", "i"], ["unk", "nown"], ["pl", "an"], ["up", "per"], ["engin", "e"], ["ct", "r"], ["de", "cor"], ["sa", "fe"], ["cor", "rect"], ["su", "f"], ["f", "ul"], ["l", "an"], ["exec", "ut"], ["j", "ava"], ["ut", "f"], ["it", "es"], ["ion", "s"], ["e", "k"], ["dest", "ination"], ["with", "in"], ["pres", "s"], ["ver", "t"], ["log", "in"], ["clo", "ud"], ["o", "id"], ["pri", "mary"], ["add", "r"], ["trans", "port"], ["fl", "at"], ["comput", "e"], ["li", "br"], ["le", "x"], ["registr", "y"], ["sign", "al"], ["s", "on"], ["f", "er"], ["d", "type"], ["seriali", "ze"], ["dependenc", "y"], ["abs", "ol"], ["pl", "at"], ["ff", "ect"], ["fin", "ish"], ["poss", "ible"], ["ry", "pt"], ["und", "er"], ["n", "d"], ["declar", "ation"], ["w", "ant"], ["o", "se"], ["marsh", "al"], ["dim", "ension"], ["prog", "ress"], ["absol", "ute"], ["cance", "ll"], ["plat", "form"], ["cance", "l"], ["own", "er"], ["retri", "eve"], ["u", "ch"], ["dis", "patch"], ["si", "ve"], ["m", "x"], ["f", "on"], ["aws", "err"], ["const", "ants"], ["iv", "ed"], ["list", "s"], ["vis", "ible"], ["b", "ed"], ["e", "lem"], ["se", "q"], ["me", "d"], ["c", "ue"], ["w", "w"], ["pub", "lish"], ["war", "n"], ["com", "pi"], ["sc", "an"], ["e", "very"], ["bound", "s"], ["time", "s"], ["referen", "ces"], ["p", "ho"], ["po", "inter"], ["com", "pare"], ["subscri", "ption"], ["ag", "g"], ["as", "on"], ["ref", "resh"], ["cancell", "ation"], ["way", "s"], ["cook", "ie"], ["suf", "fix"], ["popul", "ated"], ["cl", "one"], ["update", "resources"], ["prior", "ity"], ["num", "er"], ["in", "v"], ["exec", "ution"], ["ver", "ify"], ["ada", "pt"], ["gro", "und"], ["uni", "code"], ["record", "s"], ["pro", "vision"], ["r", "ation"], ["y", "our"], ["cl", "a"], ["defin", "e"], ["ke", "ep"], ["d", "rop"], ["calcul", "ate"], ["e", "ad"], ["sub", "str"], ["add", "resources"], ["pro", "ces"], ["as", "set"], ["ca", "ched"], ["inst", "ead"], ["update", "d"], ["b", "its"], ["ce", "d"], ["sco", "re"], ["permission", "s"], ["p", "ing"], ["service", "s"], ["charact", "ers"], ["li", "ed"], ["num", "py"], ["h", "a"], ["cli", "ck"], ["pend", "ing"], ["comple", "tes"], ["command", "s"], ["nest", "ed"], ["match", "ing"], ["error", "f"], ["al", "t"], ["6", "0"], ["indi", "ces"], ["de", "s"], ["name", "d"], ["data", "set"], ["re", "po"], ["me", "as"], ["d", "ns"], ["sh", "ot"], ["am", "l"], ["leg", "al"], ["p", "lot"], ["idd", "en"], ["res", "cue"], ["exp", "and"], ["s", "av"], ["image", "s"], ["at", "er"], ["ro", "und"], ["ar", "ti"], ["struct", "ure"], ["x", "x"], ["the", "ir"], ["associ", "ation"], ["sn", "ap"], ["rel", "ated"], ["th", "resh"], ["l", "d"], ["http", "method"], ["s", "ched"], ["amo", "unt"], ["ca", "st"], ["lo", "de"], ["v", "pn"], ["max", "imum"], ["d", "raw"], ["pho", "to"], ["load", "er"], ["associ", "ated"], ["ne", "eded"], ["pe", "er"], ["en", "ame"], ["e", "ts"], ["task", "s"], ["sub", "ject"], ["component", "s"], ["does", "n"], ["red", "u"], ["comment", "s"], ["at", "om"], ["ma", "ster"], ["in", "vo"], ["v", "server"], ["pre", "pare"], ["he", "al"], ["version", "s"], ["re", "co"], ["f", "rag"], ["fe", "rent"], ["al", "g"], ["http", "path"], ["regi", "ste"], ["stand", "ard"], ["con", "cat"], ["del", "ta"], ["l", "amb"], ["mi", "me"], ["ctr", "l"], ["credential", "s"], ["io", "exception"], ["response", "s"], ["man", "y"], ["a", "cl"], ["ob", "ser"], ["remo", "ved"], ["in", "ner"], ["ver", "bo"], ["w", "al"], ["h", "ex"], ["fi", "re"], ["do", "t"], ["call", "s"], ["peri", "od"], ["back", "ground"], ["us", "age"], ["registe", "red"], ["bro", "ker"], ["ip", "v"], ["clo", "sed"], ["ro", "t"], ["w", "are"], ["1", "1"], ["the", "me"], ["p", "s"], ["al", "ph"], ["ren", "de"], ["c", "d"], ["hist", "ory"], ["vi", "de"], ["to", "m"], ["b", "a"], ["u", "de"], ["ve", "lo"], ["in", "cre"], ["lamb", "da"], ["al", "ways"], ["de", "lay"], ["il", "legal"], ["bo", "th"], ["ap", "pro"], ["array", "s"], ["u", "ally"], ["sum", "mary"], ["indi", "c"], ["i", "ce"], ["fo", "c"], ["config", "ured"], ["re", "r"], ["ic", "ally"], ["feat", "ures"], ["ex", "tern"], ["function", "s"], ["al", "le"], ["listen", "ers"], ["sto", "red"], ["eval", "u"], ["rad", "i"], ["follow", "ing"], ["t", "d"], ["dependenc", "ies"], ["ma", "c"], ["snap", "shot"], ["agg", "reg"], ["var", "s"], ["s", "he"], ["in", "s"], ["en", "ded"], ["link", "s"], ["print", "ln"], ["dif", "ferent"], ["mem", "ory"], ["pa", "gin"], ["ol", "der"], ["dele", "ted"], ["4", "0"], ["c", "and"], ["man", "if"], ["en", "se"], ["sd", "k"], ["ret", "ry"], ["activ", "ity"], ["cor", "respon"], ["2", "00"], ["spec", "ial"], ["ca", "pt"], ["su", "ch"], ["mo", "st"], ["thresh", "old"], ["iz", "er"], ["extension", "s"], ["fail", "ure"], ["pix", "el"], ["bo", "ot"], ["ck", "er"], ["mod", "ify"], ["raise", "s"], ["normali", "ze"], ["call", "able"], ["z", "es"], ["s", "b"], ["date", "time"], ["els", "if"], ["else", "if"], ["re", "ason"], ["syn", "chron"], ["fon", "t"], ["libr", "ary"], ["pipe", "line"], ["metr", "ic"], ["ast", "ic"], ["initiali", "ze"], ["heal", "th"], ["check", "ed"], ["enum", "er"], ["be", "ing"], ["ro", "y"], ["i", "ent"], ["w", "er"], ["f", "all"], ["l", "on"], ["user", "s"], ["hel", "p"], ["char", "s"], ["dest", "roy"], ["per", "cent"], ["b", "ra"], ["un", "marshal"], ["b", "ad"], ["exclu", "de"], ["re", "verse"], ["an", "other"], ["ge", "d"], ["iter", "able"], ["m", "idd"], ["midd", "le"], ["do", "ut"], ["n", "el"], ["re", "store"], ["e", "ffect"], ["r", "g"], ["coun", "try"], ["1", "5"], ["exception", "s"], ["fact", "or"], ["im", "al"], ["di", "alog"], ["v", "1"], ["v", "m"], ["el", "astic"], ["the", "se"], ["h", "int"], ["request", "ed"], ["l", "iter"], ["ta", "kes"], ["verbo", "se"], ["w", "d"], ["z", "z"], ["qu", "o"], ["sup", "p"], ["l", "b"], ["z", "ation"], ["parti", "al"], ["spec", "ify"], ["ma", "int"], ["fl", "ush"], ["hy", "dr"], ["po", "se"], ["p", "adding"], ["st", "dout"], ["b", "le"], ["resol", "ver"], ["cand", "id"], ["sample", "s"], ["sched", "ule"], ["ti", "mer"], ["format", "ter"], ["un", "its"], ["for", "ward"], ["ref", "lect"], ["vis", "it"], ["doc", "s"], ["cat", "alog"], ["h", "our"], ["liter", "al"], ["key", "word"], ["qu", "al"], ["p", "id"], ["we", "ek"], ["ta", "ke"], ["put", "s"], ["v", "ault"], ["bu", "cket"], ["wh", "at"], ["attach", "ment"], ["be", "st"], ["to", "uch"], ["arti", "cle"], ["pre", "g"], ["cs", "v"], ["alg", "ori"], ["gener", "ated"], ["stri", "ct"], ["algori", "th"], ["rout", "er"], ["r", "c"], ["de", "tect"], ["rece", "ived"], ["numer", "ic"], ["encode", "d"], ["bas", "ic"], ["sub", "string"], ["meas", "ure"], ["transl", "ation"], ["n", "am"], ["mon", "itor"], ["i", "ck"], ["spa", "ces"], ["ab", "u"], ["work", "ing"], ["m", "ig"], ["as", "c"], ["dup", "lic"], ["map", "per"], ["b", "ig"], ["extern", "al"], ["curren", "cy"], ["gra", "de"], ["conver", "ts"], ["tr", "ain"], ["manif", "est"], ["fa", "st"], ["li", "ght"], ["re", "pe"], ["fix", "ed"], ["l", "int"], ["res", "er"], ["il", "y"], ["sl", "ug"], ["vel", "y"], ["ne", "cess"], ["ta", "in"], ["mark", "er"], ["end", "s"], ["ti", "ck"], ["pro", "c"], ["au", "d"], ["plugin", "s"], ["current", "ly"], ["trans", "ition"], ["v", "ing"], ["h", "older"], ["adapt", "er"], ["fo", "o"], ["h", "ref"], ["col", "s"], ["g", "p"], ["vi", "a"], ["job", "s"], ["vert", "ex"], ["num", "bers"], ["start", "ing"], ["ver", "age"], ["annot", "ations"], ["ti", "le"], ["2", "4"], ["s", "3"], ["table", "s"], ["target", "s"], ["i", "re"], ["compi", "le"], ["h", "idden"], ["sche", "me"], ["is", "on"], ["p", "ret"], ["t", "ion"], ["il", "t"], ["vide", "o"], ["com", "pa"], ["deta", "il"], ["ch", "art"], ["h", "it"], ["edge", "s"], ["v", "lan"], ["ne", "g"], ["ver", "ti"], ["d", "t"], ["g", "t"], ["sha", "red"], ["ro", "utes"], ["l", "ar"], ["i", "er"], ["c", "c"], ["not", "ify"], ["collection", "s"], ["remo", "ves"], ["prod", "u"], ["ent", "ities"], ["call", "ing"], ["lif", "e"], ["con", "tr"], ["condition", "s"], ["defer", "red"], ["compar", "ison"], ["foc", "us"], ["op", "s"], ["1", "4"], ["respon", "d"], ["norm", "al"], ["bl", "ank"], ["necess", "ary"], ["com", "pat"], ["assign", "ment"], ["al", "ign"], ["re", "main"], ["algorith", "m"], ["templ", "ates"], ["con", "sum"], ["block", "s"], ["ab", "str"], ["re", "ply"], ["sh", "ell"], ["i", "an"], ["alph", "a"], ["role", "s"], ["proto", "type"], ["bo", "ard"], ["org", "an"], ["need", "s"], ["equ", "i"], ["gener", "ic"], ["au", "di"], ["source", "s"], ["coordin", "ates"], ["is", "o"], ["arch", "ive"], ["author", "ization"], ["g", "y"], ["in", "ject"], ["bot", "tom"], ["cent", "er"], ["mi", "x"], ["sent", "ence"], ["temp", "or"], ["match", "er"], ["ve", "c"], ["lic", "it"], ["auto", "mat"], ["3", "0"], ["an", "im"], ["read", "s"], ["ib", "ility"], ["resol", "ved"], ["po", "ly"], ["she", "et"], ["f", "ut"], ["ing", "s"], ["retri", "ev"], ["it", "ude"], ["frag", "ment"], ["y", "aml"], ["tx", "t"], ["em", "bed"], ["process", "ing"], ["in", "line"], ["7", "5"], ["co", "s"], ["url", "s"], ["y", "pe"], ["decor", "ator"], ["fe", "ed"], ["r", "f"], ["custom", "er"], ["p", "x"], ["match", "ed"], ["process", "or"], ["g", "ot"], ["t", "cp"], ["maint", "en"], ["code", "s"], ["abstr", "act"], ["mainten", "ance"], ["d", "id"], ["de", "v"], ["normali", "zed"], ["constraint", "s"], ["r", "s"], ["syn", "tax"], ["k", "l"], ["warning", "s"], ["ur", "ing"], ["com", "bin"], ["di", "gest"], ["ass", "ume"], ["ca", "de"], ["wo", "uld"], ["day", "s"], ["correspon", "ding"], ["quo", "te"], ["di", "str"], ["mem", "bers"], ["a", "wait"], ["format", "ted"], ["mo", "use"], ["s", "qu"], ["ref", "lection"], ["for", "med"], ["nd", "array"], ["es", "s"], ["requi", "res"], ["aud", "it"], ["an", "ti"], ["bu", "ilt"], ["audi", "o"], ["include", "s"], ["v", "2"], ["l", "er"], ["send", "er"], ["c", "m"], ["int", "64"], ["enc", "rypt"], ["ro", "ss"], ["stat", "ist"], ["f", "ree"], ["play", "er"], ["c", "ity"], ["dis", "k"], ["distr", "ib"], ["metr", "ics"], ["z", "y"], ["const", "ant"], ["r", "pc"], ["seg", "ments"], ["qu", "ot"], ["b", "lob"], ["pan", "e"], ["not", "ification"], ["no", "thing"], ["in", "f"], ["represent", "ation"], ["fore", "ign"], ["f", "w"], ["allow", "s"], ["u", "x"], ["comp", "il"], ["n", "ative"], ["rece", "i"], ["c", "u"], ["in", "side"], ["enc", "y"], ["d", "st"], ["5", "0"], ["s", "is"], ["in", "str"], ["de", "prec"], ["o", "w"], ["writ", "ten"], ["c", "ut"], ["proces", "sed"], ["cont", "act"], ["j", "e"], ["y", "y"], ["r", "type"], ["go", "og"], ["me", "try"], ["k", "nown"], ["am", "az"], ["amaz", "on"], ["ifi", "ers"], ["state", "s"], ["00", "00"], ["ma", "j"], ["po", "t"], ["p", "ur"], ["tool", "s"], ["ker", "nel"], ["ex", "pr"], ["8", "0"], ["config", "ure"], ["count", "s"], ["input", "s"], ["incre", "ment"], ["manage", "ment"], ["position", "s"], ["connect", "ed"], ["to", "o"], ["dir", "name"], ["cul", "ar"], ["m", "b"], ["sav", "ed"], ["extend", "s"], ["sign", "ed"], ["b", "ill"], ["ev", "en"], ["p", "ull"], ["loc", "ator"], ["mat", "er"], ["step", "s"], ["operation", "s"], ["wh", "ites"], ["h", "s"], ["host", "name"], ["in", "her"], ["implement", "ation"], ["r", "at"], ["fin", "ally"], ["dec", "imal"], ["min", "imum"], ["bas", "ename"], ["recur", "sive"], ["sw", "ap"], ["transl", "ate"], ["sc", "re"], ["m", "ong"], ["back", "end"], ["deli", "m"], ["call", "er"], ["con", "s"], ["g", "h"], ["dy", "nam"], ["b", "ul"], ["acc", "ord"], ["fut", "ure"], ["pattern", "s"], ["sk", "ill"], ["1", "3"], ["ar", "n"], ["binding", "s"], ["ch", "an"], ["po", "ll"], ["windo", "ws"], ["collect", "or"], ["format", "s"], ["fall", "back"], ["ca", "pa"], ["ph", "ase"], ["l", "ate"], ["g", "g"], ["ali", "ase"], ["q", "uest"], ["callback", "s"], ["de", "ep"], ["p", "ad"], ["radi", "us"], ["b", "al"], ["index", "es"], ["file", "path"], ["flat", "ten"], ["supp", "lied"], ["rende", "rer"], ["accord", "ing"], ["feren", "ce"], ["igno", "red"], ["p", "b"], ["inspect", "s"], ["av", "oid"], ["prom", "pt"], ["kl", "ass"], ["con", "v"], ["ar", "o"], ["per", "son"], ["up", "grade"], ["prev", "ent"], ["sc", "en"], ["on", "es"], ["chunk", "s"], ["relation", "ship"], ["whites", "pace"], ["co", "me"], ["res", "ses"], ["deploy", "ment"], ["remain", "ing"], ["ri", "c"], ["c", "art"], ["y", "cle"], ["pro", "gram"], ["goog", "le"], ["read", "able"], ["f", "req"], ["scre", "en"], ["definition", "s"], ["associ", "ate"], ["en", "ces"], ["le", "ast"], ["0", "1"], ["te", "am"], ["file", "system"], ["inclu", "ded"], ["arg", "v"], ["me", "ans"], ["h", "old"], ["direct", "ories"], ["pix", "els"], ["std", "err"], ["gre", "ater"], ["um", "b"], ["rep", "lication"], ["ipv", "6"], ["la", "zy"], ["gi", "th"], ["e", "cho"], ["load", "ing"], ["gith", "ub"], ["pre", "di"], ["le", "ad"], ["e", "le"], ["je", "ction"], ["5", "4"], ["disable", "d"], ["load", "s"], ["medi", "ate"], ["ifi", "es"], ["sv", "g"], ["f", "ab"], ["dele", "tes"], ["ab", "ort"], ["is", "ion"], ["az", "ure"], ["recei", "ver"], ["redu", "ce"], ["se", "p"], ["sty", "pe"], ["view", "s"], ["i", "18"], ["lif", "ec"], ["lifec", "ycle"], ["s", "ur"], ["cre", "ating"], ["t", "m"], ["x", "1"], ["re", "vision"], ["can", "v"], ["m", "m"], ["sh", "ad"], ["ha", "vi"], ["provi", "de"], ["g", "u"], ["be", "havi"], ["connection", "s"], ["str", "len"], ["consum", "er"], ["t", "un"], ["cla", "use"], ["b", "el"], ["sub", "mit"], ["red", "is"], ["dir", "s"], ["rout", "ing"], ["watch", "er"], ["work", "s"], ["d", "ra"], ["rg", "b"], ["wal", "k"], ["b", "i"], ["canv", "as"], ["app", "fw"], ["obser", "v"], ["inher", "it"], ["lic", "ense"], ["pay", "ment"], ["g", "ui"], ["base", "64"], ["organ", "ization"], ["assert", "ions"], ["cur", "l"], ["sub", "net"], ["ab", "o"], ["not", "es"], ["start", "ed"], ["manage", "d"], ["un", "able"], ["v", "r"], ["statist", "ics"], ["out", "er"], ["repe", "at"], ["sl", "ash"], ["opt", "im"], ["exp", "lode"], ["t", "tl"], ["pi", "e"], ["x", "path"], ["di", "g"], ["date", "s"], ["analy", "sis"], ["na", "vi"], ["ag", "a"], ["exp", "licit"], ["c", "ing"], ["aga", "inst"], ["range", "s"], ["c", "ap"], ["vari", "ant"], ["deta", "iled"], ["ter", "s"], ["ar", "ies"], ["gr", "ant"], ["ww", "w"], ["geo", "metry"], ["y", "et"], ["pl", "ain"], ["par", "a"], ["ex", "c"], ["et", "c"], ["tr", "an"], ["c", "ar"], ["distrib", "ution"], ["gate", "way"], ["100", "0"], ["1", "9"], ["j", "u"], ["fo", "li"], ["deprec", "ated"], ["capt", "ure"], ["pt", "r"], ["en", "velo"], ["writ", "es"], ["li", "es"], ["app", "lic"], ["s", "al"], ["style", "s"], ["ho", "me"], ["al", "er"], ["we", "re"], ["c", "am"], ["conver", "ted"], ["float", "64"], ["reg", "ular"], ["g", "n"], ["fab", "ric"], ["m", "ight"], ["ut", "c"], ["lat", "er"], ["reser", "ved"], ["un", "lock"], ["middle", "ware"], ["provid", "ers"], ["issue", "s"], ["n", "x"], ["o", "auth"], ["se", "ed"], ["i", "i"], ["categ", "ories"], ["cip", "her"], ["direct", "ly"], ["ent", "er"], ["me", "sh"], ["con", "fir"], ["st", "ill"], ["co", "st"], ["ific", "ations"], ["inst", "al"], ["h", "ide"], ["candid", "ate"], ["mong", "o"], ["a", "red"], ["t", "re"], ["int", "ent"], ["level", "s"], ["attempt", "s"], ["neg", "ative"], ["e", "f"], ["envelo", "pe"], ["pn", "g"], ["af", "fi"], ["add", "resses"], ["port", "foli"], ["str", "to"], ["appro", "pri"], ["aliase", "s"], ["document", "s"], ["instal", "led"], ["g", "ation"], ["rat", "io"], ["ck", "ets"], ["th", "ose"], ["map", "s"], ["appropri", "ate"], ["com", "ma"], ["gr", "ad"], ["i18", "n"], ["clo", "sing"], ["cur", "r"], ["pr", "in"], ["r", "ub"], ["all", "er"], ["g", "ers"], ["pri", "ce"], ["ad", "just"], ["mag", "ic"], ["ref", "s"], ["w", "ild"], ["invo", "ke"], ["iter", "ation"], ["inst", "anti"], ["ter", "ms"], ["p", "df"], ["work", "flow"], ["b", "order"], ["or", "de"], ["ex", "act"], ["enco", "der"], ["orde", "red"], ["str", "ate"], ["run", "s"], ["d", "rag"], ["h", "r"], ["st", "age"], ["j", "b"], ["s", "an"], ["so", "und"], ["se", "ver"], ["si", "vely"], ["automat", "ically"], ["dynam", "ic"], ["il", "ing"], ["ur", "al"], ["ne", "igh"], ["prin", "cip"], ["iv", "es"], ["wrap", "ped"], ["n", "g"], ["enumer", "ate"], ["g", "l"], ["er", "a"], ["registr", "ation"], ["si", "bl"], ["d", "uring"], ["wh", "o"], ["pk", "g"], ["dis", "co"], ["z", "o"], ["boot", "str"], ["mater", "ial"], ["wait", "ing"], ["log", "s"], ["pres", "sed"], ["server", "s"], ["q", "l"], ["3", "3"], ["f", "ron"], ["ann", "er"], ["neigh", "b"], ["st", "mt"], ["ang", "ular"], ["g", "ue"], ["mo", "unt"], ["pro", "ced"], ["config", "s"], ["d", "ers"], ["clo", "sure"], ["tr", "un"], ["f", "li"], ["check", "ing"], ["h", "ub"], ["c", "id"], ["d", "ash"], ["sv", "c"], ["quer", "ies"], ["s", "il"], ["it", "ive"], ["in", "es"], ["comple", "ted"], ["r", "m"], ["prec", "ision"], ["princip", "al"], ["frame", "s"], ["act", "or"], ["pa", "ren"], ["r", "ank"], ["regex", "p"], ["fa", "cade"], ["confir", "m"], ["mig", "ration"], ["color", "s"], ["c", "ation"], ["br", "id"], ["predi", "cate"], ["comm", "un"], ["con", "sist"], ["a", "verage"], ["n", "an"], ["c", "ross"], ["ser", "ial"], ["h", "ier"], ["bootstr", "ap"], ["elastic", "search"], ["indic", "ator"], ["delim", "iter"], ["work", "space"], ["rece", "ive"], ["as", "sets"], ["b", "and"], ["weight", "s"], ["t", "wi"], ["ld", "ap"], ["abo", "ve"], ["comput", "ed"], ["finish", "ed"], ["b", "on"], ["h", "or"], ["cell", "s"], ["recur", "sively"], ["state", "ments"], ["reference", "d"], ["res", "ize"], ["persist", "ence"], ["iter", "ate"], ["le", "af"], ["compa", "ct"], ["cl", "d"], ["h", "app"], ["comple", "x"], ["replace", "ment"], ["par", "sing"], ["el", "y"], ["d", "u"], ["imp", "lode"], ["form", "s"], ["re", "v"], ["am", "pl"], ["md", "5"], ["duplic", "ate"], ["com", "po"], ["str", "pos"], ["channel", "s"], ["sim", "il"], ["oc", "curren"], ["le", "s"], ["o", "th"], ["fron", "t"], ["sub", "st"], ["return", "ing"], ["m", "ill"], ["use", "ful"], ["place", "holder"], ["j", "av"], ["device", "s"], ["portfoli", "o"], ["ori", "ent"], ["ar", "row"], ["pair", "s"], ["00", "0"], ["m", "ic"], ["simil", "ar"], ["over", "write"], ["p", "u"], ["cre", "ation"], ["in", "k"], ["ance", "stor"], ["parent", "s"], ["be", "low"], ["dig", "its"], ["s", "lo"], ["string", "ify"], ["re", "ach"], ["f", "d"], ["di", "ag"], ["ph", "one"], ["tr", "ies"], ["quest", "ion"], ["h", "um"], ["starts", "with"], ["zer", "os"], ["vi", "p"], ["parti", "cular"], ["ci", "i"], ["ne", "ss"], ["t", "t"], ["x", "2"], ["bul", "k"], ["m", "k"], ["u", "ction"], ["re", "name"], ["trans", "fer"], ["de", "serialize"], ["im", "mediate"], ["policy", "label"], ["case", "s"], ["s", "of"], ["package", "s"], ["ma", "kes"], ["clean", "up"], ["strate", "gy"], ["bu", "sin"], ["aro", "und"], ["busin", "ess"], ["un", "expected"], ["get", "attr"], ["25", "6"], ["co", "pi"], ["the", "ta"], ["g", "a"], ["v", "ot"], ["frame", "work"], ["cli", "p"], ["ag", "ing"], ["m", "id"], ["lar", "ge"], ["end", "ing"], ["prob", "lem"], ["w", "ell"], ["ob", "tain"], ["dis", "card"], ["coordin", "ate"], ["initiali", "zed"], ["m", "r"], ["de", "si"], ["l", "s"], ["r", "ds"], ["h", "al"], ["u", "pt"], ["in", "c"], ["sh", "ut"], ["fi", "ci"], ["ans", "wer"], ["inclu", "ding"], ["pagin", "ation"], ["reco", "gn"], ["tra", "iling"], ["feren", "ces"], ["un", "ch"], ["as", "cii"], ["endpoint", "s"], ["example", "s"], ["wh", "ite"], ["sof", "t"], ["dispatch", "er"], ["export", "s"], ["n", "at"], ["wild", "card"], ["ba", "sel"], ["thread", "s"], ["parse", "s"], ["ch", "em"], ["log", "ical"], ["posit", "ive"], ["pi", "ck"], ["read", "ing"], ["rot", "ation"], ["ar", "ia"], ["w", "p"], ["b", "g"], ["l", "t"], ["f", "p"], ["sh", "are"], ["maj", "or"], ["con", "su"], ["handle", "s"], ["con", "version"], ["or", "ter"], ["seriali", "zed"], ["merge", "d"], ["ret", "val"], ["up", "dat"], ["so", "meth"], ["cn", "abu"], ["re", "load"], ["mod", "ifier"], ["desi", "red"], ["sto", "res"], ["indi", "vid"], ["helper", "s"], ["someth", "ing"], ["hour", "s"], ["r", "v"], ["scope", "s"], ["cho", "ice"], ["tl", "s"], ["si", "zes"], ["high", "light"], ["sup", "press"], ["spe", "ed"], ["k", "now"], ["t", "urn"], ["75", "54"], ["scen", "e"], ["symbol", "s"], ["expi", "res"], ["retriev", "es"], ["1", "7"], ["ri", "pt"], ["mic", "ro"], ["rel", "ations"], ["ag", "ain"], ["d", "d"], ["com", "press"], ["bel", "ong"], ["ch", "ro"], ["dimension", "s"], ["co", "lo"], ["tr", "i"], ["o", "jb"], ["val", "s"], ["id", "er"], ["attach", "ments"], ["proces", "ses"], ["sq", "rt"], ["min", "utes"], ["gener", "al"], ["f", "ra"], ["hook", "s"], ["act", "ually"], ["rub", "y"], ["im", "pl"], ["c", "mp"], ["hier", "arch"], ["al", "loc"], ["inter", "po"], ["g", "ame"], ["language", "s"], ["se", "ct"], ["alle", "l"], ["pre", "fer"], ["pre", "view"], ["let", "on"], ["ple", "ase"], ["k", "ing"], ["equi", "pa"], ["ou", "gh"], ["aggreg", "ation"], ["uint", "32"], ["com", "ing"], ["p", "w"], ["de", "sign"], ["x", "hr"], ["l", "and"], ["equipa", "ment"], ["mark", "ed"], ["t", "c"], ["v", "end"], ["r", "b"], ["de", "co"], ["provision", "ing"], ["char", "set"], ["link", "ed"], ["hydr", "ated"], ["a", "j"], ["h", "5"], ["db", "cluster"], ["basel", "ine"], ["de", "velo"], ["s", "le"], ["pre", "pa"], ["ad", "v"], ["c", "ame"], ["determin", "es"], ["contin", "u"], ["x", "0"], ["tr", "ust"], ["cor", "p"], ["p", "in"], ["exp", "an"], ["vis", "ibility"], ["oc", "cur"], ["e", "ol"], ["ta", "il"], ["li", "ct"], ["db", "c"], ["do", "cker"], ["ti", "c"], ["d", "en"], ["it", "self"], ["compat", "ible"], ["mut", "able"], ["ss", "h"], ["off", "sets"], ["p", "do"], ["fici", "ent"], ["g", "sub"], ["2", "2"], ["rep", "lic"], ["e", "g"], ["writ", "ing"], ["pos", "ite"], ["sol", "ution"], ["25", "5"], ["il", "ities"], ["s", "at"], ["qu", "ant"], ["lay", "ers"], ["char", "m"], ["ens", "itive"], ["mark", "s"], ["san", "it"], ["ex", "change"], ["resol", "ution"], ["un", "supported"], ["brid", "ge"], ["proced", "ure"], ["t", "or"], ["j", "dbc"], ["re", "write"], ["pi", "cker"], ["conf", "lict"], ["behavi", "or"], ["esca", "ped"], ["as", "se"], ["coord", "s"], ["output", "s"], ["m", "ir"], ["c", "rop"], ["fe", "red"], ["individ", "ual"], ["tempor", "ary"], ["ali", "ze"], ["sec", "ure"], ["atta", "ched"], ["up", "on"], ["conver", "ter"], ["scal", "er"], ["com", "b"], ["app", "lied"], ["al", "tern"], ["o", "pa"], ["check", "sum"], ["evalu", "ate"], ["separ", "ated"], ["gue", "ss"], ["w", "ave"], ["mapping", "s"], ["execut", "or"], ["success", "ful"], ["pl", "us"], ["k", "i"], ["cl", "az"], ["claz", "z"], ["par", "s"], ["vend", "or"], ["pret", "ty"], ["cr", "it"], ["de", "g"], ["log", "ic"], ["ma", "ker"], ["ap", "sed"], ["sle", "ep"], ["find", "er"], ["ev", "t"], ["g", "c"], ["ipv", "4"], ["provi", "des"], ["reco", "very"], ["cla", "im"], ["subst", "it"], ["squ", "are"], ["asc", "ript"], ["is", "n"], ["d", "j"], ["r", "hs"], ["port", "s"], ["n", "u"], ["cook", "ies"], ["id", "le"], ["path", "name"], ["c", "as"], ["find", "s"], ["type", "d"], ["b", "s"], ["writ", "able"], ["sc", "anner"], ["n", "n"], ["ce", "ption"], ["se", "en"], ["dele", "gate"], ["run", "ner"], ["c", "lock"], ["bl", "ue"], ["di", "git"], ["specific", "ation"], ["hor", "iz"], ["build", "s"], ["inv", "ok"], ["r", "or"], ["c", "py"], ["d", "l"], ["see", "k"], ["wi", "re"], ["li", "ce"], ["li", "ve"], ["pres", "er"], ["cal", "c"], ["me", "l"], ["contain", "ers"], ["handl", "ing"], ["applic", "ations"], ["be", "at"], ["equipament", "o"], ["pan", "el"], ["th", "ree"], ["buf", "fered"], ["face", "t"], ["la", "unch"], ["ne", "ver"], ["ti", "cs"], ["deli", "very"], ["to", "gg"], ["persist", "ent"], ["pe", "ar"], ["compil", "er"], ["d", "c"], ["mo", "le"], ["l", "ap"], ["may", "be"], ["jav", "ascript"], ["send", "s"], ["ti", "p"], ["ac", "y"], ["cam", "era"], ["verti", "cal"], ["option", "ally"], ["mill", "is"], ["st", "ro"], ["secret", "s"], ["co", "ur"], ["de", "ad"], ["polic", "ies"], ["f", "at"], ["indic", "ates"], ["line", "ar"], ["per", "m"], ["deta", "ch"], ["zo", "om"], ["bl", "ack"], ["dis", "cu"], ["get", "ting"], ["inte", "rest"], ["embed", "ded"], ["p", "en"], ["anim", "ation"], ["compi", "led"], ["9", "0"], ["99", "99"], ["x", "i"], ["popul", "ate"], ["pa", "ces"], ["er", "ce"], ["encrypt", "ed"], ["transform", "er"], ["synchron", "ized"], ["spec", "im"], ["c", "wd"], ["re", "pos"], ["o", "ct"], ["schedule", "d"], ["discu", "ssion"], ["ent", "ion"], ["p", "d"], ["p", "2"], ["transl", "ator"], ["implement", "ed"], ["script", "s"], ["aa", "a"], ["note", "book"], ["cur", "ve"], ["sibl", "ing"], ["pan", "ic"], ["navi", "gation"], ["bal", "ance"], ["f", "am"], ["horiz", "on"], ["est", "im"], ["i", "ces"], ["trans", "formation"], ["aut", "om"], ["hand", "led"], ["r", "ing"], ["3", "6"], ["annot", "ate"], ["t", "abs"], ["p", "1"], ["sim", "ul"], ["flo", "or"], ["anch", "or"], ["rec", "ent"], ["inte", "gr"], ["utf", "8"], ["equ", "ip"], ["ss", "m"], ["cy", "cle"], ["train", "ing"], ["hash", "es"], ["r", "df"], ["ci", "r"], ["sh", "ard"], ["ax", "es"], ["colo", "ur"], ["pre", "f"], ["host", "s"], ["rende", "red"], ["thing", "s"], ["to", "k"], ["lo", "ss"], ["seriali", "zer"], ["can", "on"], ["hy", "per"], ["e", "of"], ["respon", "der"], ["shut", "down"], ["report", "s"], ["d", "ue"], ["g", "vr"], ["perform", "s"], ["or", "th"], ["transl", "ations"], ["freq", "u"], ["map", "ped"], ["at", "t"], ["init", "i"], ["vari", "ance"], ["mir", "ror"], ["support", "s"], ["remo", "ving"], ["cer", "tain"], ["ang", "o"], ["dat", "as"], ["net", "scaler"], ["z", "a"], ["fi", "d"], ["sever", "ity"], ["ca", "ch"], ["5", "8"], ["db", "instance"], ["consu", "me"], ["t", "w"], ["lead", "ing"], ["go", "od"], ["ma", "de"], ["prefix", "es"], ["y", "s"], ["com", "posite"], ["send", "ing"], ["termin", "al"], ["i", "me"], ["retri", "es"], ["publish", "ed"], ["st", "ar"], ["provision", "ed"], ["configuration", "s"], ["ex", "peri"], ["sub", "set"], ["subscri", "be"], ["in", "ser"], ["ens", "ity"], ["b", "c"], ["p", "mag"], ["fa", "ils"], ["roll", "back"], ["co", "g"], ["sig", "ma"], ["pop", "up"], ["ext", "ent"], ["in", "verse"], ["strto", "lower"], ["t", "pl"], ["ti", "m"], ["pl", "ural"], ["expression", "s"], ["di", "al"], ["si", "x"], ["f", "name"], ["time", "zone"], ["l", "st"], ["bro", "ad"], ["lat", "itude"], ["sm", "all"], ["separ", "ate"], ["import", "s"], ["aj", "ax"], ["compar", "ator"], ["ch", "a"], ["th", "umb"], ["author", "s"], ["be", "ta"], ["vis", "itor"], ["min", "or"], ["ver", "b"], ["dif", "ference"], ["par", "allel"], ["sy", "ll"], ["bill", "ing"], ["code", "c"], ["shad", "ow"], ["section", "s"], ["gre", "es"], ["ly", "ing"], ["dec", "rypt"], ["p", "and"], ["u", "ff"], ["loc", "ations"], ["pe", "t"], ["st", "ers"], ["v", "a"], ["render", "ing"], ["uint", "64"], ["not", "ifications"], ["new", "line"], ["g", "au"], ["ge", "m"], ["mt", "as"], ["wr", "ong"], ["access", "or"], ["long", "itude"], ["sp", "lice"], ["begin", "ning"], ["app", "lies"], ["accept", "s"], ["depend", "ent"], ["client", "s"], ["sequ", "ences"], ["de", "grees"], ["late", "st"], ["po", "wer"], ["expi", "red"], ["key", "words"], ["g", "ap"], ["direct", "ive"], ["h", "its"], ["e", "q"], ["instr", "uction"], ["contr", "ib"], ["candid", "ates"], ["fat", "al"], ["condition", "al"], ["log", "ged"], ["ef", "ficient"], ["up", "loaded"], ["cho", "ices"], ["stream", "s"], ["any", "thing"], ["ap", "pear"], ["st", "an"], ["prob", "ab"], ["n", "t"], ["r", "d"], ["s", "ampl"], ["ali", "ve"], ["partition", "s"], ["int", "err"], ["in", "coming"], ["has", "attr"], ["app", "s"], ["hydr", "ate"], ["pagin", "ator"], ["implement", "s"], ["interface", "s"], ["over", "flow"], ["tx", "n"], ["vari", "ants"], ["z", "ap"], ["en", "g"], ["depend", "ing"], ["m", "arg"], ["ext", "ended"], ["valid", "ates"], ["n", "av"], ["mod", "al"], ["para", "graph"], ["scal", "ar"], ["orient", "ation"], ["calcul", "ates"], ["mix", "ed"], ["accept", "ed"], ["assign", "ed"], ["prepa", "red"], ["0", "2"], ["cn", "t"], ["able", "s"], ["verti", "ces"], ["ten", "ant"], ["sol", "r"], ["po", "d"], ["ta", "ken"], ["who", "le"], ["re", "view"], ["pie", "ce"], ["names", "paces"], ["tra", "ject"], ["v", "s"], ["seriali", "zation"], ["percent", "age"], ["project", "s"], ["an", "on"], ["interr", "upt"], ["p", "al"], ["track", "er"], ["3", "9"], ["d", "x"], ["gen", "e"], ["2", "d"], ["d", "um"], ["a", "o"], ["expan", "ded"], ["mark", "down"], ["affi", "c"], ["expi", "ration"], ["li", "m"], ["be", "am"], ["m", "il"], ["text", "ure"], ["under", "lying"], ["trig", "gers"], ["un", "pack"], ["ut", "ility"], ["bu", "s"], ["or", "ph"], ["ry", "ption"], ["contr", "act"], ["u", "c"], ["b", "son"], ["togg", "le"], ["si", "p"], ["connect", "or"], ["o", "data"], ["raise", "d"], ["in", "fin"], ["ty", "p"], ["tor", "rent"], ["s", "mo"], ["hal", "f"], ["m", "f"], ["f", "k"], ["st", "al"], ["n", "1"], ["comb", "ine"], ["qual", "ified"], ["global", "s"], ["regi", "sters"], ["dep", "s"], ["con", "c"], ["open", "ed"], ["inv", "ent"], ["c", "raw"], ["throw", "able"], ["back", "trace"], ["ward", "s"], ["sing", "leton"], ["cog", "nit"], ["aler", "t"], ["com", "pression"], ["ex", "plan"], ["asy", "n"], ["g", "zip"], ["com", "pressed"], ["f", "ri"], ["fl", "ash"], ["tr", "ip"], ["dis", "connect"], ["let", "ter"], ["bound", "ary"], ["te", "ction"], ["rec", "order"], ["pro", "pa"], ["dra", "ft"], ["fam", "ily"], ["s", "alt"], ["co", "verage"], ["pre", "diction"], ["commun", "ic"], ["sp", "ans"], ["network", "api"], ["represent", "s"], ["local", "es"], ["service", "group"], ["execut", "ed"], ["equi", "val"], ["di", "c"], ["sr", "v"], ["cognit", "o"], ["pre", "ferences"], ["so", "ck"], ["hum", "an"], ["r", "x"], ["an", "no"], ["ti", "ce"], ["f", "ar"], ["h", "av"], ["k", "ill"], ["q", "p"], ["t", "ap"], ["tuple", "s"], ["ud", "p"], ["invent", "ory"], ["p", "g"], ["ss", "o"], ["gre", "en"], ["al", "ong"], ["prefer", "red"], ["author", "ized"], ["exclu", "ded"], ["check", "er"], ["d", "ry"], ["m", "and"], ["dir", "ty"], ["go", "ing"], ["inter", "pret"], ["rf", "c"], ["explicit", "ly"], ["i", "vely"], ["qu", "ad"], ["previous", "ly"], ["replace", "d"], ["gau", "ss"], ["p", "m"], ["w", "k"], ["es", "lint"], ["s", "id"], ["su", "g"], ["associ", "ations"], ["w", "ater"], ["at", "ype"], ["asyn", "chron"], ["re", "ver"], ["qu", "i"], ["n", "r"], ["certific", "ates"], ["wh", "ose"], ["authentic", "ated"], ["wal", "let"], ["a", "ffect"], ["ob", "server"], ["g", "sl"], ["asynchron", "ous"], ["en", "o"], ["qual", "ity"], ["su", "res"], ["inter", "sect"], ["li", "er"], ["un", "ion"], ["b", "b"], ["fra", "ction"], ["config", "ur"], ["sn", "mp"], ["w", "ind"], ["me", "mo"], ["document", "ation"], ["context", "s"], ["k", "a"], ["indi", "cate"], ["execut", "able"], ["u", "be"], ["mk", "dir"], ["control", "s"], ["tag", "ged"], ["result", "ing"], ["uint", "8"], ["i", "x"], ["comple", "tion"], ["pass", "ing"], ["w", "all"], ["sco", "res"], ["s", "chem"], ["gi", "ve"], ["res", "ume"], ["g", "on"], ["gro", "u"], ["r", "al"], ["quot", "es"], ["horizon", "tal"], ["2", "3"], ["stop", "ped"], ["40", "4"], ["ct", "ype"], ["hierarch", "y"], ["work", "ers"], ["pand", "as"], ["si", "ble"], ["every", "thing"], ["j", "id"], ["experi", "ment"], ["mp", "p"], ["access", "ible"], ["tick", "s"], ["ent", "ire"], ["sing", "ular"], ["co", "ver"], ["account", "s"], ["analy", "tics"], ["5", "00"], ["mut", "ex"], ["p", "se"], ["k", "it"], ["ident", "ifiers"], ["wi", "ki"], ["sub", "mission"], ["ra", "ils"], ["w", "t"], ["sil", "ent"], ["mp", "x"], ["mole", "c"], ["lo", "ver"], ["ph", "ra"], ["s", "ites"], ["o", "e"], ["ff", "ff"], ["initiali", "zes"], ["defin", "es"], ["rec", "ip"], ["mil", "li"], ["enc", "ryption"], ["activ", "ation"], ["declar", "ations"], ["replic", "a"], ["tempor", "al"], ["broad", "cast"], ["f", "ur"], ["ad", "j"], ["m", "al"], ["cre", "ator"], ["equival", "ent"], ["col", "on"], ["gp", "f"], ["adv", "ance"], ["t", "n"], ["float", "32"], ["tem", "per"], ["as", "pect"], ["bra", "ckets"], ["sug", "gest"], ["g", "am"], ["h", "dr"], ["mach", "ines"], ["happ", "en"], ["hint", "s"], ["system", "s"], ["queue", "s"], ["n", "ick"], ["scal", "ing"], ["decl", "ared"], ["month", "s"], ["combin", "ed"], ["recip", "ient"], ["bin", "s"], ["over", "lap"], ["look", "s"], ["interpo", "l"], ["dj", "ango"], ["y", "1"], ["do", "i"], ["atom", "ic"], ["re", "strict"], ["molec", "ule"], ["fig", "ure"], ["de", "tected"], ["class", "name"], ["ir", "d"], ["exec", "utes"], ["dele", "tion"], ["bundle", "s"], ["sk", "y"], ["marg", "in"], ["vect", "ors"], ["ref", "er"], ["le", "ave"], ["ca", "ption"], ["concat", "en"], ["post", "s"], ["poly", "gon"], ["6", "6"], ["i", "pa"], ["vi", "ol"], ["canon", "ical"], ["der", "ived"], ["immediate", "ly"], ["rot", "ate"], ["gsl", "b"], ["inter", "section"], ["capa", "city"], ["ex", "ponent"], ["expi", "re"], ["class", "ifier"], ["get", "ter"], ["x", "p"], ["analy", "si"], ["analysi", "stype"], ["spa", "wn"], ["q", "t"], ["quot", "ed"], ["p", "q"], ["lon", "ger"], ["m", "g"], ["sym", "bo"], ["qu", "ick"], ["spe", "ction"], ["re", "connect"], ["pri", "mit"], ["pr", "f"], ["fl", "ux"], ["stan", "za"], ["m", "v"], ["local", "s"], ["def", "s"], ["authentic", "ate"], ["u", "th"], ["frequ", "ency"], ["updat", "ing"], ["s", "age"], ["der", "iv"], ["is", "m"], ["lock", "ed"], ["sampl", "ing"], ["sub", "class"], ["y", "es"], ["lex", "ception"], ["ord", "in"], ["ct", "o"], ["en", "sures"], ["sh", "r"], ["w", "b"], ["c", "sr"], ["perform", "ance"], ["pa", "use"], ["inspect", "or"], ["mel", "is"], ["uni", "x"], ["popul", "ation"], ["mut", "ation"], ["stro", "ke"], ["clo", "ser"], ["4", "8"], ["ho", "we"], ["howe", "ver"], ["li", "k"], ["j", "ar"], ["print", "s"], ["s", "x"], ["re", "comm"], ["fli", "ck"], ["d", "h"], ["bet", "ter"], ["res", "pect"], ["p", "p"], ["deco", "der"], ["measure", "ment"], ["fur", "ther"], ["index", "ed"], ["el", "apsed"], ["invo", "cation"], ["ui", "5"], ["w", "l"], ["new", "s"], ["mark", "up"], ["a", "pe"], ["autom", "ation"], ["pro", "files"], ["r", "ame"], ["belong", "s"], ["sort", "ing"], ["3", "5"], ["ident", "ify"], ["override", "s"], ["capa", "b"], ["im", "mutable"], ["po", "sed"], ["opa", "city"], ["pre", "set"], ["x", "mpp"], ["g", "b"], ["limit", "ed"], ["open", "ing"], ["gen", "o"], ["st", "ub"], ["schem", "as"], ["c", "ab"], ["grad", "ient"], ["ap", "o"], ["ens", "or"], ["in", "i"], ["vo", "te"], ["s", "1"], ["clust", "ers"], ["decode", "d"], ["traject", "ory"], ["mpx", "j"], ["comput", "es"], ["f", "ing"], ["domain", "s"], ["promise", "s"], ["author", "izer"], ["quant", "ity"], ["co", "upon"], ["int", "ro"], ["r", "ating"], ["un", "used"], ["info", "s"], ["aggreg", "ate"], ["h", "ar"], ["track", "s"], ["over", "lay"], ["copi", "ed"], ["top", "ics"], ["disco", "very"], ["m", "u"], ["alle", "le"], ["lb", "vserver"], ["con", "ven"], ["rout", "ine"], ["build", "ing"], ["mess", "aging"], ["pl", "t"], ["pre", "ad"], ["assert", "ion"], ["2", "7"], ["ph", "ing"], ["pre", "dict"], ["l", "u"], ["int", "32"], ["b", "um"], ["add", "on"], ["calcul", "ated"], ["pre", "pend"], ["pe", "ak"], ["dis", "c"], ["bound", "ing"], ["hav", "ing"], ["en", "abu"], ["synchron", "ous"], ["coll", "ap"], ["button", "s"], ["cons", "ider"], ["ho", "t"], ["ip", "address"], ["occurren", "ce"], ["rele", "v"], ["token", "izer"], ["come", "s"], ["ob", "s"], ["ce", "ptor"], ["mod", "ification"], ["termin", "ate"], ["preser", "ve"], ["s", "un"], ["h", "mm"], ["rad", "io"], ["4", "4"], ["cho", "ose"], ["log", "y"], ["t", "ell"], ["throw", "n"], ["block", "ing"], ["came", "l"], ["out", "bound"], ["out", "side"], ["urn", "al"], ["ph", "i"], ["neighb", "ors"], ["c", "ud"], ["valid", "ated"], ["bol", "d"], ["vis", "or"], ["s", "pread"], ["gener", "ation"], ["hist", "o"], ["em", "on"], ["oper", "and"], ["dump", "s"], ["md", "l"], ["j", "ump"], ["ra", "ck"], ["fol", "ders"], ["compil", "ation"], ["replace", "s"], ["require", "ments"], ["cor", "relation"], ["batch", "es"], ["comm", "its"], ["ends", "with"], ["fol", "d"], ["in", "jection"], ["proper", "ly"], ["con", "side"], ["fetch", "ed"], ["amb", "ient"], ["ws", "gi"], ["sol", "ver"], ["ch", "r"], ["bon", "d"], ["en", "ough"], ["w", "on"], ["v", "ation"], ["ele", "ms"], ["lem", "ma"], ["ln", "g"], ["s", "pr"], ["sc", "r"], ["decor", "ated"], ["s", "f"], ["libr", "aries"], ["up", "o"], ["obser", "ved"], ["phra", "se"], ["ip", "y"], ["i", "q"], ["pi", "vot"], ["iter", "ates"], ["v", "l"], ["anon", "y"], ["specim", "en"], ["slo", "ts"], ["std", "in"], ["pres", "ence"], ["session", "s"], ["i", "ence"], ["b", "read"], ["ch", "at"], ["co", "efficient"], ["visit", "ed"], ["app", "flow"], ["close", "st"], ["itor", "ies"], ["spa", "cing"], ["try", "ing"], ["we", "st"], ["ul", "er"], ["end", "ian"], ["tool", "tip"], ["re", "pr"], ["au", "x"], ["al", "bum"], ["conside", "red"], ["mo", "ment"], ["contain", "ed"], ["ver", "ification"], ["non", "ce"], ["if", "rame"], ["n", "l"], ["g", "aller"], ["sim", "ply"], ["mod", "ifiers"], ["histo", "gram"], ["vpn", "global"], ["yield", "s"], ["ge", "ther"], ["y", "ar"], ["volume", "s"], ["c", "pe"], ["instanti", "ate"], ["substit", "ution"], ["re", "start"], ["h", "i"], ["da", "emon"], ["t", "le"], ["mo", "us"], ["controll", "ers"], ["compo", "ser"], ["mo", "ved"], ["grou", "ped"], ["pos", "al"], ["member", "of"], ["whe", "el"], ["calcul", "ation"], ["look", "ing"], ["l", "c"], ["f", "its"], ["delete", "resource"], ["cal", "ib"], ["g", "uid"], ["gam", "ma"], ["s", "ong"], ["li", "ze"], ["member", "ship"], ["a", "head"], ["tax", "on"], ["oth", "ers"], ["in", "bound"], ["d", "m"], ["to", "gether"], ["flick", "r"], ["mask", "ed"], ["unset", "resource"], ["insert", "ed"], ["photo", "s"], ["relev", "ant"], ["inter", "action"], ["leg", "acy"], ["select", "ors"], ["m", "gt"], ["check", "out"], ["fetch", "ing"], ["per", "formed"], ["cr", "umb"], ["prob", "ability"], ["incre", "ase"], ["pro", "mo"], ["effect", "ive"], ["g", "uest"], ["export", "ed"], ["avail", "ability"], ["ap", "ic"], ["box", "es"], ["anony", "mous"], ["cour", "se"], ["rec", "v"], ["ec", "2"], ["th", "r"], ["un", "ce"], ["st", "ation"], ["f", "lex"], ["fri", "end"], ["wor", "ld"], ["dat", "atype"], ["3", "1"], ["k", "v"], ["effect", "s"], ["lan", "e"], ["ra", "ther"], ["p", "lo"], ["und", "ers"], ["explan", "ation"], ["n", "w"], ["product", "s"], ["filename", "s"], ["ar", "m"], ["sanit", "ize"], ["7", "7"], ["f", "le"], ["po", "w"], ["data", "frame"], ["temper", "ature"], ["de", "cre"], ["sav", "es"], ["log", "policy"], ["ar", "c"], ["l", "it"], ["ut", "ter"], ["primit", "ive"], ["a", "io"], ["lo", "pt"], ["get", "filtered"], ["service", "type"], ["z", "0"], ["4", "5"], ["occurren", "ces"], ["v", "4"], ["null", "able"], ["pro", "posal"], ["ap", "point"], ["res", "se"], ["sequ", "ent"], ["lib", "s"], ["in", "fer"], ["ip", "s"], ["emit", "ter"], ["trans", "formed"], ["tim", "ing"], ["e", "asy"], ["9", "5"], ["smo", "oth"], ["xx", "x"], ["min", "im"], ["ab", "ol"], ["no", "me"], ["q", "b"], ["inter", "ceptor"], ["correct", "ly"], ["sq", "lexception"], ["gui", "de"], ["dum", "my"], ["track", "ing"], ["vo", "cab"], ["repos", "itories"], ["met", "abol"], ["equip", "ment"], ["re", "act"], ["s", "ay"], ["spec", "s"], ["pe", "g"], ["c", "x"], ["simul", "ated"], ["import", "ant"], ["h", "ap"], ["provision", "er"], ["rect", "angle"], ["su", "it"], ["tr", "affic"], ["bu", "sy"], ["iter", "ations"], ["s", "parse"], ["ed", "b"], ["tun", "ing"], ["r", "ti"], ["oc", "curs"], ["inser", "ts"], ["dat", "um"], ["ig", "u"], ["cir", "cle"], ["sum", "mar"], ["at", "ar"], ["re", "vo"], ["fa", "ke"], ["comp", "li"], ["at", "ts"], ["wid", "gets"], ["bra", "cket"], ["pop", "bill"], ["se", "ason"], ["prob", "le"], ["ma", "king"], ["gauss", "ian"], ["fing", "er"], ["v", "x"], ["hold", "ers"], ["off", "er"], ["po", "po"], ["strip", "ped"], ["a", "stype"], ["ambient", "e"], ["ve", "red"], ["p", "un"], ["cud", "nn"], ["ad", "o"], ["he", "st"], ["compat", "ibility"], ["um", "ul"], ["h", "ard"], ["ins", "ensitive"], ["ju", "ju"], ["ig", "hest"], ["g", "s"], ["invok", "ed"], ["rt", "l"], ["ren", "ders"], ["ver", "sal"], ["develo", "per"], ["fire", "wall"], ["h", "ighest"], ["con", "fid"], ["a", "es"], ["skip", "ped"], ["hel", "lo"], ["pro", "jection"], ["syll", "able"], ["conv", "ention"], ["pal", "et"], ["f", "h"], ["e", "e"], ["galler", "y"], ["pi", "ct"], ["ro", "id"], ["suc", "ce"], ["no", "st"], ["ne", "are"], ["relationship", "s"], ["en", "h"], ["b", "ank"], ["ad", "resse"], ["al", "go"], ["i", "vate"], ["region", "s"], ["list", "ing"], ["z", "ing"], ["extract", "ed"], ["stop", "s"], ["queue", "d"], ["gu", "ard"], ["ve", "loc"], ["ve", "st"], ["graph", "ic"], ["sent", "ences"], ["lin", "eno"], ["sub", "process"], ["tra", "verse"], ["ch", "n"], ["scal", "ed"], ["regex", "es"], ["dis", "associate"], ["out", "ine"], ["e", "as"], ["extract", "or"], ["shad", "er"], ["jo", "urnal"], ["install", "ation"], ["work", "team"], ["suit", "able"], ["gr", "upo"], ["no", "tice"], ["g", "d"], ["db", "snapshot"], ["le", "ar"], ["or", "ing"], ["mig", "r"], ["fli", "p"], ["length", "s"], ["assign", "ments"], ["sc", "at"], ["pe", "ers"], ["10", "24"], ["is", "land"], ["tran", "script"], ["gen", "us"], ["com", "pose"], ["p", "up"], ["fix", "er"], ["f", "if"], ["sha", "256"], ["k", "nx"], ["lear", "ning"], ["b", "en"], ["act", "ivate"], ["description", "s"], ["inherit", "ed"], ["conven", "ience"], ["cur", "lopt"], ["in", "sn"], ["transl", "ated"], ["interval", "s"], ["ist", "ic"], ["neare", "st"], ["re", "member"], ["delete", "resources"], ["subscription", "s"], ["9", "6"], ["no", "m"], ["pur", "ge"], ["fil", "led"], ["foo", "ter"], ["twi", "g"], ["ident", "ified"], ["descri", "b"], ["mime", "type"], ["combin", "ation"], ["r", "ho"], ["qui", "et"], ["chro", "me"], ["iz", "ing"], ["vpn", "vserver"], ["eng", "lish"], ["om", "ial"], ["pie", "ces"], ["ar", "bit"], ["lik", "ely"], ["de", "vi"], ["cr", "l"], ["drop", "down"], ["play", "list"], ["sur", "face"], ["object", "ive"], ["s", "2"], ["diag", "nost"], ["12", "8"], ["branch", "es"], ["poll", "ing"], ["ret", "e"], ["pre", "ference"], ["dict", "s"], ["wrap", "s"], ["a", "e"], ["sat", "is"], ["duplic", "ates"], ["pe", "ek"], ["port", "al"], ["exact", "ly"], ["de", "register"], ["da", "ily"], ["m", "orph"], ["expect", "s"], ["d", "matrix"], ["ct", "or"], ["initiali", "zation"], ["tre", "at"], ["copi", "es"], ["order", "ing"], ["descriptor", "s"], ["me", "ter"], ["g", "as"], ["un", "e"], ["block", "ly"], ["asso", "c"], ["at", "ory"], ["atom", "s"], ["reach", "ed"], ["us", "ually"], ["ar", "io"], ["g", "z"], ["b", "tn"], ["s", "item"], ["ord", "ers"], ["y", "in"], ["process", "ors"], ["8", "8"], ["uni", "q"], ["resh", "ape"], ["ca", "o"], ["medi", "um"], ["ser", "ve"], ["err", "s"], ["assume", "s"], ["pup", "pet"], ["sim", "pl"], ["desc", "end"], ["bal", "an"], ["g", "row"], ["en", "for"], ["un", "checked"], ["sm", "art"], ["extract", "s"], ["loc", "ate"], ["7", "6"], ["collap", "se"], ["am", "i"], ["sto", "ck"], ["b", "log"], ["decl", "are"], ["p", "itch"], ["e", "red"], ["ca", "re"], ["network", "s"], ["experiment", "al"], ["de", "mo"], ["sha", "1"], ["un", "ary"], ["ta", "u"], ["built", "in"], ["aio", "xmpp"], ["to", "pt"], ["as", "n1"], ["list", "ed"], ["high", "er"], ["check", "box"], ["json", "object"], ["x", "r"], ["palet", "te"], ["trust", "ed"], ["sitem", "ap"], ["selection", "s"], ["int", "f"], ["in", "spection"], ["de", "al"], ["2", "6"], ["om", "it"], ["mag", "nit"], ["func", "s"], ["claim", "s"], ["affect", "ed"], ["gram", "mar"], ["j", "wt"], ["m", "ass"], ["track", "ed"], ["debug", "ging"], ["calendar", "s"], ["ver", "s"], ["k", "s"], ["milli", "seconds"], ["key", "board"], ["y", "2"], ["align", "ment"], ["mac", "ro"], ["evalu", "ation"], ["i", "contact"], ["proble", "ms"], ["down", "loaded"], ["p", "or"], ["per", "mit"], ["function", "al"], ["spl", "its"], ["re", "actions"], ["analy", "ze"], ["csr", "f"], ["no", "ise"], ["mon", "omial"], ["syn", "the"], ["deg", "ree"], ["face", "book"], ["di", "vision"], ["at", "ures"], ["observ", "ations"], ["le", "e"], ["th", "us"], ["craw", "l"], ["re", "ally"], ["me", "chan"], ["n", "y"], ["man", "ually"], ["i", "ed"], ["v", "pc"], ["enh", "ance"], ["d", "na"], ["w", "af"], ["retriev", "ed"], ["adj", "ac"], ["gest", "ure"], ["re", "action"], ["s", "port"], ["pe", "m"], ["ed", "m"], ["sample", "d"], ["ac", "ing"], ["re", "stri"], ["restri", "ction"], ["transform", "s"], ["append", "s"], ["sign", "ing"], ["lim", "its"], ["pre", "d"], ["av", "g"], ["produ", "cer"], ["gi", "ck"], ["ac", "ross"], ["fin", "e"], ["do", "ing"], ["fif", "o"], ["cas", "cade"], ["cat", "ing"], ["develo", "p"], ["iz", "ations"], ["np", "m"], ["comm", "erce"], ["asse", "mb"], ["le", "av"], ["estim", "ate"], ["text", "s"], ["uint", "16"], ["r", "am"], ["ator", "s"], ["anno", "unce"], ["n", "or"], ["di", "a"], ["represent", "ed"], ["y", "ml"], ["lo", "an"], ["g", "id"], ["spec", "ifies"], ["calib", "ration"], ["interrupt", "ed"], ["spl", "ash"], ["un", "st"], ["ro", "py"], ["c", "ry"], ["defin", "ing"], ["initiali", "zer"], ["vari", "ous"], ["deploy", "ed"], ["r", "r"], ["l", "hs"], ["x", "s"], ["y", "o"], ["infin", "ity"], ["arbit", "r"], ["mat", "ter"], ["un", "safe"], ["report", "ing"], ["j", "un"], ["skill", "s"], ["format", "ting"], ["touch", "es"], ["root", "s"], ["seed", "s"], ["one", "y"], ["n", "ice"], ["re", "pl"], ["oauth", "2"], ["down", "case"], ["dist", "in"], ["to", "t"], ["gi", "ves"], ["magnit", "ude"], ["detect", "or"], ["author", "ize"], ["parti", "cip"], ["g", "al"], ["is", "su"], ["sd", "p"], ["to", "ur"], ["al", "one"], ["oc", "c"], ["browser", "s"], ["yar", "pc"], ["at", "able"], ["f", "u"], ["un", "if"], ["commun", "ity"], ["spl", "ine"], ["k", "o"], ["web", "hook"], ["d", "p"], ["inf", "of"], ["gr", "ab"], ["radi", "ans"], ["trun", "cate"], ["v", "3"], ["supp", "lement"], ["m", "c"], ["inclu", "sive"], ["th", "ird"], ["cor", "rection"], ["poss", "ib"], ["width", "s"], ["u", "ation"], ["t", "ube"], ["err", "no"], ["m", "q"], ["an", "e"], ["pre", "p"], ["p", "to"], ["2", "8"], ["ci", "rc"], ["dis", "count"], ["cancel", "led"], ["test", "s"], ["all", "en"], ["b", "one"], ["call", "y"], ["4", "00"], ["display", "ed"], ["ce", "il"], ["continu", "ation"], ["mo", "ves"], ["ro", "om"], ["pro", "x"], ["sign", "atures"], ["foc", "used"], ["s", "ensitive"], ["phase", "d"], ["j", "d"], ["v", "v"], ["pe", "l"], ["observ", "able"], ["probab", "ly"], ["il", "la"], ["3", "8"], ["res", "id"], ["st", "ory"], ["equ", "ation"], ["port", "ion"], ["do", "s"], ["j", "i"], ["dy", "n"], ["counter", "s"], ["20", "15"], ["ov", "s"], ["place", "ment"], ["t", "1"], ["reject", "ed"], ["t", "z"], ["on", "ed"], ["per", "si"], ["ep", "iso"], ["depend", "s"], ["un", "register"], ["end", "er"], ["dash", "board"], ["mean", "ing"], ["do", "ck"], ["n", "v"], ["happ", "ens"], ["min", "ute"], ["feed", "back"], ["cach", "es"], ["int", "ensity"], ["se", "em"], ["compa", "red"], ["to", "ler"], ["capt", "cha"], ["cert", "key"], ["w", "x"], ["it", "ation"], ["determin", "ed"], ["i", "ally"], ["reg", "ard"], ["distin", "ct"], ["on", "to"], ["json", "rpc"], ["str", "conv"], ["fetch", "es"], ["s", "us"], ["e", "ff"], ["frag", "ments"], ["th", "ough"], ["artifact", "s"], ["mix", "in"], ["3", "7"], ["class", "ification"], ["multi", "part"], ["out", "file"], ["instr", "ument"], ["con", "vol"], ["af", "ka"], ["ser", "v"], ["execut", "ing"], ["measure", "ments"], ["alph", "ab"], ["run", "n"], ["appro", "x"], ["integr", "ation"], ["altern", "ative"], ["3", "4"], ["fin", "ite"], ["debug", "f"], ["a", "1"], ["cent", "ral"], ["valid", "ity"], ["av", "atar"], ["stop", "ping"], ["observ", "ation"], ["cor", "outine"], ["copy", "right"], ["iter", "ating"], ["free", "ze"], ["plan", "e"], ["co", "variance"], ["n", "ex"], ["un", "signed"], ["i", "pt"], ["k", "afka"], ["co", "don"], ["io", "error"], ["r", "2"], ["ident", "ical"], ["te", "le"], ["environ", "ments"], ["set", "ter"], ["com", "position"], ["ep", "g"], ["per", "io"], ["util", "ities"], ["stream", "ing"], ["imp", "licit"], ["m", "time"], ["construct", "s"], ["co", "res"], ["fail", "ures"], ["ma", "ge"], ["pa", "int"], ["en", "force"], ["f", "g"], ["sh", "ar"], ["interpol", "ation"], ["wh", "y"], ["h", "mac"], ["annot", "ated"], ["view", "port"], ["version", "ed"], ["pun", "ct"], ["scat", "ter"], ["co", "erce"], ["p", "ip"], ["t", "k"], ["d", "ag"], ["ab", "lish"], ["tre", "es"], ["z", "end"], ["friend", "ly"], ["life", "time"], ["cp", "u"], ["n", "sip"], ["5", "9"], ["gen", "es"], ["bread", "crumb"], ["tr", "ap"], ["l", "ing"], ["ac", "qu"], ["position", "al"], ["arbitr", "ary"], ["el", "li"], ["lo", "west"], ["us", "able"], ["ra", "vel"], ["ass", "um"], ["appoint", "ment"], ["r", "ms"], ["c", "1"], ["qu", "it"], ["synchron", "ize"], ["ac", "ces"], ["prefix", "ed"], ["m", "uch"], ["acl", "6"], ["pse", "u"], ["compo", "und"], ["ar", "i"], ["b", "j"], ["indi", "cating"], ["arg", "er"], ["ap", "is"], ["reser", "vation"], ["s", "mar"], ["str", "ong"], ["k", "g"], ["e", "1"], ["cal", "lee"], ["b", "io"], ["un", "shift"], ["work", "spaces"], ["de", "ci"], ["squ", "ared"], ["per", "ms"], ["sh", "op"], ["gr", "unt"], ["short", "cut"], ["compli", "ance"], ["pres", "sure"], ["scen", "ario"], ["d", "ensity"], ["re", "boot"], ["ph", "ys"], ["t", "f"], ["en", "coun"], ["encoun", "tered"], ["patch", "es"], ["ti", "po"], ["sub", "tree"], ["ho", "od"], ["veloc", "ity"], ["fa", "i"], ["mode", "s"], ["unif", "orm"], ["an", "o"], ["hy", "ph"], ["sm", "aller"], ["pseu", "do"], ["unders", "core"], ["so", "ap"], ["it", "ter"], ["est", "ablish"], ["token", "ize"], ["e", "ver"], ["form", "ul"], ["s", "en"], ["i", "mat"], ["to",
[...]
