{"token2id": {"<pad>": 0, "<sos>": 1, "<eos>": 2, "<unk>": 3, "\n": 4, "!": 5, "\"": 6, "#": 7, "$": 8, "%": 9, "&": 10, "'": 11, "(": 12, ")": 13, "*": 14, "+": 15, ",": 16, "-": 17, ".": 18, "/": 19, "0": 20, "1": 21, "2": 22, "3": 23, "4": 24, "5": 25, "6": 26, "7": 27, "8": 28, "9": 29, ":": 30, ";": 31, "<": 32, "=": 33, ">": 34, "?": 35, "@": 36, "[": 37, "\\": 38, "]": 39, "^": 40, "`": 41, "a": 42, "b": 43, "c": 44, "d": 45, "e": 46, "f": 47, "g": 48, "h": 49, "i": 50, "j": 51, "k": 52, "l": 53, "m": 54, "n": 55, "o": 56, "p": 57, "q": 58, "r": 59, "s": 60, "t": 61, "u": 62, "v": 63, "w": 64, "x": 65, "y": 66, "z": 67, "{": 68, "|": 69, "}": 70, "~": 71, "": 72, "£": 73, "¦": 74, "§": 75, "¨": 76, "©": 77, "¬": 78, "®": 79, "¯": 80, "°": 81, "±": 82, "´": 83, "·": 84, "¸": 85, "»": 86, "×": 87, "ि": 88, "ी": 89, "्": 90, "়": 91, "া": 92, "ী": 93, "ி": 94, "ั": 95, "ี": 96, "่": 97, "้": 98, "​": 99, "‍": 100, "‒": 101, "–": 102, "—": 103, "‘": 104, "’": 105, "‛": 106, "“": 107, "”": 108, "„": 109, "•": 110, "‣": 111, "…": 112, "⁔": 113, "€": 114, "™": 115, "←": 116, "↑": 117, "→": 118, "↔": 119, "↦": 120, "⇒": 121, "∀": 122, "∂": 123, "∈": 124, "−": 125, "≠": 126, "≤": 127, "≥": 128, "⌟": 129, "⏳": 130, "─": 131, "│": 132, "┌": 133, "┐": 134, "└": 135, "┘": 136, "├": 137, "┴": 138, "┼": 139, "═": 140, "║": 141, "╔": 142, "╗": 143, "╘": 144, "╚": 145, "╛": 146, "╝": 147, "╟": 148, "╠": 149, "╢": 150, "╣": 151, "╤": 152, "▀": 153, "▄": 154, "█": 155, "▒": 156, "▬": 157, "☺": 158, "♀": 159, "⚠": 160, "✊": 161, "✓": 162, "✔": 163, "✖": 164, "✗": 165, "✘": 166, "❤": 167, "⬆": 168, "⬇": 169, "⸨": 170, "⸩": 171, "、": 172, "。": 173, "「": 174, "」": 175, "": 176, "": 177, "️": 178, "（": 179, "）": 180, "，": 181, "：": 182, "；": 183, "？": 184, "�": 185, "🇪": 186, "🇸": 187, "🌈": 188, "🍳": 189, "🎉": 190, "🏳": 191, "🏾": 192, "👍": 193, "👮": 194, "📖": 195, "😁": 196, "😭": 197, "🚀": 198, "🛫": 199, "re": 200, "on": 201, "in": 202, "er": 203, "en": 204, "th": 205, "ti": 206, "st": 207, "co": 208, "se": 209, "de": 210, "at": 211, "tion": 212, "or": 213, "al": 214, "le": 215, "ar": 216, "me": 217, "ent": 218, "an": 219, "ur": 220, "un": 221, "ce": 222, "if": 223, "pe": 224, "ty": 225, "is": 226, "ge": 227, "the": 228, "ro": 229, "te": 230, "ction": 231, "ment": 232, "type": 233, "com": 234, "fi": 235, "ch": 236, "ue": 237, "ing": 238, "fun": 239, "con": 240, "to": 241, "res": 242, "lo": 243, "ame": 244, "ret": 245, "ate": 246, "li": 247, "as": 248, "id": 249, "function": 250, "urn": 251, "code": 252, "return": 253, "ct": 254, "ut": 255, "ad": 256, "val": 257, "get": 258, "ul": 259, "comment": 260, "ne": 261, "pa": 262, "name": 263, "for": 264, "el": 265, "tr": 266, "si": 267, "no": 268, "this": 269, "op": 270, "str": 271, "ter": 272, "ex": 273, "ap": 274, "il": 275, "par": 276, "err": 277, "set": 278, "end": 279, "pro": 280, "ke": 281, "of": 282, "di": 283, "and": 284, "value": 285, "ab": 286, "ation": 287, "am": 288, "up": 289, "ser": 290, "ri": 291, "ck": 292, "req": 293, "sel": 294, "new": 295, "ra": 296, "def": 297, "self": 298, "mo": 299, "ed": 300, "it": 301, "ma": 302, "es": 303, "ata": 304, "po": 305, "put": 306, "do": 307, "file": 308, "be": 309, "out": 310, "cl": 311, "ver": 312, "string": 313, "key": 314, "all": 315, "ob": 316, "path": 317, "data": 318, "ta": 319, "ss": 320, "ult": 321, "error": 322, "ub": 323, "int": 324, "our": 325, "vi": 326, "xt": 327, "ren": 328, "bu": 329, "ource": 330, "ect": 331, "var": 332, "um": 333, "able": 334, "list": 335, "obj": 336, "ve": 337, "fo": 338, "ca": 339, "log": 340, "uest": 341, "request": 342, "ass": 343, "len": 344, "per": 345, "option": 346, "ull": 347, "mp": 348, "la": 349, "lic": 350, "he": 351, "bo": 352, "col": 353, "ers": 354, "add": 355, "wi": 356, "param": 357, "mat": 358, "text": 359, "not": 360, "resource": 361, "else": 362, "qu": 363, "ol": 364, "pon": 365, "result": 366, "ray": 367, "sion": 368, "array": 369, "sh": 370, "with": 371, "age": 372, "sc": 373, "by": 374, "arg": 375, "date": 376, "ba": 377, "ic": 378, "nil": 379, "null": 380, "node": 381, "app": 382, "one": 383, "cu": 384, "ht": 385, "input": 386, "object": 387, "time": 388, "valid": 389, "che": 390, "lin": 391, "use": 392, "pre": 393, "ption": 394, "eld": 395, "class": 396, "respon": 397, "options": 398, "row": 399, "ance": 400, "ts": 401, "cre": 402, "confi": 403, "cont": 404, "fro": 405, "config": 406, "fa": 407, "from": 408, "call": 409, "rent": 410, "inst": 411, "exce": 412, "field": 413, "ted": 414, "response": 415, "gi": 416, "cur": 417, "inde": 418, "ple": 419, "pub": 420, "index": 421, "fe": 422, "ig": 423, "ly": 424, "us": 425, "true": 426, "ite": 427, "sto": 428, "ind": 429, "ze": 430, "public": 431, "head": 432, "ort": 433, "read": 434, "attr": 435, "wor": 436, "ms": 437, "create": 438, "vent": 439, "ac": 440, "wh": 441, "fal": 442, "exception": 443, "vice": 444, "false": 445, "red": 446, "that": 447, "gth": 448, "mode": 449, "ild": 450, "length": 451, "od": 452, "url": 453, "cor": 454, "we": 455, "map": 456, "so": 457, "has": 458, "gro": 459, "instance": 460, "ele": 461, "tic": 462, "user": 463, "context": 464, "meth": 465, "output": 466, "num": 467, "update": 468, "rect": 469, "ip": 470, "ger": 471, "func": 472, "und": 473, "coun": 474, "method": 475, "params": 476, "scri": 477, "ange": 478, "group": 479, "sub": 480, "star": 481, "sy": 482, "min": 483, "service": 484, "cal": 485, "cess": 486, "au": 487, "element": 488, "spe": 489, "event": 490, "info": 491, "none": 492, "mess": 493, "inter": 494, "line": 495, "comple": 496, "proper": 497, "ault": 498, "fil": 499, "message": 500, "back": 501, "ameter": 502, "tes": 503, "enti": 504, "parameter": 505, "rep": 506, "args": 507, "ory": 508, "model": 509, "tok": 510, "ule": 511, "state": 512, "load": 513, "tag": 514, "sta": 515, "cli": 516, "default": 517, "token": 518, "rea": 519, "hand": 520, "case": 521, "format": 522, "js": 523, "ibu": 524, "der": 525, "match": 526, "ans": 527, "start": 528, "ise": 529, "size": 530, "throw": 531, "ven": 532, "ure": 533, "comm": 534, "ator": 535, "dif": 536, "exp": 537, "ali": 538, "logic": 539, "check": 540, "quer": 541, "attribu": 542, "tp": 543, "tain": 544, "ho": 545, "content": 546, "low": 547, "wri": 548, "resources": 549, "stat": 550, "form": 551, "count": 552, "pt": 553, "complex": 554, "query": 555, "headers": 556, "current": 557, "spec": 558, "tra": 559, "stom": 560, "ber": 561, "custom": 562, "lock": 563, "contain": 564, "sp": 565, "given": 566, "sig": 567, "client": 568, "dition": 569, "ler": 570, "base": 571, "dele": 572, "filter": 573, "http": 574, "are": 575, "vari": 576, "wn": 577, "lection": 578, "ener": 579, "descri": 580, "ste": 581, "max": 582, "returns": 583, "item": 584, "version": 585, "json": 586, "remo": 587, "api": 588, "temp": 589, "ml": 590, "ded": 591, "ses": 592, "table": 593, "page": 594, "trans": 595, "oper": 596, "ui": 597, "ok": 598, "atch": 599, "whi": 600, "ry": 601, "values": 602, "work": 603, "pri": 604, "dir": 605, "fin": 606, "tar": 607, "invalid": 608, "run": 609, "ary": 610, "property": 611, "point": 612, "ist": 613, "conne": 614, "build": 615, "variable": 616, "py": 617, "clu": 618, "ds": 619, "dep": 620, "raise": 621, "target": 622, "next": 623, "defin": 624, "sign": 625, "ot": 626, "ill": 627, "ument": 628, "cted": 629, "lay": 630, "parse": 631, "ff": 632, "names": 633, "dis": 634, "action": 635, "ces": 636, "try": 637, "source": 638, "argument": 639, "ask": 640, "pi": 641, "gr": 642, "ea": 643, "static": 644, "colum": 645, "fix": 646, "column": 647, "ject": 648, "append": 649, "ther": 650, "stre": 651, "man": 652, "gin": 653, "auth": 654, "im": 655, "collection": 656, "late": 657, "each": 658, "00": 659, "server": 660, "stream": 661, "delete": 662, "number": 663, "parameters": 664, "mod": 665, "range": 666, "av": 667, "ref": 668, "rol": 669, "status": 670, "condition": 671, "pr": 672, "tive": 673, "parent": 674, "can": 675, "gener": 676, "char": 677, "child": 678, "dy": 679, "posi": 680, "block": 681, "pu": 682, "const": 683, "off": 684, "lan": 685, "specif": 686, "cause": 687, "feren": 688, "exist": 689, "write": 690, "operation": 691, "only": 692, "uld": 693, "find": 694, "vie": 695, "send": 696, "fir": 697, "lab": 698, "ci": 699, "command": 700, "view": 701, "ave": 702, "regi": 703, "lect": 704, "direct": 705, "emp": 706, "correct": 707, "cho": 708, "requi": 709, "attribute": 710, "first": 711, "cle": 712, "clo": 713, "ster": 714, "ext": 715, "come": 716, "local": 717, "empty": 718, "process": 719, "ima": 720, "because": 721, "lace": 722, "til": 723, "arch": 724, "items": 725, "label": 726, "ations": 727, "exe": 728, "ress": 729, "hash": 730, "diff": 731, "image": 732, "cache": 733, "ied": 734, "wid": 735, "module": 736, "will": 737, "pos": 738, "ting": 739, "change": 740, "port": 741, "net": 742, "mit": 743, "outcome": 744, "ks": 745, "qual": 746, "entity": 747, "led": 748, "loc": 749, "referen": 750, "ori": 751, "ated": 752, "word": 753, "db": 754, "final": 755, "wa": 756, "bind": 757, "brea": 758, "last": 759, "body": 760, "uct": 761, "loop": 762, "imp": 763, "sup": 764, "break": 765, "vo": 766, "entry": 767, "uration": 768, "keys": 769, "handler": 770, "remove": 771, "iter": 772, "callback": 773, "vel": 774, "logger": 775, "errors": 776, "sho": 777, "ose": 778, "nc": 779, "ph": 780, "pl": 781, "ps": 782, "que": 783, "su": 784, "offset": 785, "sing": 786, "ties": 787, "connection": 788, "jo": 789, "pace": 790, "pass": 791, "cke": 792, "bug": 793, "ust": 794, "task": 795, "files": 796, "fail": 797, "tern": 798, "act": 799, "ag": 800, "opts": 801, "down": 802, "ase": 803, "docu": 804, "print": 805, "control": 806, "ures": 807, "document": 808, "mar": 809, "main": 810, "root": 811, "template": 812, "ree": 813, "debug": 814, "host": 815, "br": 816, "polic": 817, "its": 818, "rule": 819, "np": 820, "replace": 821, "io": 822, "post": 823, "full": 824, "met": 825, "fields": 826, "join": 827, "choose": 828, "found": 829, "rou": 830, "depend": 831, "reference": 832, "sty": 833, "doc": 834, "ight": 835, "dict": 836, "which": 837, "differs": 838, "util": 839, "sets": 840, "caller": 841, "prefix": 842, "uri": 843, "search": 844, "policy": 845, "da": 846, "when": 847, "header": 848, "whe": 849, "width": 850, "mis": 851, "vis": 852, "level": 853, "sco": 854, "sed": 855, "ron": 856, "fact": 857, "vate": 858, "war": 859, "position": 860, "less": 861, "select": 862, "cate": 863, "recor": 864, "face": 865, "execu": 866, "ws": 867, "session": 868, "os": 869, "spli": 870, "binding": 871, "open": 872, "results": 873, "ves": 874, "order": 875, "wal": 876, "other": 877, "private": 878, "resol": 879, "html": 880, "fol": 881, "filen": 882, "ctx": 883, "any": 884, "mer": 885, "link": 886, "store": 887, "validate": 888, "old": 889, "ies": 890, "metad": 891, "filename": 892, "raw": 893, "attributes": 894, "af": 895, "asy": 896, "dat": 897, "metadata": 898, "ify": 899, "mem": 900, "timeout": 901, "go": 902, "stem": 903, "style": 904, "configuration": 905, "tit": 906, "defined": 907, "fore": 908, "setting": 909, "specified": 910, "ole": 911, "ning": 912, "md": 913, "directory": 914, "conver": 915, "ding": 916, "ir": 917, "pat": 918, "buff": 919, "ension": 920, "xml": 921, "inclu": 922, "container": 923, "top": 924, "while": 925, "make": 926, "lang": 927, "tch": 928, "struct": 929, "access": 930, "flo": 931, "iti": 932, "ence": 933, "ble": 934, "describe": 935, "tree": 936, "cket": 937, "arguments": 938, "ant": 939, "termin": 940, "sha": 941, "push": 942, "mul": 943, "system": 944, "exists": 945, "sr": 946, "let": 947, "but": 948, "ponent": 949, "boole": 950, "buffer": 951, "msg": 952, "split": 953, "project": 954, "lat": 955, "used": 956, "required": 957, "cy": 958, "ries": 959, "boolean": 960, "pattern": 961, "reach": 962, "types": 963, "handle": 964, "lob": 965, "aliz": 966, "into": 967, "ample": 968, "lication": 969, "sum": 970, "fetch": 971, "generate": 972, "ll": 973, "sche": 974, "properties": 975, "unless": 976, "async": 977, "wo": 978, "rece": 979, "ved": 980, "component": 981, "ager": 982, "vid": 983, "ong": 984, "inte": 985, "ids": 986, "nel": 987, "address": 988, "win": 989, "manager": 990, "clear": 991, "float": 992, "recei": 993, "medi": 994, "cer": 995, "orig": 996, "ard": 997, "should": 998, "ght": 999, "interface": 1000, "have": 1001, "hel": 1002, "ns": 1003, "walks": 1004, "contin": 1005, "entries": 1006, "fr": 1007, "throws": 1008, "ft": 1009, "color": 1010, "pack": 1011, "tags": 1012, "job": 1013, "ash": 1014, "identi": 1015, "ual": 1016, "mon": 1017, "initi": 1018, "then": 1019, "foreach": 1020, "allow": 1021, "fn": 1022, "wr": 1023, "copy": 1024, "equal": 1025, "chan": 1026, "sym": 1027, "ava": 1028, "scope": 1029, "byte": 1030, "must": 1031, "multi": 1032, "title": 1033, "resent": 1034, "uni": 1035, "sert": 1036, "description": 1037, "ine": 1038, "ression": 1039, "sq": 1040, "orm": 1041, "bool": 1042, "over": 1043, "kw": 1044, "before": 1045, "visi": 1046, "reg": 1047, "void": 1048, "sk": 1049, "scal": 1050, "record": 1051, "rel": 1052, "close": 1053, "catch": 1054, "utils": 1055, "application": 1056, "stack": 1057, "location": 1058, "orted": 1059, "using": 1060, "ments": 1061, "failures": 1062, "builder": 1063, "determin": 1064, "prevent": 1065, "identifi": 1066, "queue": 1067, "ature": 1068, "dest": 1069, "frame": 1070, "grap": 1071, "height": 1072, "meta": 1073, "unk": 1074, "wrap": 1075, "cr": 1076, "continue": 1077, "provid": 1078, "windo": 1079, "glob": 1080, "merge": 1081, "om": 1082, "alize": 1083, "auto": 1084, "graph": 1085, "network": 1086, "controller": 1087, "include": 1088, "route": 1089, "pay": 1090, "igno": 1091, "aws": 1092, "annot": 1093, "settings": 1094, "ep": 1095, "left": 1096, "play": 1097, "ker": 1098, "ax": 1099, "mt": 1100, "modif": 1101, "kwargs": 1102, "dit": 1103, "extension": 1104, "mi": 1105, "part": 1106, "stop": 1107, "day": 1108, "apply": 1109, "bin": 1110, "plu": 1111, "same": 1112, "extra": 1113, "et": 1114, "after": 1115, "bytes": 1116, "pare": 1117, "olu": 1118, "gra": 1119, "prote": 1120, "elements": 1121, "device": 1122, "norm": 1123, "expression": 1124, "elif": 1125, "where": 1126, "wait": 1127, "lag": 1128, "uble": 1129, "idx": 1130, "origin": 1131, "expe": 1132, "ish": 1133, "10": 1134, "nodes": 1135, "double": 1136, "signal": 1137, "integer": 1138, "plugin": 1139, "ear": 1140, "proto": 1141, "enable": 1142, "anch": 1143, "64": 1144, "stor": 1145, "endpoint": 1146, "ready": 1147, "sw": 1148, "ally": 1149, "schema": 1150, "datab": 1151, "na": 1152, "limit": 1153, "supp": 1154, "seri": 1155, "uage": 1156, "box": 1157, "role": 1158, "cri": 1159, "sort": 1160, "language": 1161, "non": 1162, "asso": 1163, "lity": 1164, "trace": 1165, "isset": 1166, "channel": 1167, "namespace": 1168, "indi": 1169, "src": 1170, "except": 1171, "prod": 1172, "objects": 1173, "domain": 1174, "import": 1175, "database": 1176, "parser": 1177, "ous": 1178, "flag": 1179, "proce": 1180, "begin": 1181, "space": 1182, "site": 1183, "does": 1184, "ition": 1185, "pop": 1186, "test": 1187, "envi": 1188, "right": 1189, "protected": 1190, "tach": 1191, "mail": 1192, "provider": 1193, "environ": 1194, "iz": 1195, "identifier": 1196, "math": 1197, "mise": 1198, "addition": 1199, "lines": 1200, "tifi": 1201, "save": 1202, "undefined": 1203, "calc": 1204, "global": 1205, "events": 1206, "window": 1207, "active": 1208, "promise": 1209, "register": 1210, "children": 1211, "ped": 1212, "encode": 1213, "helper": 1214, "bound": 1215, "definition": 1216, "ors": 1217, "alias": 1218, "ignore": 1219, "tal": 1220, "sequ": 1221, "tail": 1222, "thing": 1223, "associ": 1224, "cs": 1225, "abs": 1226, "enco": 1227, "long": 1228, "see": 1229, "package": 1230, "columns": 1231, "env": 1232, "cluster": 1233, "ou": 1234, "tmp": 1235, "sin": 1236, "now": 1237, "branch": 1238, "password": 1239, "need": 1240, "fully": 1241, "factory": 1242, "mission": 1243, "ide": 1244, "rt": 1245, "script": 1246, "ity": 1247, "web": 1248, "fai": 1249, "gex": 1250, "uid": 1251, "profile": 1252, "regex": 1253, "look": 1254, "patch": 1255, "seg": 1256, "og": 1257, "ates": 1258, "convert": 1259, "instanceof": 1260, "comp": 1261, "dist": 1262, "resolve": 1263, "was": 1264, "way": 1265, "equals": 1266, "cat": 1267, "avail": 1268, "single": 1269, "edit": 1270, "isol": 1271, "sample": 1272, "compu": 1273, "represent": 1274, "core": 1275, "cent": 1276, "secon": 1277, "bund": 1278, "pool": 1279, "bol": 1280, "transform": 1281, "isinstance": 1282, "med": 1283, "ia": 1284, "contains": 1285, "shape": 1286, "proceed": 1287, "sure": 1288, "resh": 1289, "provi": 1290, "failed": 1291, "matches": 1292, "emit": 1293, "sec": 1294, "creates": 1295, "sql": 1296, "ility": 1297, "ifying": 1298, "storage": 1299, "attach": 1300, "already": 1301, "total": 1302, "lu": 1303, "calcul": 1304, "bundle": 1305, "section": 1306, "isolate": 1307, "reject": 1308, "expected": 1309, "payload": 1310, "render": 1311, "lower": 1312, "like": 1313, "qualifying": 1314, "ord": 1315, "parti": 1316, "there": 1317, "writer": 1318, "own": 1319, "sli": 1320, "member": 1321, "init": 1322, "buf": 1323, "account": 1324, "statement": 1325, "listener": 1326, "lot": 1327, "ov": 1328, "suc": 1329, "follow": 1330, "decl": 1331, "stats": 1332, "typeof": 1333, "df": 1334, "categ": 1335, "connect": 1336, "optional": 1337, "zer": 1338, "parts": 1339, "scale": 1340, "prop": 1341, "locale": 1342, "itch": 1343, "nb": 1344, "lib": 1345, "strings": 1346, "detail": 1347, "permission": 1348, "edge": 1349, "would": 1350, "available": 1351, "syn": 1352, "ked": 1353, "environment": 1354, "sa": 1355, "yi": 1356, "relation": 1357, "cap": 1358, "very": 1359, "nit": 1360, "symbol": 1361, "email": 1362, "cell": 1363, "ner": 1364, "roll": 1365, "batch": 1366, "ang": 1367, "specific": 1368, "charact": 1369, "encoding": 1370, "xy": 1371, "paths": 1372, "skip": 1373, "ten": 1374, "ched": 1375, "amp": 1376, "mask": 1377, "tokens": 1378, "assign": 1379, "apping": 1380, "ain": 1381, "descript": 1382, "construct": 1383, "cf": 1384, "reader": 1385, "sn": 1386, "dependen": 1387, "ife": 1388, "you": 1389, "grace": 1390, "report": 1391, "warning": 1392, "step": 1393, "unit": 1394, "pipe": 1395, "matri": 1396, "tup": 1397, "receives": 1398, "intern": 1399, "gets": 1400, "execute": 1401, "thread": 1402, "switch": 1403, "mary": 1404, "criter": 1405, "hol": 1406, "gracefully": 1407, "ging": 1408, "original": 1409, "chunk": 1410, "sequence": 1411, "prepare": 1412, "rules": 1413, "entic": 1414, "product": 1415, "success": 1416, "retri": 1417, "pair": 1418, "iterator": 1419, "constr": 1420, "points": 1421, "orts": 1422, "arr": 1423, "mach": 1424, "separ": 1425, "rows": 1426, "side": 1427, "gen": 1428, "dataset": 1429, "based": 1430, "sist": 1431, "simp": 1432, "kind": 1433, "commit": 1434, "rand": 1435, "ular": 1436, "nitro": 1437, "inform": 1438, "spect": 1439, "sent": 1440, "matrix": 1441, "retrie": 1442, "contents": 1443, "decode": 1444, "overr": 1445, "gh": 1446, "tuple": 1447, "men": 1448, "pas": 1449, "flow": 1450, "groups": 1451, "32": 1452, "opt": 1453, "note": 1454, "disable": 1455, "yield": 1456, "nown": 1457, "pix": 1458, "admin": 1459, "secret": 1460, "intf": 1461, "descriptor": 1462, "downstream": 1463, "criteria": 1464, "mapping": 1465, "ffect": 1466, "eded": 1467, "extract": 1468, "fmt": 1469, "authentic": 1470, "mark": 1471, "css": 1472, "clas": 1473, "strip": 1474, "annotation": 1475, "show": 1476, "rout": 1477, "del": 1478, "dr": 1479, "just": 1480, "addresources": 1481, "slice": 1482, "layer": 1483, "formed": 1484, "more": 1485, "don": 1486, "als": 1487, "socket": 1488, "bit": 1489, "information": 1490, "remote": 1491, "steps": 1492, "igh": 1493, "interval": 1494, "feature": 1495, "pages": 1496, "missing": 1497, "posit": 1498, "enum": 1499, "cmd": 1500, "100": 1501, "php": 1502, "done": 1503, "diction": 1504, "messages": 1505, "insert": 1506, "sync": 1507, "internal": 1508, "force": 1509, "vect": 1510, "anal": 1511, "track": 1512, "alized": 1513, "reposit": 1514, "12": 1515, "dom": 1516, "methods": 1517, "bas": 1518, "lected": 1519, "bar": 1520, "dim": 1521, "compute": 1522, "den": 1523, "ier": 1524, "extend": 1525, "ie": 1526, "acti": 1527, "ud": 1528, "than": 1529, "vision": 1530, "parsed": 1531, "bers": 1532, "els": 1533, "enabled": 1534, "category": 1535, "transaction": 1536, "running": 1537, "provided": 1538, "authori": 1539, "vious": 1540, "added": 1541, "acce": 1542, "calend": 1543, "require": 1544, "mal": 1545, "spr": 1546, "cls": 1547, "fs": 1548, "folder": 1549, "protocol": 1550, "mediate": 1551, "exec": 1552, "analy": 1553, "display": 1554, "classes": 1555, "additional": 1556, "ants": 1557, "aint": 1558, "metr": 1559, "calendar": 1560, "20": 1561, "constraint": 1562, "override": 1563, "previous": 1564, "some": 1565, "needed": 1566, "existing": 1567, "determines": 1568, "dire": 1569, "assert": 1570, "machine": 1571, "crash": 1572, "registr": 1573, "counter": 1574, "pn": 1575, "pan": 1576, "lish": 1577, "later": 1578, "whether": 1579, "menu": 1580, "clean": 1581, "bet": 1582, "proxy": 1583, "sor": 1584, "subscri": 1585, "dec": 1586, "hook": 1587, "ln": 1588, "esca": 1589, "cfg": 1590, "alog": 1591, "stamp": 1592, "ating": 1593, "dri": 1594, "volu": 1595, "zip": 1596, "ast": 1597, "dum": 1598, "trim": 1599, "sprintf": 1600, "words": 1601, "month": 1602, "duration": 1603, "selector": 1604, "may": 1605, "oc": 1606, "trig": 1607, "cook": 1608, "greg": 1609, "mb": 1610, "ssl": 1611, "props": 1612, "called": 1613, "simple": 1614, "selected": 1615, "term": 1616, "org": 1617, "agent": 1618, "runtime": 1619, "year": 1620, "layout": 1621, "spa": 1622, "scan": 1623, "been": 1624, "username": 1625, "ign": 1626, "repository": 1627, "prev": 1628, "rest": 1629, "stores": 1630, "sole": 1631, "two": 1632, "ift": 1633, "executes": 1634, "backup": 1635, "region": 1636, "validation": 1637, "series": 1638, "resp": 1639, "changed": 1640, "ability": 1641, "wrapper": 1642, "reset": 1643, "aded": 1644, "passed": 1645, "ton": 1646, "conf": 1647, "exclu": 1648, "sv": 1649, "bro": 1650, "declar": 1651, "real": 1652, "16": 1653, "my": 1654, "rag": 1655, "cannot": 1656, "created": 1657, "filters": 1658, "supported": 1659, "cip": 1660, "vector": 1661, "leg": 1662, "loaded": 1663, "sible": 1664, "bot": 1665, "uint": 1666, "inspect": 1667, "super": 1668, "ferent": 1669, "defer": 1670, "example": 1671, "handl": 1672, "segment": 1673, "ories": 1674, "cp": 1675, "git": 1676, "tab": 1677, "bl": 1678, "volume": 1679, "listen": 1680, "since": 1681, "editor": 1682, "they": 1683, "metric": 1684, "hy": 1685, "verse": 1686, "upload": 1687, "processing": 1688, "axis": 1689, "common": 1690, "amb": 1691, "console": 1692, "conn": 1693, "coord": 1694, "indent": 1695, "export": 1696, "unset": 1697, "mock": 1698, "transl": 1699, "media": 1700, "depth": 1701, "wise": 1702, "thon": 1703, "cb": 1704, "ial": 1705, "rad": 1706, "flags": 1707, "uuid": 1708, "random": 1709, "button": 1710, "different": 1711, "determine": 1712, "tered": 1713, "aggreg": 1714, "driver": 1715, "details": 1716, "gram": 1717, "timestamp": 1718, "denti": 1719, "pend": 1720, "book": 1721, "imple": 1722, "pc": 1723, "defaults": 1724, "checks": 1725, "prog": 1726, "cla": 1727, "distance": 1728, "ned": 1729, "generates": 1730, "tl": 1731, "updateresources": 1732, "unt": 1733, "virt": 1734, "rele": 1735, "scroll": 1736, "multiple": 1737, "recur": 1738, "eval": 1739, "watch": 1740, "take": 1741, "rop": 1742, "topic": 1743, "desc": 1744, "aa": 1745, "place": 1746, "car": 1747, "icon": 1748, "fy": 1749, "install": 1750, "ween": 1751, "affect": 1752, "collect": 1753, "virtual": 1754, "tool": 1755, "between": 1756, "could": 1757, "tran": 1758, "quo": 1759, "zone": 1760, "sl": 1761, "variables": 1762, "imum": 1763, "dictionary": 1764, "25": 1765, "coll": 1766, "card": 1767, "starts": 1768, "labels": 1769, "updateresource": 1770, "her": 1771, "changes": 1772, "pk": 1773, "ni": 1774, "persist": 1775, "div": 1776, "logging": 1777, "cation": 1778, "lookup": 1779, "packet": 1780, "bean": 1781, "support": 1782, "manage": 1783, "instances": 1784, "python": 1785, "img": 1786, "rela": 1787, "initial": 1788, "brow": 1789, "move": 1790, "qui": 1791, "tions": 1792, "geo": 1793, "models": 1794, "without": 1795, "signature": 1796, "dn": 1797, "deli": 1798, "slot": 1799, "constructor": 1800, "affecting": 1801, "generator": 1802, "identity": 1803, "certifi": 1804, "selection": 1805, "attemp": 1806, "redirect": 1807, "certificate": 1808, "std": 1809, "curren": 1810, "intermediate": 1811, "engin": 1812, "gest": 1813, "validator": 1814, "early": 1815, "cursor": 1816, "separator": 1817, "shift": 1818, "arti": 1819, "adding": 1820, "cms": 1821, "allowed": 1822, "complete": 1823, "seq": 1824, "malformed": 1825, "actual": 1826, "feat": 1827, "widget": 1828, "short": 1829, "peri": 1830, "unique": 1831, "span": 1832, "download": 1833, "relative": 1834, "99": 1835, "compa": 1836, "credenti": 1837, "weight": 1838, "character": 1839, "attrs": 1840, "destin": 1841, "iss": 1842, "them": 1843, "notifi": 1844, "filtered": 1845, "stri": 1846, "escape": 1847, "modules": 1848, "ize": 1849, "utf": 1850, "todo": 1851, "progress": 1852, "cn": 1853, "second": 1854, "representing": 1855, "hist": 1856, "tex": 1857, "flu": 1858, "zz": 1859, "chain": 1860, "life": 1861, "unknown": 1862, "worker": 1863, "modified": 1864, "sive": 1865, "gre": 1866, "mid": 1867, "requests": 1868, "stand": 1869, "cance": 1870, "perform": 1871, "18": 1872, "cry": 1873, "updates": 1874, "addr": 1875, "elem": 1876, "requires": 1877, "engine": 1878, "returned": 1879, "here": 1880, "fill": 1881, "rough": 1882, "binary": 1883, "issue": 1884, "nest": 1885, "rate": 1886, "adds": 1887, "browser": 1888, "gate": 1889, "lated": 1890, "sorted": 1891, "zero": 1892, "ld": 1893, "flat": 1894, "destination": 1895, "compar": 1896, "holds": 1897, "upper": 1898, "bits": 1899, "decor": 1900, "authoriz": 1901, "ensure": 1902, "angle": 1903, "warn": 1904, "trigger": 1905, "seconds": 1906, "loy": 1907, "amo": 1908, "handlers": 1909, "substr": 1910, "compi": 1911, "dete": 1912, "dup": 1913, "tax": 1914, "priori": 1915, "implement": 1916, "serialize": 1917, "pointer": 1918, "errorf": 1919, "ctr": 1920, "secur": 1921, "mx": 1922, "compare": 1923, "also": 1924, "login": 1925, "absolu": 1926, "oid": 1927, "invo": 1928, "high": 1929, "authentication": 1930, "sap": 1931, "addresource": 1932, "security": 1933, "ga": 1934, "owner": 1935, "otherwise": 1936, "plat": 1937, "absolute": 1938, "area": 1939, "depends": 1940, "dependency": 1941, "ured": 1942, "pipeline": 1943, "suf": 1944, "marsh": 1945, "clone": 1946, "exit": 1947, "actions": 1948, "chron": 1949, "finish": 1950, "through": 1951, "setup": 1952, "fer": 1953, "operator": 1954, "safe": 1955, "lex": 1956, "cue": 1957, "visible": 1958, "java": 1959, "vity": 1960, "adap": 1961, "primary": 1962, "mut": 1963, "cies": 1964, "cus": 1965, "publish": 1966, "ha": 1967, "declaration": 1968, "tx": 1969, "ek": 1970, "registry": 1971, "uch": 1972, "score": 1973, "fon": 1974, "present": 1975, "asset": 1976, "deploy": 1977, "follows": 1978, "bounds": 1979, "coordin": 1980, "references": 1981, "sys": 1982, "priority": 1983, "white": 1984, "prec": 1985, "indices": 1986, "dispatch": 1987, "fit": 1988, "numer": 1989, "ell": 1990, "pho": 1991, "until": 1992, "cloud": 1993, "transport": 1994, "dtype": 1995, "accept": 1996, "zon": 1997, "constants": 1998, "libr": 1999, "reser": 2000, "refresh": 2001, "grid": 2002, "artifact": 2003, "dimension": 2004, "bi": 2005, "direction": 2006, "marshal": 2007, "cancel": 2008, "https": 2009, "alt": 2010, "itor": 2011, "cookie": 2012, "uce": 2013, "lode": 2014, "retrieve": 2015, "velo": 2016, "forms": 2017, "ground": 2018, "legal": 2019, "capt": 2020, "dump": 2021, "aml": 2022, "delta": 2023, "expi": 2024, "suffix": 2025, "round": 2026, "every": 2027, "bs": 2028, "platform": 2029, "commands": 2030, "cert": 2031, "uses": 2032, "release": 2033, "partition": 2034, "lamb": 2035, "verify": 2036, "expand": 2037, "extern": 2038, "noti": 2039, "containing": 2040, "nd": 2041, "times": 2042, "nested": 2043, "cd": 2044, "hex": 2045, "cached": 2046, "structure": 2047, "println": 2048, "records": 2049, "ither": 2050, "ping": 2051, "td": 2052, "how": 2053, "retry": 2054, "possible": 2055, "repo": 2056, "calculate": 2057, "components": 2058, "vide": 2059, "lists": 2060, "pending": 2061, "lambda": 2062, "services": 2063, "rescue": 2064, "ason": 2065, "rot": 2066, "unicode": 2067, "elseif": 2068, "define": 2069, "concat": 2070, "proces": 2071, "calls": 2072, "cast": 2073, "illegal": 2074, "ww": 2075, "des": 2076, "loader": 2077, "photo": 2078, "60": 2079, "matching": 2080, "enumer": 2081, "ized": 2082, "users": 2083, "ioexception": 2084, "thresh": 2085, "keep": 2086, "inner": 2087, "archi": 2088, "obser": 2089, "snap": 2090, "ion": 2091, "transi": 2092, "cked": 2093, "verbo": 2094, "vpn": 2095, "provision": 2096, "amount": 2097, "frag": 2098, "comments": 2099, "subscription": 2100, "period": 2101, "dns": 2102, "mime": 2103, "acl": 2104, "features": 2105, "sb": 2106, "drop": 2107, "either": 2108, "delay": 2109, "cand": 2110, "closed": 2111, "draw": 2112, "paren": 2113, "je": 2114, "11": 2115, "vserver": 2116, "tics": 2117, "anti": 2118, "alph": 2119, "under": 2120, "within": 2121, "listeners": 2122, "wer": 2123, "sen": 2124, "sched": 2125, "tasks": 2126, "datetime": 2127, "idden": 2128, "updated": 2129, "httpmethod": 2130, "related": 2131, "basic": 2132, "ipv": 2133, "broker": 2134, "subject": 2135, "fire": 2136, "ticle": 2137, "external": 2138, "dot": 2139, "ward": 2140, "theme": 2141, "ways": 2142, "rm": 2143, "sm": 2144, "background": 2145, "ful": 2146, "40": 2147, "cker": 2148, "rg": 2149, "peer": 2150, "registe": 2151, "ving": 2152, "mean": 2153, "association": 2154, "links": 2155, "named": 2156, "ater": 2157, "plan": 2158, "responses": 2159, "substring": 2160, "audi": 2161, "encry": 2162, "cycle": 2163, "ctrl": 2164, "memory": 2165, "httppath": 2166, "chars": 2167, "dependencies": 2168, "alg": 2169, "permissions": 2170, "about": 2171, "tom": 2172, "registered": 2173, "execution": 2174, "reverse": 2175, "click": 2176, "author": 2177, "vars": 2178, "activity": 2179, "serializ": 2180, "evalu": 2181, "ware": 2182, "pixel": 2183, "incre": 2184, "history": 2185, "images": 2186, "candid": 2187, "radi": 2188, "members": 2189, "200": 2190, "master": 2191, "mu": 2192, "factor": 2193, "normalize": 2194, "reco": 2195, "numeric": 2196, "extensions": 2197, "arrays": 2198, "exceptions": 2199, "callable": 2200, "lon": 2201, "inten": 2202, "signed": 2203, "padding": 2204, "versions": 2205, "summary": 2206, "many": 2207, "font": 2208, "removed": 2209, "tri": 2210, "usage": 2211, "preg": 2212, "bad": 2213, "ude": 2214, "tis": 2215, "standard": 2216, "dout": 2217, "repe": 2218, "ename": 2219, "timer": 2220, "she": 2221, "doesn": 2222, "adapter": 2223, "ctive": 2224, "failure": 2225, "pid": 2226, "credentials": 2227, "elsif": 2228, "counts": 2229, "raises": 2230, "sav": 2231, "numpy": 2232, "best": 2233, "liter": 2234, "rer": 2235, "strict": 2236, "hint": 2237, "15": 2238, "mac": 2239, "respond": 2240, "heal": 2241, "lb": 2242, "functions": 2243, "ship": 2244, "hit": 2245, "associated": 2246, "fl": 2247, "verbose": 2248, "stdout": 2249, "lied": 2250, "flush": 2251, "initialize": 2252, "pagin": 2253, "attachment": 2254, "exclude": 2255, "boot": 2256, "characters": 2257, "astic": 2258, "abu": 2259, "touch": 2260, "aggregate": 2261, "units": 2262, "partial": 2263, "synchron": 2264, "bucket": 2265, "want": 2266, "plot": 2267, "maximum": 2268, "puts": 2269, "library": 2270, "hydr": 2271, "rende": 2272, "tical": 2273, "vm": 2274, "restore": 2275, "shot": 2276, "spaces": 2277, "once": 2278, "special": 2279, "reason": 2280, "bra": 2281, "unmarshal": 2282, "catalog": 2283, "fall": 2284, "bility": 2285, "article": 2286, "configured": 2287, "roy": 2288, "ient": 2289, "cc": 2290, "v1": 2291, "dt": 2292, "execut": 2293, "destroy": 2294, "href": 2295, "ization": 2296, "country": 2297, "appro": 2298, "rc": 2299, "dle": 2300, "ead": 2301, "always": 2302, "elastic": 2303, "compile": 2304, "ases": 2305, "rec": 2306, "ends": 2307, "iterable": 2308, "translation": 2309, "conditions": 2310, "threshold": 2311, "city": 2312, "deleted": 2313, "did": 2314, "modify": 2315, "their": 2316, "plugins": 2317, "instead": 2318, "formatter": 2319, "pts": 2320, "requested": 2321, "ops": 2322, "dialog": 2323, "your": 2324, "checked": 2325, "middle": 2326, "encoded": 2327, "rs": 2328, "fixed": 2329, "router": 2330, "csv": 2331, "remain": 2332, "detect": 2333, "both": 2334, "pose": 2335, "s3": 2336, "reads": 2337, "video": 2338, "ev": 2339, "proc": 2340, "schedule": 2341, "abstr": 2342, "tick": 2343, "tim": 2344, "reflect": 2345, "manife": 2346, "manifest": 2347, "consum": 2348, "targets": 2349, "mapper": 2350, "rf": 2351, "sentence": 2352, "edges": 2353, "choi": 2354, "percent": 2355, "generic": 2356, "lint": 2357, "annotations": 2358, "ication": 2359, "tile": 2360, "24": 2361, "assignment": 2362, "holder": 2363, "notify": 2364, "week": 2365, "wd": 2366, "mig": 2367, "sol": 2368, "prototype": 2369, "mag": 2370, "cm": 2371, "health": 2372, "ison": 2373, "marker": 2374, "keyword": 2375, "most": 2376, "big": 2377, "stored": 2378, "duplic": 2379, "rtype": 2380, "dyn": 2381, "docs": 2382, "eps": 2383, "px": 2384, "currency": 2385, "lug": 2386, "bottom": 2387, "working": 2388, "atom": 2389, "monitor": 2390, "reply": 2391, "matcher": 2392, "ged": 2393, "ow": 2394, "yaml": 2395, "help": 2396, "following": 2397, "snapshot": 2398, "archive": 2399, "algori": 2400, "abstract": 2401, "em": 2402, "grade": 2403, "algorith": 2404, "alle": 2405, "bul": 2406, "train": 2407, "received": 2408, "comparison": 2409, "fast": 2410, "verage": 2411, "converts": 2412, "mil": 2413, "takes": 2414, "son": 2415, "vec": 2416, "routes": 2417, "anim": 2418, "focus": 2419, "ually": 2420, "emb": 2421, "pted": 2422, "another": 2423, "slug": 2424, "popul": 2425, "xx": 2426, "inf": 2427, "vlan": 2428, "tables": 2429, "quote": 2430, "blocks": 2431, "jobs": 2432, "hidden": 2433, "deferred": 2434, "prob": 2435, "expect": 2436, "ef": 2437, "days": 2438, "resolved": 2439, "scheme": 2440, "collections": 2441, "inline": 2442, "alpha": 2443, "processor": 2444, "reflection": 2445, "center": 2446, "gy": 2447, "pla": 2448, "ume": 2449, "meas": 2450, "sep": 2451, "fragment": 2452, "urls": 2453, "matched": 2454, "templates": 2455, "entities": 2456, "decorator": 2457, "shared": 2458, "feed": 2459, "embed": 2460, "digest": 2461, "30": 2462, "chart": 2463, "what": 2464, "pane": 2465, "await": 2466, "abo": 2467, "75": 2468, "kl": 2469, "generated": 2470, "segments": 2471, "notification": 2472, "tcp": 2473, "iso": 2474, "initializ": 2475, "literal": 2476, "blan": 2477, "ess": 2478, "sources": 2479, "tempor": 2480, "authorization": 2481, "foo": 2482, "numbers": 2483, "equi": 2484, "kernel": 2485, "customer": 2486, "sis": 2487, "ank": 2488, "dirname": 2489, "ended": 2490, "reduce": 2491, "rpc": 2492, "dev": 2493, "hour": 2494, "starting": 2495, "cols": 2496, "vation": 2497, "algorithm": 2498, "being": 2499, "player": 2500, "coordinates": 2501, "board": 2502, "mix": 2503, "combin": 2504, "migr": 2505, "zy": 2506, "gp": 2507, "got": 2508, "ak": 2509, "mas": 2510, "light": 2511, "sheet": 2512, "remaining": 2513, "normalized": 2514, "shell": 2515, "blank": 2516, "removes": 2517, "dst": 2518, "chun": 2519, "vault": 2520, "roles": 2521, "calculations": 2522, "0000": 2523, "foreign": 2524, "cing": 2525, "tact": 2526, "licen": 2527, "sender": 2528, "14": 2529, "samples": 2530, "such": 2531, "organ": 2532, "loading": 2533, "tools": 2534, "correspon": 2535, "vertex": 2536, "delim": 2537, "cos": 2538, "ical": 2539, "codes": 2540, "instr": 2541, "forward": 2542, "metrics": 2543, "ality": 2544, "vely": 2545, "hostname": 2546, "needs": 2547, "free": 2548, "align": 2549, "dirs": 2550, "warnings": 2551, "metry": 2552, "squ": 2553, "ified": 2554, "these": 2555, "translate": 2556, "gt": 2557, "via": 2558, "inser": 2559, "flatten": 2560, "known": 2561, "basename": 2562, "attempt": 2563, "int64": 2564, "necess": 2565, "lar": 2566, "poly": 2567, "hs": 2568, "fw": 2569, "collector": 2570, "skill": 2571, "scen": 2572, "equ": 2573, "indexes": 2574, "v2": 2575, "predi": 2576, "states": 2577, "too": 2578, "compil": 2579, "configur": 2580, "increment": 2581, "mainten": 2582, "recursive": 2583, "finally": 2584, "positions": 2585, "maintenance": 2586, "audio": 2587, "imal": 2588, "inputs": 2589, "ings": 2590, "mouse": 2591, "stype": 2592, "maj": 2593, "connected": 2594, "cid": 2595, "cipher": 2596, "sur": 2597, "blob": 2598, "unable": 2599, "50": 2600, "distr": 2601, "configure": 2602, "visit": 2603, "pad": 2604, "exc": 2605, "extends": 2606, "deri": 2607, "currently": 2608, "ckets": 2609, "buil": 2610, "enumerate": 2611, "filesystem": 2612, "constant": 2613, "uction": 2614, "amic": 2615, "strlen": 2616, "processed": 2617, "whitespace": 2618, "mater": 2619, "licit": 2620, "ross": 2621, "normal": 2622, "inject": 2623, "avoid": 2624, "necessary": 2625, "33": 2626, "syntax": 2627, "built": 2628, "est": 2629, "patterns": 2630, "formatted": 2631, "filepath": 2632, "backend": 2633, "radius": 2634, "constraints": 2635, "reen": 2636, "keeps": 2637, "expr": 2638, "goog": 2639, "representation": 2640, "refs": 2641, "resses": 2642, "locator": 2643, "rgb": 2644, "pur": 2645, "calling": 2646, "swap": 2647, "utc": 2648, "consumer": 2649, "distribu": 2650, "proble": 2651, "inher": 2652, "freq": 2653, "hi": 2654, "windows": 2655, "ency": 2656, "cost": 2657, "pie": 2658, "pret": 2659, "native": 2660, "acc": 2661, "fallback": 2662, "pull": 2663, "curl": 2664, "tun": 2665, "gation": 2666, "nothing": 2667, "xpath": 2668, "disk": 2669, "management": 2670, "screen": 2671, "loads": 2672, "ily": 2673, "pb": 2674, "transition": 2675, "repeat": 2676, "cade": 2677, "measure": 2678, "definitions": 2679, "klass": 2680, "deep": 2681, "lazy": 2682, "phase": 2683, "revision": 2684, "i18": 2685, "bindings": 2686, "formats": 2687, "echo": 2688, "shad": 2689, "bal": 2690, "resolver": 2691, "01": 2692, "stderr": 2693, "invoke": 2694, "promp": 2695, "analysis": 2696, "ision": 2697, "chunks": 2698, "corresponding": 2699, "inside": 2700, "vr": 2701, "explode": 2702, "ndarray": 2703, "ins": 2704, "fig": 2705, "candidate": 2706, "bulk": 2707, "includes": 2708, "partic": 2709, "ipv6": 2710, "cti": 2711, "compati": 2712, "lead": 2713, "callbacks": 2714, "retrieves": 2715, "ences": 2716, "canv": 2717, "ques": 2718, "svc": 2719, "submit": 2720, "readable": 2721, "svg": 2722, "team": 2723, "hav": 2724, "sd": 2725, "aller": 2726, "specify": 2727, "lities": 2728, "prin": 2729, "canvas": 2730, "minu": 2731, "upgrade": 2732, "cam": 2733, "cons": 2734, "inspects": 2735, "relationship": 2736, "curr": 2737, "routing": 2738, "capa": 2739, "ference": 2740, "predicate": 2741, "minimum": 2742, "outer": 2743, "connections": 2744, "dra": 2745, "replication": 2746, "dynamic": 2747, "statis": 2748, "ju": 2749, "x1": 2750, "gg": 2751, "cally": 2752, "deployment": 2753, "tt": 2754, "dur": 2755, "disabled": 2756, "1000": 2757, "54": 2758, "google": 2759, "geometry": 2760, "para": 2761, "styles": 2762, "siz": 2763, "ttl": 2764, "watcher": 2765, "base64": 2766, "ative": 2767, "ama": 2768, "jection": 2769, "workflow": 2770, "receiver": 2771, "dig": 2772, "answer": 2773, "allows": 2774, "even": 2775, "redis": 2776, "startswith": 2777, "navi": 2778, "txt": 2779, "appfw": 2780, "sters": 2781, "seed": 2782, "accor": 2783, "pixels": 2784, "uti": 2785, "cut": 2786, "13": 2787, "neigh": 2788, "payment": 2789, "operations": 2790, "arn": 2791, "regexp": 2792, "envelo": 2793, "slash": 2794, "renderer": 2795, "greater": 2796, "subnet": 2797, "float64": 2798, "oauth": 2799, "fut": 2800, "ution": 2801, "home": 2802, "mm": 2803, "plain": 2804, "notes": 2805, "wild": 2806, "views": 2807, "deletes": 2808, "getattr": 2809, "directories": 2810, "jb": 2811, "reserved": 2812, "ranges": 2813, "started": 2814, "rati": 2815, "occur": 2816, "sal": 2817, "stmt": 2818, "according": 2819, "least": 2820, "saved": 2821, "grad": 2822, "dates": 2823, "deprec": 2824, "ters": 2825, "capture": 2826, "indic": 2827, "encoder": 2828, "indicate": 2829, "trac": 2830, "walk": 2831, "license": 2832, "ifier": 2833, "audit": 2834, "amazon": 2835, "maps": 2836, "19": 2837, "adjust": 2838, "delimiter": 2839, "deprecated": 2840, "writ": 2841, "issues": 2842, "envelope": 2843, "variant": 2844, "aler": 2845, "era": 2846, "attempts": 2847, "program": 2848, "pkg": 2849, "secu": 2850, "opti": 2851, "mongo": 2852, "bel": 2853, "creating": 2854, "idge": 2855, "hip": 2856, "neighb": 2857, "poll": 2858, "jav": 2859, "written": 2860, "lifecycle": 2861, "tre": 2862, "weights": 2863, "ignored": 2864, "foli": 2865, "decimal": 2866, "terms": 2867, "cld": 2868, "strpos": 2869, "sibl": 2870, "implementation": 2871, "bill": 2872, "ared": 2873, "i18n": 2874, "mesh": 2875, "gu": 2876, "ldap": 2877, "resolves": 2878, "lack": 2879, "nx": 2880, "configs": 2881, "replacement": 2882, "addresses": 2883, "ng": 2884, "sity": 2885, "hide": 2886, "sound": 2887, "comma": 2888, "strto": 2889, "organization": 2890, "dash": 2891, "png": 2892, "izer": 2893, "rv": 2894, "prompt": 2895, "san": 2896, "yy": 2897, "ratio": 2898, "hr": 2899, "included": 2900, "providers": 2901, "aliases": 2902, "disco": 2903, "registration": 2904, "supplied": 2905, "works": 2906, "implode": 2907, "instanti": 2908, "managed": 2909, "means": 2910, "gateway": 2911, "middleware": 2912, "waiting": 2913, "colors": 2914, "enter": 2915, "categories": 2916, "price": 2917, "stage": 2918, "serial": 2919, "intent": 2920, "strate": 2921, "ural": 2922, "portfoli": 2923, "band": 2924, "aga": 2925, "border": 2926, "ls": 2927, "aries": 2928, "gith": 2929, "www": 2930, "queries": 2931, "clause": 2932, "against": 2933, "github": 2934, "gc": 2935, "frames": 2936, "tip": 2937, "ressed": 2938, "yet": 2939, "havi": 2940, "sever": 2941, "behavi": 2942, "hold": 2943, "runs": 2944, "pdf": 2945, "ders": 2946, "closing": 2947, "unlock": 2948, "associate": 2949, "ql": 2950, "effect": 2951, "digits": 2952, "ii": 2953, "distribution": 2954, "nega": 2955, "diag": 2956, "nan": 2957, "az": 2958, "verti": 2959, "pw": 2960, "orde": 2961, "levels": 2962, "ec": 2963, "completed": 2964, "precision": 2965, "ordered": 2966, "unexpected": 2967, "tract": 2968, "lies": 2969, "leep": 2970, "till": 2971, "ptr": 2972, "logs": 2973, "angular": 2974, "indicator": 2975, "facade": 2976, "logical": 2977, "mk": 2978, "servers": 2979, "fron": 2980, "statistics": 2981, "negative": 2982, "trail": 2983, "acces": 2984, "strap": 2985, "migration": 2986, "computed": 2987, "writes": 2988, "wp": 2989, "confirm": 2990, "cells": 2991, "cii": 2992, "vals": 2993, "ports": 2994, "gue": 2995, "closure": 2996, "documents": 2997, "stringify": 2998, "tm": 2999, "checking": 3000, "statements": 3001, "persistence": 3002, "tc": 3003, "compo": 3004, "wrapped": 3005, "cross": 3006, "assets": 3007, "slo": 3008, "zo": 3009, "cmp": 3010, "contact": 3011, "trun": 3012, "cations": 3013, "sleep": 3014, "parents": 3015, "zeros": 3016, "subs": 3017, "256": 3018, "were": 3019, "person": 3020, "rev": 3021, "ancestor": 3022, "explicit": 3023, "umb": 3024, "lst": 3025, "pot": 3026, "cart": 3027, "applic": 3028, "compact": 3029, "occurren": 3030, "alled": 3031, "000": 3032, "proced": 3033, "wire": 3034, "iteration": 3035, "ojb": 3036, "finished": 3037, "clip": 3038, "locate": 3039, "drag": 3040, "installed": 3041, "helpers": 3042, "devices": 3043, "duplicate": 3044, "gers": 3045, "etc": 3046, "regular": 3047, "md5": 3048, "choice": 3049, "vip": 3050, "ken": 3051, "automa": 3052, "fli": 3053, "ascii": 3054, "sively": 3055, "princip": 3056, "elasticsearch": 3057, "parsing": 3058, "bootstrap": 3059, "bon": 3060, "scopes": 3061, "framework": 3062, "deserialize": 3063, "bg": 3064, "transfer": 3065, "cleanup": 3066, "placeholder": 3067, "resize": 3068, "material": 3069, "cnabu": 3070, "channels": 3071, "attachments": 3072, "future": 3073, "observ": 3074, "fd": 3075, "rup": 3076, "tls": 3077, "might": 3078, "aro": 3079, "busin": 3080, "business": 3081, "exports": 3082, "policylabel": 3083, "du": 3084, "assume": 3085, "referenced": 3086, "twi": 3087, "strategy": 3088, "detach": 3089, "ric": 3090, "ness": 3091, "ification": 3092, "desi": 3093, "tries": 3094, "rename": 3095, "front": 3096, "average": 3097, "rotation": 3098, "opa": 3099, "pdo": 3100, "gui": 3101, "abort": 3102, "hub": 3103, "rever": 3104, "hier": 3105, "captures": 3106, "readers": 3107, "hal": 3108, "workspace": 3109, "exact": 3110, "ines": 3111, "question": 3112, "rub": 3113, "oth": 3114, "grant": 3115, "fici": 3116, "authorized": 3117, "suppress": 3118, "portfolio": 3119, "retval": 3120, "arrow": 3121, "threads": 3122, "converted": 3123, "initialized": 3124, "leaf": 3125, "inv": 3126, "tically": 3127, "dd": 3128, "docker": 3129, "x2": 3130, "endpoints": 3131, "fp": 3132, "receive": 3133, "les": 3134, "creation": 3135, "tem": 3136, "still": 3137, "mir": 3138, "mr": 3139, "writers": 3140, "rank": 3141, "above": 3142, "pathname": 3143, "desired": 3144, "trailing": 3145, "charset": 3146, "converter": 3147, "modifier": 3148, "locked": 3149, "h5": 3150, "credential": 3151, "compress": 3152, "leton": 3153, "tor": 3154, "shut": 3155, "iterate": 3156, "fab": 3157, "jdb": 3158, "overwrite": 3159, "mill": 3160, "basel": 3161, "ception": 3162, "consu": 3163, "appropri": 3164, "uint32": 3165, "nu": 3166, "directly": 3167, "por": 3168, "languages": 3169, "jdbc": 3170, "prepa": 3171, "unch": 3172, "ssh": 3173, "dispatcher": 3174, "symbols": 3175, "apsed": 3176, "recog": 3177, "deco": 3178, "appropriate": 3179, "share": 3180, "edi": 3181, "relations": 3182, "rds": 3183, "provide": 3184, "problem": 3185, "cpy": 3186, "pairs": 3187, "expan": 3188, "mic": 3189, "operate": 3190, "came": 3191, "phone": 3192, "wave": 3193, "examples": 3194, "layers": 3195, "recursively": 3196, "major": 3197, "consist": 3198, "80": 3199, "ferences": 3200, "hours": 3201, "clazz": 3202, "gl": 3203, "gsub": 3204, "sizes": 3205, "reload": 3206, "ack": 3207, "finder": 3208, "fra": 3209, "vend": 3210, "conven": 3211, "faces": 3212, "x0": 3213, "impl": 3214, "expires": 3215, "packages": 3216, "merged": 3217, "ords": 3218, "theta": 3219, "unsupported": 3220, "17": 3221, "scanner": 3222, "ror": 3223, "attri": 3224, "interpo": 3225, "xhr": 3226, "general": 3227, "hooks": 3228, "255": 3229, "rewrite": 3230, "preview": 3231, "orient": 3232, "please": 3233, "digit": 3234, "during": 3235, "gene": 3236, "7554": 3237, "parses": 3238, "updat": 3239, "simil": 3240, "specification": 3241, "equipa": 3242, "speed": 3243, "conv": 3244, "eol": 3245, "serialized": 3246, "22": 3247, "sof": 3248, "saniti": 3249, "equipament": 3250, "ctions": 3251, "za": 3252, "bridge": 3253, "mutable": 3254, "baseline": 3255, "hydrated": 3256, "ki": 3257, "va": 3258, "fered": 3259, "game": 3260, "handles": 3261, "gover": 3262, "chro": 3263, "pin": 3264, "linked": 3265, "coords": 3266, "below": 3267, "minutes": 3268, "dead": 3269, "nat": 3270, "clock": 3271, "rhs": 3272, "pagination": 3273, "jax": 3274, "produ": 3275, "returning": 3276, "around": 3277, "colo": 3278, "ending": 3279, "processes": 3280, "visibility": 3281, "happ": 3282, "reading": 3283, "lict": 3284, "allel": 3285, "camera": 3286, "annotate": 3287, "similar": 3288, "prefer": 3289, "outputs": 3290, "copi": 3291, "aria": 3292, "immediate": 3293, "hosts": 3294, "mount": 3295, "checksum": 3296, "aggregation": 3297, "picker": 3298, "sqrt": 3299, "ctor": 3300, "charm": 3301, "hum": 3302, "positive": 3303, "discard": 3304, "att": 3305, "66": 3306, "makes": 3307, "adv": 3308, "ones": 3309, "soft": 3310, "evt": 3311, "behav": 3312, "asser": 3313, "escaped": 3314, "design": 3315, "offsets": 3316, "dbcluster": 3317, "coming": 3318, "beat": 3319, "cookies": 3320, "comb": 3321, "stro": 3322, "rdf": 3323, "aaa": 3324, "turn": 3325, "marks": 3326, "routine": 3327, "someth": 3328, "typed": 3329, "utf8": 3330, "mtas": 3331, "something": 3332, "conflict": 3333, "buffered": 3334, "vendor": 3335, "dimensions": 3336, "lap": 3337, "prefixes": 3338, "cases": 3339, "seen": 3340, "lem": 3341, "hierarch": 3342, "again": 3343, "exchange": 3344, "dj": 3345, "marked": 3346, "stan": 3347, "sil": 3348, "optimi": 3349, "know": 3350, "9999": 3351, "fabric": 3352, "belong": 3353, "evaluate": 3354, "behaves": 3355, "maybe": 3356, "discus": 3357, "those": 3358, "coordinate": 3359, "micro": 3360, "compatible": 3361, "serializer": 3362, "writing": 3363, "mirror": 3364, "scaler": 3365, "ys": 3366, "zed": 3367, "sensi": 3368, "blue": 3369, "happen": 3370, "compiled": 3371, "sibling": 3372, "hori": 3373, "posite": 3374, "temporary": 3375, "azure": 3376, "dx": 3377, "discussion": 3378, "mand": 3379, "large": 3380, "provisioning": 3381, "floor": 3382, "pretty": 3383, "fat": 3384, "compiler": 3385, "sip": 3386, "particular": 3387, "square": 3388, "mappings": 3389, "guess": 3390, "millis": 3391, "fic": 3392, "containers": 3393, "idle": 3394, "encrypted": 3395, "land": 3396, "procedure": 3397, "hasattr": 3398, "normaliz": 3399, "scene": 3400, "solu": 3401, "conversion": 3402, "ablish": 3403, "persistent": 3404, "mel": 3405, "continu": 3406, "ficient": 3407, "pick": 3408, "severity": 3409, "individ": 3410, "writable": 3411, "builds": 3412, "secure": 3413, "live": 3414, "retries": 3415, "ough": 3416, "cwd": 3417, "dc": 3418, "automatically": 3419, "snmp": 3420, "cpe": 3421, "press": 3422, "animation": 3423, "ype": 3424, "eg": 3425, "splice": 3426, "establish": 3427, "runner": 3428, "p2": 3429, "58": 3430, "maker": 3431, "imports": 3432, "mdl": 3433, "launch": 3434, "zap": 3435, "vertical": 3436, "gvr": 3437, "iers": 3438, "erce": 3439, "p1": 3440, "ascri": 3441, "shadow": 3442, "canon": 3443, "contract": 3444, "panel": 3445, "pres": 3446, "cond": 3447, "rfc": 3448, "aging": 3449, "nt": 3450, "wildcard": 3451, "well": 3452, "ink": 3453, "anchor": 3454, "delegate": 3455, "throwable": 3456, "asyn": 3457, "orter": 3458, "facet": 3459, "tpl": 3460, "everything": 3461, "ipv4": 3462, "seek": 3463, "translations": 3464, "cept": 3465, "transformer": 3466, "inherit": 3467, "asse": 3468, "marg": 3469, "latest": 3470, "isn": 3471, "upon": 3472, "balance": 3473, "quanti": 3474, "simul": 3475, "equipamento": 3476, "altern": 3477, "ring": 3478, "interfaces": 3479, "estim": 3480, "sensitive": 3481, "delivery": 3482, "crop": 3483, "pref": 3484, "obtain": 3485, "unpack": 3486, "governs": 3487, "tabs": 3488, "getting": 3489, "rx": 3490, "navigation": 3491, "including": 3492, "aux": 3493, "finds": 3494, "resolution": 3495, "srv": 3496, "trust": 3497, "javascri": 3498, "ruby": 3499, "classname": 3500, "strtolower": 3501, "eof": 3502, "codec": 3503, "datas": 3504, "scripts": 3505, "decry": 3506, "ao": 3507, "asc": 3508, "horizon": 3509, "hits": 3510, "pect": 3511, "intersection": 3512, "interest": 3513, "executor": 3514, "translator": 3515, "fname": 3516, "rb": 3517, "deg": 3518, "mapped": 3519, "frequ": 3520, "recovery": 3521, "smar": 3522, "sian": 3523, "linear": 3524, "handling": 3525, "paces": 3526, "develo": 3527, "synchronized": 3528, "curve": 3529, "individual": 3530, "txn": 3531, "cnt": 3532, "fam": 3533, "inverse": 3534, "black": 3535, "graphic": 3536, "titude": 3537, "wallet": 3538, "six": 3539, "choices": 3540, "solution": 3541, "piece": 3542, "ssm": 3543, "repla": 3544, "recogn": 3545, "ka": 3546, "togg": 3547, "popup": 3548, "hyper": 3549, "rong": 3550, "pd": 3551, "principal": 3552, "policies": 3553, "attached": 3554, "ils": 3555, "scheduled": 3556, "wrong": 3557, "jid": 3558, "shutdown": 3559, "ice": 3560, "small": 3561, "cour": 3562, "variance": 3563, "hashes": 3564, "tracker": 3565, "bed": 3566, "autom": 3567, "actually": 3568, "reports": 3569, "successfully": 3570, "highlight": 3571, "namespaces": 3572, "02": 3573, "sends": 3574, "ango": 3575, "extent": 3576, "expressions": 3577, "never": 3578, "separated": 3579, "candidates": 3580, "embedded": 3581, "published": 3582, "timezone": 3583, "dl": 3584, "rollback": 3585, "secrets": 3586, "acy": 3587, "stems": 3588, "responder": 3589, "behavior": 3590, "lt": 3591, "mole": 3592, "removing": 3593, "configurations": 3594, "beta": 3595, "consume": 3596, "interrup": 3597, "pod": 3598, "applications": 3599, "javascript": 3600, "successful": 3601, "netscaler": 3602, "prepared": 3603, "certain": 3604, "ampl": 3605, "notebook": 3606, "ajax": 3607, "colour": 3608, "paginator": 3609, "implemented": 3610, "keywords": 3611, "three": 3612, "argv": 3613, "subset": 3614, "rd": 3615, "expir": 3616, "36": 3617, "multip": 3618, "verb": 3619, "comparator": 3620, "qualified": 3621, "dependent": 3622, "reserve": 3623, "bc": 3624, "locales": 3625, "servicegroup": 3626, "streams": 3627, "sock": 3628, "handled": 3629, "half": 3630, "zoom": 3631, "expanded": 3632, "eng": 3633, "minor": 3634, "atomic": 3635, "equip": 3636, "deps": 3637, "applied": 3638, "hydrate": 3639, "flash": 3640, "difference": 3641, "substit": 3642, "dial": 3643, "stanza": 3644, "directive": 3645, "recent": 3646, "cach": 3647, "cir": 3648, "tenant": 3649, "bb": 3650, "produce": 3651, "locations": 3652, "salt": 3653, "king": 3654, "sequences": 3655, "broad": 3656, "pear": 3657, "dbinstance": 3658, "composite": 3659, "sequent": 3660, "vs": 3661, "leading": 3662, "percentage": 3663, "plural": 3664, "uint64": 3665, "pet": 3666, "things": 3667, "ian": 3668, "authors": 3669, "newline": 3670, "cog": 3671, "orth": 3672, "alive": 3673, "draft": 3674, "prf": 3675, "nav": 3676, "axes": 3677, "accessor": 3678, "instruction": 3679, "mf": 3680, "expiration": 3681, "coverage": 3682, "anon": 3683, "tw": 3684, "itself": 3685, "eno": 3686, "longit": 3687, "parallel": 3688, "sending": 3689, "expired": 3690, "quad": 3691, "beam": 3692, "vertices": 3693, "qp": 3694, "analysi": 3695, "analysistype": 3696, "atype": 3697, "backtrace": 3698, "stroke": 3699, "serialization": 3700, "boundary": 3701, "terminal": 3702, "solr": 3703, "ario": 3704, "notifications": 3705, "subscribe": 3706, "bson": 3707, "partitions": 3708, "combine": 3709, "scalar": 3710, "texture": 3711, "alert": 3712, "training": 3713, "uploaded": 3714, "indicates": 3715, "useful": 3716, "39": 3717, "populate": 3718, "cas": 3719, "power": 3720, "corp": 3721, "wards": 3722, "registers": 3723, "billing": 3724, "mor": 3725, "tap": 3726, "explan": 3727, "integr": 3728, "ited": 3729, "magic": 3730, "apps": 3731, "mental": 3732, "margin": 3733, "lc": 3734, "globals": 3735, "incoming": 3736, "connector": 3737, "singleton": 3738, "validates": 3739, "paragraph": 3740, "pq": 3741, "sect": 3742, "pg": 3743, "latitude": 3744, "nr": 3745, "n1": 3746, "checker": 3747, "visitor": 3748, "going": 3749, "galler": 3750, "transformation": 3751, "gon": 3752, "provisioned": 3753, "mkdir": 3754, "2d": 3755, "utility": 3756, "colon": 3757, "vol": 3758, "uint8": 3759, "due": 3760, "sigma": 3761, "compression": 3762, "tz": 3763, "finite": 3764, "mixed": 3765, "odata": 3766, "dirty": 3767, "fatal": 3768, "eq": 3769, "kill": 3770, "rendered": 3771, "experi": 3772, "spans": 3773, "systems": 3774, "craw": 3775, "probab": 3776, "union": 3777, "extended": 3778, "gsl": 3779, "sim": 3780, "recip": 3781, "networkapi": 3782, "udp": 3783, "gap": 3784, "good": 3785, "doi": 3786, "stal": 3787, "thumb": 3788, "mpp": 3789, "gzip": 3790, "silent": 3791, "ux": 3792, "lying": 3793, "spl": 3794, "efficient": 3795, "prediction": 3796, "noun": 3797, "gpf": 3798, "fri": 3799, "conditional": 3800, "rune": 3801, "wt": 3802, "milli": 3803, "restrict": 3804, "vic": 3805, "longitude": 3806, "green": 3807, "toggle": 3808, "eslint": 3809, "overflow": 3810, "family": 3811, "phy": 3812, "preferences": 3813, "uff": 3814, "perm": 3815, "intercept": 3816, "enc": 3817, "orientation": 3818, "compressed": 3819, "grou": 3820, "tuples": 3821, "bus": 3822, "smo": 3823, "shard": 3824, "subsequent": 3825, "supports": 3826, "disconnect": 3827, "assigned": 3828, "recipient": 3829, "optionally": 3830, "ban": 3831, "opacity": 3832, "syll": 3833, "appoint": 3834, "ential": 3835, "wl": 3836, "lite": 3837, "executable": 3838, "typ": 3839, "cogni": 3840, "ire": 3841, "contexts": 3842, "hdr": 3843, "satis": 3844, "implements": 3845, "pal": 3846, "preferred": 3847, "48": 3848, "declared": 3849, "90": 3850, "vot": 3851, "wk": 3852, "propa": 3853, "stopped": 3854, "observer": 3855, "clients": 3856, "quality": 3857, "ffff": 3858, "actor": 3859, "pse": 3860, "sid": 3861, "recorder": 3862, "decoder": 3863, "ipaddress": 3864, "far": 3865, "quotes": 3866, "depending": 3867, "performs": 3868, "projects": 3869, "overlap": 3870, "wall": 3871, "declarations": 3872, "flux": 3873, "opened": 3874, "accepted": 3875, "accessible": 3876, "classifier": 3877, "provides": 3878, "anything": 3879, "ges": 3880, "lim": 3881, "canonical": 3882, "whole": 3883, "enh": 3884, "oe": 3885, "grees": 3886, "loss": 3887, "lemma": 3888, "queues": 3889, "locals": 3890, "letter": 3891, "logged": 3892, "mv": 3893, "panic": 3894, "traject": 3895, "temporal": 3896, "variants": 3897, "y1": 3898, "404": 3899, "gallery": 3900, "authenticated": 3901, "bundles": 3902, "memo": 3903, "cognito": 3904, "endswith": 3905, "ely": 3906, "pen": 3907, "triggers": 3908, "separate": 3909, "scores": 3910, "gslb": 3911, "tagged": 3912, "cover": 3913, "applies": 3914, "excluded": 3915, "fk": 3916, "submission": 3917, "appear": 3918, "metabo": 3919, "scenario": 3920, "har": 3921, "bins": 3922, "review": 3923, "degrees": 3924, "kit": 3925, "encrypt": 3926, "s1": 3927, "ump": 3928, "horizontal": 3929, "tid": 3930, "ipa": 3931, "wb": 3932, "water": 3933, "nw": 3934, "human": 3935, "sug": 3936, "chr": 3937, "activation": 3938, "qt": 3939, "yes": 3940, "syllable": 3941, "defs": 3942, "gem": 3943, "associations": 3944, "elems": 3945, "ordin": 3946, "23": 3947, "effe": 3948, "frequency": 3949, "getter": 3950, "news": 3951, "pand": 3952, "ato": 3953, "singular": 3954, "beginning": 3955, "ix": 3956, "machines": 3957, "enabu": 3958, "hop": 3959, "lgc": 3960, "advance": 3961, "initializes": 3962, "plus": 3963, "inspector": 3964, "rotate": 3965, "phra": 3966, "viol": 3967, "ird": 3968, "observable": 3969, "hints": 3970, "pm": 3971, "deleteresources": 3972, "ider": 3973, "generation": 3974, "xmpp": 3975, "lane": 3976, "spection": 3977, "markdown": 3978, "500": 3979, "gradient": 3980, "coupon": 3981, "assertion": 3982, "nick": 3983, "mutex": 3984, "reconnect": 3985, "commun": 3986, "adj": 3987, "sections": 3988, "hierarchy": 3989, "lexception": 3990, "aspect": 3991, "ampling": 3992, "tn": 3993, "sus": 3994, "combined": 3995, "gs": 3996, "phi": 3997, "encryption": 3998, "brackets": 3999, "ini": 4000, "camel": 4001, "equival": 4002, "ome": 4003, "iq": 4004, "transforms": 4005, "rendering": 4006, "elapsed": 4007, "identifiers": 4008, "gam": 4009, "polygon": 4010, "mg": 4011, "visited": 4012, "taken": 4013, "kv": 4014, "immutable": 4015, "django": 4016, "exported": 4017, "detected": 4018, "iom": 4019, "broadcast": 4020, "lica": 4021, "sex": 4022, "wiki": 4023, "sures": 4024, "subclass": 4025, "uc": 4026, "pp": 4027, "mpx": 4028, "csr": 4029, "completion": 4030, "ets": 4031, "conti": 4032, "ously": 4033, "creator": 4034, "float32": 4035, "infos": 4036, "sky": 4037, "tu": 4038, "lover": 4039, "trap": 4040, "posts": 4041, "traf": 4042, "speci": 4043, "accepts": 4044, "nii": 4045, "expire": 4046, "messaging": 4047, "operand": 4048, "executed": 4049, "art": 4050, "gb": 4051, "defines": 4052, "underlying": 4053, "int32": 4054, "concaten": 4055, "dumps": 4056, "represents": 4057, "molecu": 4058, "give": 4059, "toler": 4060, "melis": 4061, "shr": 4062, "calculates": 4063, "roo": 4064, "iv": 4065, "schemas": 4066, "outbound": 4067, "histo": 4068, "leave": 4069, "slots": 4070, "asynchron": 4071, "taxon": 4072, "communi": 4073, "accounts": 4074, "pause": 4075, "rails": 4076, "sdk": 4077, "rtl": 4078, "domains": 4079, "ui5": 4080, "revo": 4081, "hot": 4082, "sx": 4083, "raised": 4084, "closer": 4085, "lier": 4086, "commits": 4087, "profiles": 4088, "gz": 4089, "west": 4090, "transformed": 4091, "funcs": 4092, "markup": 4093, "guid": 4094, "lng": 4095, "ism": 4096, "workers": 4097, "quoted": 4098, "belongs": 4099, "cab": 4100, "torrent": 4101, "sampled": 4102, "capacity": 4103, "comput": 4104, "caption": 4105, "preserve": 4106, "datum": 4107, "dh": 4108, "ambient": 4109, "wind": 4110, "authorizer": 4111, "automation": 4112, "intro": 4113, "cali": 4114, "fails": 4115, "derived": 4116, "lers": 4117, "pow": 4118, "occurrence": 4119, "verification": 4120, "vectors": 4121, "invent": 4122, "lopt": 4123, "opening": 4124, "bounding": 4125, "grouped": 4126, "neighbors": 4127, "authenticate": 4128, "replaced": 4129, "intersect": 4130, "composer": 4131, "made": 4132, "trying": 4133, "tokenizer": 4134, "instantiate": 4135, "rection": 4136, "35": 4137, "ticks": 4138, "edb": 4139, "dic": 4140, "fetches": 4141, "histogram": 4142, "sage": 4143, "appflow": 4144, "overlay": 4145, "decorated": 4146, "buttons": 4147, "dna": 4148, "jar": 4149, "deletion": 4150, "uler": 4151, "sf": 4152, "ahead": 4153, "indexed": 4154, "months": 4155, "analytics": 4156, "pread": 4157, "unders": 4158, "controls": 4159, "44": 4160, "equivalent": 4161, "folders": 4162, "lbvserver": 4163, "scaling": 4164, "resume": 4165, "prior": 4166, "nos": 4167, "quick": 4168, "refer": 4169, "previously": 4170, "spacing": 4171, "fold": 4172, "tell": 4173, "qb": 4174, "volumes": 4175, "prepend": 4176, "jected": 4177, "invocation": 4178, "decoded": 4179, "pred": 4180, "logy": 4181, "products": 4182, "timing": 4183, "tooltip": 4184, "pun": 4185, "pieces": 4186, "tracks": 4187, "documentation": 4188, "computes": 4189, "building": 4190, "peak": 4191, "ket": 4192, "stub": 4193, "ru": 4194, "ced": 4195, "activate": 4196, "world": 4197, "collap": 4198, "posed": 4199, "population": 4200, "checkout": 4201, "rack": 4202, "clusters": 4203, "rating": 4204, "figure": 4205, "repr": 4206, "sampling": 4207, "stdin": 4208, "discovery": 4209, "modifiers": 4210, "certificates": 4211, "chat": 4212, "unix": 4213, "unused": 4214, "phing": 4215, "mutation": 4216, "symbo": 4217, "flick": 4218, "fing": 4219, "promises": 4220, "vert": 4221, "addon": 4222, "validated": 4223, "crl": 4224, "injection": 4225, "inventory": 4226, "holders": 4227, "calibr": 4228, "anony": 4229, "restart": 4230, "upo": 4231, "bold": 4232, "compilation": 4233, "quantity": 4234, "whose": 4235, "aio": 4236, "attrib": 4237, "lineno": 4238, "mpxj": 4239, "printf": 4240, "recv": 4241, "scaled": 4242, "interaction": 4243, "ensures": 4244, "sorting": 4245, "urnal": 4246, "entire": 4247, "suite": 4248, "requirements": 4249, "replica": 4250, "treat": 4251, "song": 4252, "77": 4253, "along": 4254, "terminate": 4255, "datatype": 4256, "explanation": 4257, "atar": 4258, "arc": 4259, "rame": 4260, "bread": 4261, "contri": 4262, "radio": 4263, "libs": 4264, "wsgi": 4265, "overrides": 4266, "nonce": 4267, "1024": 4268, "oct": 4269, "spread": 4270, "updating": 4271, "ado": 4272, "ims": 4273, "skills": 4274, "endian": 4275, "ami": 4276, "pandas": 4277, "sanitize": 4278, "sso": 4279, "peg": 4280, "guest": 4281, "phrase": 4282, "cards": 4283, "fixer": 4284, "apo": 4285, "forwar": 4286, "checkbox": 4287, "processors": 4288, "34": 4289, "errs": 4290, "flex": 4291, "bank": 4292, "astype": 4293, "dae": 4294, "selectors": 4295, "obs": 4296, "activ": 4297, "presence": 4298, "cudn": 4299, "cudnn": 4300, "hmm": 4301, "appointment": 4302, "daemon": 4303, "filenames": 4304, "visor": 4305, "fle": 4306, "plt": 4307, "explicitly": 4308, "trajectory": 4309, "nex": 4310, "vpnglobal": 4311, "modification": 4312, "fraction": 4313, "ips": 4314, "fake": 4315, "tracted": 4316, "looks": 4317, "controllers": 4318, "performance": 4319, "correlation": 4320, "iterates": 4321, "diagnos": 4322, "copied": 4323, "shar": 4324, "availability": 4325, "regexes": 4326, "simulated": 4327, "moved": 4328, "vl": 4329, "ape": 4330, "ipy": 4331, "allele": 4332, "mous": 4333, "infer": 4334, "deleteresource": 4335, "dry": 4336, "permit": 4337, "closest": 4338, "tunnel": 4339, "iterations": 4340, "widgets": 4341, "ambiente": 4342, "better": 4343, "outside": 4344, "nl": 4345, "prints": 4346, "unsetresource": 4347, "firewall": 4348, "enough": 4349, "masked": 4350, "blocking": 4351, "primi": 4352, "primitive": 4353, "easy": 4354, "sentences": 4355, "dummy": 4356, "unsetresources": 4357, "effective": 4358, "anonymous": 4359, "molecule": 4360, "modal": 4361, "inct": 4362, "assemb": 4363, "libraries": 4364, "sqlexception": 4365, "occurrences": 4366, "alloc": 4367, "gamma": 4368, "z0": 4369, "critical": 4370, "decrypt": 4371, "immediately": 4372, "promo": 4373, "extracted": 4374, "centr": 4375, "photos": 4376, "yo": 4377, "insn": 4378, "genus": 4379, "nome": 4380, "inbound": 4381, "passing": 4382, "membership": 4383, "uth": 4384, "27": 4385, "pivot": 4386, "consider": 4387, "tility": 4388, "spawn": 4389, "lik": 4390, "v4": 4391, "fetched": 4392, "listing": 4393, "ny": 4394, "medium": 4395, "logpolicy": 4396, "traverse": 4397, "identify": 4398, "quiet": 4399, "curlopt": 4400, "apic": 4401, "r2": 4402, "subprocess": 4403, "peek": 4404, "wan": 4405, "ioc": 4406, "emitter": 4407, "getfiltered": 4408, "juju": 4409, "hello": 4410, "sessions": 4411, "touches": 4412, "distinct": 4413, "exponent": 4414, "xs": 4415, "react": 4416, "others": 4417, "fh": 4418, "lize": 4419, "cx": 4420, "icontact": 4421, "intervals": 4422, "wheel": 4423, "palet": 4424, "rti": 4425, "nullable": 4426, "assoc": 4427, "footer": 4428, "probability": 4429, "smooth": 4430, "specs": 4431, "vx": 4432, "legacy": 4433, "scr": 4434, "properly": 4435, "mgt": 4436, "skipped": 4437, "vote": 4438, "bracket": 4439, "lengths": 4440, "lee": 4441, "s2": 4442, "provisioner": 4443, "67": 4444, "shader": 4445, "iframe": 4446, "adres": 4447, "compose": 4448, "gaus": 4449, "friend": 4450, "tify": 4451, "atoms": 4452, "transient": 4453, "vocab": 4454, "fur": 4455, "allen": 4456, "aes": 4457, "flickr": 4458, "aioxmpp": 4459, "replaces": 4460, "rectangle": 4461, "hmac": 4462, "assignments": 4463, "bond": 4464, "ec2": 4465, "albu": 4466, "jump": 4467, "calculated": 4468, "bilities": 4469, "decre": 4470, "vered": 4471, "whitelist": 4472, "claim": 4473, "composition": 4474, "mited": 4475, "fu": 4476, "128": 4477, "observed": 4478, "adresse": 4479, "compatibility": 4480, "cture": 4481, "zation": 4482, "saves": 4483, "algo": 4484, "fif": 4485, "branches": 4486, "transcript": 4487, "temper": 4488, "possi": 4489, "neighbor": 4490, "notice": 4491, "topics": 4492, "station": 4493, "uniq": 4494, "gaussian": 4495, "spri": 4496, "utter": 4497, "topt": 4498, "repositories": 4499, "establishes": 4500, "island": 4501, "renders": 4502, "pup": 4503, "won": 4504, "ay": 4505, "reshape": 4506, "tuning": 4507, "tests": 4508, "journal": 4509, "31": 4510, "community": 4511, "grupo": 4512, "sha1": 4513, "relev": 4514, "sport": 4515, "inherited": 4516, "playlist": 4517, "restri": 4518, "gid": 4519, "coefficient": 4520, "projection": 4521, "stock": 4522, "flip": 4523, "jsonobject": 4524, "hard": 4525, "inserts": 4526, "queued": 4527, "propos": 4528, "codon": 4529, "equipment": 4530, "pem": 4531, "sha256": 4532, "cao": 4533, "errno": 4534, "inspection": 4535, "interrupted": 4536, "88": 4537, "finger": 4538, "zwave": 4539, "rho": 4540, "triple": 4541, "y2": 4542, "ceil": 4543, "xyz": 4544, "busy": 4545, "limits": 4546, "interpol": 4547, "mimetype": 4548, "splits": 4549, "magnit": 4550, "claims": 4551, "demo": 4552, "ience": 4553, "substitu": 4554, "alphab": 4555, "hest": 4556, "longer": 4557, "resulting": 4558, "dropdown": 4559, "grammar": 4560, "inc": 4561, "predict": 4562, "umul": 4563, "focu": 4564, "neare": 4565, "hig": 4566, "lear": 4567, "calibration": 4568, "descriptions": 4569, "punct": 4570, "imported": 4571, "correctly": 4572, "neg": 4573, "hap": 4574, "ications": 4575, "ben": 4576, "ordering": 4577, "highest": 4578, "summar": 4579, "versal": 4580, "ann": 4581, "bbox": 4582, "looking": 4583, "roid": 4584, "announ": 4585, "morph": 4586, "setter": 4587, "regions": 4588, "vpnvserver": 4589, "chrome": 4590, "yields": 4591, "sparse": 4592, "twig": 4593, "ovs": 4594, "blog": 4595, "declare": 4596, "59": 4597, "traffic": 4598, "peers": 4599, "installation": 4600, "affe": 4601, "networks": 4602, "calendars": 4603, "inserted": 4604, "succe": 4605, "e2": 4606, "r1": 4607, "roots": 4608, "certkey": 4609, "utilities": 4610, "today": 4611, "captch": 4612, "demand": 4613, "infin": 4614, "descriptors": 4615, "scat": 4616, "builtin": 4617, "surface": 4618, "400": 4619, "remember": 4620, "captcha": 4621, "sitemap": 4622, "puppet": 4623, "density": 4624, "enfor": 4625, "filled": 4626, "offer": 4627, "deck": 4628, "workteam": 4629, "rr": 4630, "wraps": 4631, "lit": 4632, "palette": 4633, "english": 4634, "collapse": 4635, "unary": 4636, "tour": 4637, "atts": 4638, "dicts": 4639, "yar": 4640, "relationships": 4641, "having": 4642, "ros": 4643, "bone": 4644, "crete": 4645, "keyboard": 4646, "unchecked": 4647, "deregister": 4648, "estimate": 4649, "descend": 4650, "dp": 4651, "ioerror": 4652, "recomm": 4653, "dmatrix": 4654, "solver": 4655, "nearest": 4656, "downcase": 4657, "asn1": 4658, "magnitude": 4659, "persi": 4660, "deliver": 4661, "reached": 4662, "combination": 4663, "gesture": 4664, "affected": 4665, "reaction": 4666, "illa": 4667, "gain": 4668, "acl6": 4669, "stripped": 4670, "course": 4671, "tk": 4672, "preset": 4673, "blockly": 4674, "lhs": 4675, "become": 4676, "jwt": 4677, "alignment": 4678, "story": 4679, "obje": 4680, "compli": 4681, "uint16": 4682, "lifetime": 4683, "vv": 4684, "season": 4685, "further": 4686, "t1": 4687, "learning": 4688, "gas": 4689, "itable": 4690, "gd": 4691, "contained": 4692, "duplicates": 4693, "circle": 4694, "ravel": 4695, "pars": 4696, "depre": 4697, "eas": 4698, "dm": 4699, "relevant": 4700, "csrf": 4701, "grow": 4702, "epg": 4703, "initializer": 4704, "callee": 4705, "polling": 4706, "extractor": 4707, "serve": 4708, "phased": 4709, "important": 4710, "increase": 4711, "evaluation": 4712, "translated": 4713, "e1": 4714, "fits": 4715, "avatar": 4716, "lowest": 4717, "infof": 4718, "c1": 4719, "ee": 4720, "v6": 4721, "atory": 4722, "producer": 4723, "texts": 4724, "announce": 4725, "cad": 4726, "likely": 4727, "debugf": 4728, "minim": 4729, "widths": 4730, "fine": 4731, "particip": 4732, "tau": 4733, "mq": 4734, "amps": 4735, "reactions": 4736, "btn": 4737, "feedback": 4738, "preference": 4739, "leav": 4740, "uris": 4741, "ling": 4742, "nv": 4743, "purge": 4744, "selections": 4745, "annotated": 4746, "xff": 4747, "ancer": 4748, "tracking": 4749, "facebook": 4750, "seeds": 4751, "yin": 4752, "detector": 4753, "commerce": 4754, "fifo": 4755, "subtitle": 4756, "minute": 4757, "ae": 4758, "synthe": 4759, "initialization": 4760, "suitable": 4761, "extracts": 4762, "ered": 4763, "yml": 4764, "strconv": 4765, "trimmed": 4766, "ilities": 4767, "avg": 4768, "ftp": 4769, "arm": 4770, "ident": 4771, "analyze": 4772, "dos": 4773, "supple": 4774, "deci": 4775, "devi": 4776, "splash": 4777, "milliseconds": 4778, "infinity": 4779, "tracked": 4780, "expects": 4781, "phan": 4782, "ender": 4783, "unst": 4784, "circ": 4785, "96": 4786, "swi": 4787, "nm": 4788, "webhook": 4789, "plo": 4790, "loan": 4791, "enhance": 4792, "acqui": 4793, "radians": 4794, "vox": 4795, "automat": 4796, "unsigned": 4797, "reporting": 4798, "sudo": 4799, "runn": 4800, "signing": 4801, "chn": 4802, "confid": 4803, "cube": 4804, "batches": 4805, "mtime": 4806, "sat": 4807, "tial": 4808, "observations": 4809, "browsers": 4810, "hyph": 4811, "materi": 4812, "debugging": 4813, "mage": 4814, "adjac": 4815, "stops": 4816, "truncate": 4817, "meter": 4818, "mass": 4819, "semi": 4820, "artifacts": 4821, "unregister": 4822, "cryp": 4823, "skipping": 4824, "gick": 4825, "v3": 4826, "extr": 4827, "orders": 4828, "dag": 4829, "pseu": 4830, "howe": 4831, "however": 4832, "bitr": 4833, "3d": 4834, "gdn": 4835, "moves": 4836, "soup": 4837, "gether": 4838, "stopping": 4839, "convenience": 4840, "dock": 4841, "rather": 4842, "requirement": 4843, "serv": 4844, "discount": 4845, "lax": 4846, "gal": 4847, "nsip": 4848, "effects": 4849, "xso": 4850, "atures": 4851, "prox": 4852, "simply": 4853, "identified": 4854, "publisher": 4855, "higher": 4856, "coerce": 4857, "knx": 4858, "ised": 4859, "mobi": 4860, "trusted": 4861, "26": 4862, "fid": 4863, "observe": 4864, "webdriver": 4865, "counters": 4866, "c2": 4867, "nets": 4868, "discussions": 4869, "conj": 4870, "zend": 4871, "pitch": 4872, "rms": 4873, "automaton": 4874, "ram": 4875, "fetching": 4876, "signatures": 4877, "ace": 4878, "formul": 4879, "28": 4880, "proj": 4881, "thr": 4882, "pseudo": 4883, "unshift": 4884, "versioned": 4885, "ji": 4886, "tolerance": 4887, "problems": 4888, "npm": 4889, "develop": 4890, "together": 4891, "subscriptions": 4892, "toire": 4893, "mechan": 4894, "hyphen": 4895, "freeze": 4896, "addrs": 4897, "crawl": 4898, "sla": 4899, "cv": 4900, "lest": 4901, "dashboard": 4902, "perms": 4903, "lement": 4904, "division": 4905, "2015": 4906, "spline": 4907, "oney": 4908, "victoire": 4909, "ctable": 4910, "environments": 4911, "allocate": 4912, "synchronous": 4913, "xr": 4914, "sem": 4915, "doing": 4916, "executing": 4917, "configurator": 4918, "covariance": 4919, "really": 4920, "copies": 4921, "approx": 4922, "unsafe": 4923, "spo": 4924, "hrf": 4925, "crf": 4926, "afka": 4927, "cores": 4928, "mixin": 4929, "37": 4930, "focused": 4931, "nn": 4932, "waf": 4933, "why": 4934, "prep": 4935, "noise": 4936, "conside": 4937, "classification": 4938, "deriv": 4939, "clen": 4940, "apis": 4941, "plane": 4942, "38": 4943, "pic": 4944, "ush": 4945, "ati": 4946, "wee": 4947, "fitting": 4948, "third": 4949, "defining": 4950, "popbill": 4951, "grab": 4952, "subtree": 4953, "crc": 4954, "strong": 4955, "signals": 4956, "kafka": 4957, "convention": 4958, "tot": 4959, "interpolation": 4960, "jsonrpc": 4961, "memberof": 4962, "insensitive": 4963, "experimental": 4964, "temperature": 4965, "ske": 4966, "boxes": 4967, "viewport": 4968, "lookahead": 4969, "trees": 4970, "setopt": 4971, "enforce": 4972, "oauth2": 4973, "ko": 4974, "copyright": 4975, "shots": 4976, "authorize": 4977, "patches": 4978, "downloaded": 4979, "placeholders": 4980, "validity": 4981, "raster": 4982, "yarpc": 4983, "punctu": 4984, "exi": 4985, "integration": 4986, "paint": 4987, "stamps": 4988, "nor": 4989, "ambig": 4990, "hood": 4991, "ordinal": 4992, "fragments": 4993, "etag": 4994, "tb": 4995, "tokenize": 4996, "spectr": 4997, "localized": 4998, "describ": 4999, "y0": 5000, "shop": 5001, "ari": 5002, "scatter": 5003, "omit": 5004, "pip": 5005, "developer": 5006, "nice": 5007, "cred": 5008, "implicit": 5009, "bag": 5010, "coroutine": 5011, "probably": 5012, "urlen": 5013, "gran": 5014, "sites": 5015, "04": 5016, "sna": 5017, "sic": 5018, "placement": 5019, "fg": 5020, "breadcr": 5021, "underscore": 5022, "exactly": 5023, "512": 5024, "constructs": 5025, "shortcut": 5026, "collapsed": 5027, "soap": 5028, "bots": 5029, "jj": 5030, "jd": 5031, "album": 5032, "episo": 5033, "folds": 5034, "thrown": 5035, "redu": 5036, "gly": 5037, "satisfy": 5038, "dataframe": 5039, "gov": 5040, "timephased": 5041, "a1": 5042, "issu": 5043, "cleo": 5044, "continuation": 5045, "disassociate": 5046, "grun": 5047, "sexp": 5048, "dbsnapshot": 5049, "purch": 5050, "blocked": 5051, "notation": 5052, "instrument": 5053, "unlink": 5054, "runnable": 5055, "qs": 5056, "sprite": 5057, "grunt": 5058, "diam": 5059, "pressure": 5060, "compound": 5061, "texta": 5062, "room": 5063, "lig": 5064, "who": 5065, "jq": 5066, "65": 5067, "29": 5068, "sale": 5069, "t2": 5070, "textarea": 5071, "arbitr": 5072, "05": 5073, "calculation": 5074, "dimensional": 5075, "transformers": 5076, "statuses": 5077, "smaller": 5078, "physi": 5079, "isfile": 5080, "blur": 5081, "mysql": 5082, "seman": 5083, "parenthe": 5084, "persister": 5085, "ancestors": 5086, "software": 5087, "pul": 5088, "conc": 5089, "nf": 5090, "geno": 5091, "zr": 5092, "amqp": 5093, "dbid": 5094, "b58": 5095, "gives": 5096, "multipart": 5097, "manually": 5098, "various": 5099, "minus": 5100, "considered": 5101, "discover": 5102, "websocket": 5103, "bj": 5104, "cron": 5105, "fier": 5106, "hl": 5107, "inclusive": 5108, "readout": 5109, "xdo": 5110, "matter": 5111, "dia": 5112, "synchronize": 5113, "kunst": 5114, "kunstma": 5115, "kunstmaan": 5116, "affi": 5117, "hu": 5118, "resid": 5119, "x00": 5120, "reboot": 5121, "enqueue": 5122, "degree": 5123, "ky": 5124, "reservation": 5125, "finding": 5126, "xxx": 5127, "saf": 5128, "crypto": 5129, "formatting": 5130, "attribs": 5131, "flask": 5132, "alone": 5133, "equation": 5134, "basestring": 5135, "assignable": 5136, "ito": 5137, "traceback": 5138, "online": 5139, "lient": 5140, "cosmo": 5141, "transactions": 5142, "sts": 5143, "ators": 5144, "21": 5145, "propagation": 5146, "proposal": 5147, "ific": 5148, "care": 5149, "oring": 5150, "workspaces": 5151, "tele": 5152, "lia": 5153, "capabilities": 5154, "tf": 5155, "pel": 5156, "synset": 5157, "legend": 5158, "mobile": 5159, "loops": 5160, "friendly": 5161, "squared": 5162, "cancelled": 5163, "onal": 5164, "sun": 5165, "owlax": 5166, "owlaxiom": 5167, "cpu": 5168, "weap": 5169, "weapon": 5170, "rxn": 5171, "caps": 5172, "represented": 5173, "ano": 5174, "toc": 5175, "prim": 5176, "caches": 5177, "say": 5178, "releases": 5179, "sg": 5180, "ai": 5181, "extras": 5182, "protection": 5183, "purchase": 5184, "tipo": 5185, "509": 5186, "android": 5187, "psr": 5188, "countries": 5189, "vpc": 5190, "proof": 5191, "yii": 5192, "advanced": 5193, "occurs": 5194, "enforcer": 5195, "unavailable": 5196, "encoun": 5197, "encountered": 5198, "revoke": 5199, "cgroup": 5200, "300": 5201, "numtype": 5202, "moz": 5203, "consistent": 5204, "stale": 5205, "kg": 5206, "linux": 5207, "velocity": 5208, "simpl": 5209, "across": 5210, "jcd": 5211, "inet": 5212, "alternative": 5213, "hdf": 5214, "bly": 5215, "joined": 5216, "abel": 5217, "psf": 5218, "cuto": 5219, "smart": 5220, "pwd": 5221, "potential": 5222, "sheets": 5223, "observation": 5224, "interpolate": 5225, "repeated": 5226, "cov": 5227, "jed": 5228, "wel": 5229, "xsl": 5230, "thumbna": 5231, "cating": 5232, "onto": 5233, "edm": 5234, "contenttype": 5235, "triangle": 5236, "interpret": 5237, "caching": 5238, "characteris": 5239, "mn": 5240, "eff": 5241, "editable": 5242, "localhost": 5243, "capit": 5244, "displayed": 5245, "rmaj": 5246, "arraycopy": 5247, "orian": 5248, "invisible": 5249, "alization": 5250, "unif": 5251, "bases": 5252, "combo": 5253, "blueprint": 5254, "mechanism": 5255, "concatenate": 5256, "prefixed": 5257, "gray": 5258, "desk": 5259, "gregorian": 5260, "taxonom": 5261, "median": 5262, "areas": 5263, "interceptor": 5264, "atable": 5265, "vor": 5266, "snapshots": 5267, "jedis": 5268, "ani": 5269, "limiti": 5270, "limitidenti": 5271, "limitidentifier": 5272, "punctuation": 5273, "usable": 5274, "sted": 5275, "fla": 5276, "contour": 5277, "gau": 5278, "xo": 5279, "sense": 5280, "though": 5281, "fault": 5282, "deserialization": 5283, "scheduler": 5284, "asynchronously": 5285, "near": 5286, "magick": 5287, "usually": 5288, "compared": 5289, "nam": 5290, "deadline": 5291, "elm": 5292, "xmlerror": 5293, "appends": 5294, "pairwise": 5295, "deal": 5296, "litt": 5297, "quit": 5298, "injector": 5299, "yel": 5300, "intents": 5301, "dims": 5302, "replacements": 5303, "siblings": 5304, "scall": 5305, "zen": 5306, "changelog": 5307, "little": 5308, "guard": 5309, "basedir": 5310, "formula": 5311, "thus": 5312, "making": 5313, "slow": 5314, "articles": 5315, "objective": 5316, "subtype": 5317, "syscall": 5318, "ares": 5319, "happens": 5320, "factories": 5321, "wf": 5322, "tds": 5323, "challen": 5324, "nsp": 5325, "vers": 5326, "compliance": 5327, "strf": 5328, "arbitrary": 5329, "authority": 5330, "van": 5331, "matchers": 5332, "jpeg": 5333, "trait": 5334, "acquire": 5335, "initiate": 5336, "x3": 5337, "yellow": 5338, "ignoring": 5339, "parsers": 5340, "modes": 5341, "mux": 5342, "itation": 5343, "strftime": 5344, "specifies": 5345, "mc": 5346, "backwards": 5347, "years": 5348, "nucleo": 5349, "four": 5350, "broken": 5351, "conflicts": 5352, "iled": 5353, "buckets": 5354, "putility": 5355, "fleet": 5356, "existe": 5357, "places": 5358, "timed": 5359, "setdefault": 5360, "replay": 5361, "deleting": 5362, "violation": 5363, "updater": 5364, "measurement": 5365, "abc": 5366, "partment": 5367, "matical": 5368, "sas": 5369, "streaming": 5370, "sqlite": 5371, "epo": 5372, "clique": 5373, "truncation": 5374, "ach": 5375, "enumerable": 5376, "iteritems": 5377, "development": 5378, "arger": 5379, "positional": 5380, "slack": 5381, "htm": 5382, "180": 5383, "trafficpolicy": 5384, "gop": 5385, "preload": 5386, "gbif": 5387, "spell": 5388, "datepicker": 5389, "invoked": 5390, "away": 5391, "rsa": 5392, "snip": 5393, "uf": 5394, "reversed": 5395, "directed": 5396, "slashes": 5397, "correction": 5398, "listed": 5399, "animate": 5400, "rejected": 5401, "prm": 5402, "reduced": 5403, "rema": 5404, "scoped": 5405, "dem": 5406, "coeff": 5407, "reuse": 5408, "bio": 5409, "ners": 5410, "rst": 5411, "outfile": 5412, "nucleoti": 5413, "failover": 5414, "generating": 5415, "grouping": 5416, "compat": 5417, "shrin": 5418, "alarm": 5419, "rich": 5420, "tube": 5421, "cutoff": 5422, "picture": 5423, "sugges": 5424, "istr": 5425, "scrolling": 5426, "aug": 5427, "agg": 5428, "vey": 5429, "adverti": 5430, "mpputility": 5431, "compe": 5432, "mwp": 5433, "stylesheet": 5434, "perc": 5435, "rem": 5436, "alter": 5437, "enumeration": 5438, "value1": 5439, "labelname": 5440, "mw": 5441, "prime": 5442, "deployed": 5443, "specifier": 5444, "incomplete": 5445, "thumbnail": 5446, "octe": 5447, "repos": 5448, "bench": 5449, "tv": 5450, "pager": 5451, "45": 5452, "slave": 5453, "76": 5454, "timestamps": 5455, "geom": 5456, "intensity": 5457, "dont": 5458, "unauthorized": 5459, "h2": 5460, "writeln": 5461, "mandatory": 5462, "alphabet": 5463, "invoice": 5464, "eig": 5465, "distances": 5466, "stren": 5467, "rat": 5468, "universal": 5469, "perio": 5470, "recursion": 5471, "ja": 5472, "exclusive": 5473, "umed": 5474, "assum": 5475, "epub": 5476, "95": 5477, "issuer": 5478, "ingress": 5479, "meaning": 5480, "csvserver": 5481, "chi": 5482, "prune": 5483, "d2": 5484, "apa": 5485, "couldn": 5486, "navig": 5487, "igned": 5488, "recover": 5489, "performed": 5490, "doctr": 5491, "doctrine": 5492, "crs": 5493, "tensor": 5494, "xm": 5495, "ran": 5496, "jr": 5497, "retain": 5498, "guide": 5499, "summaries": 5500, "jet": 5501, "strength": 5502, "much": 5503, "uis": 5504, "es6": 5505, "retrieved": 5506, "spi": 5507, "circular": 5508, "longest": 5509, "optimize": 5510, "slide": 5511, "aware": 5512, "confirmation": 5513, "dao": 5514, "contacts": 5515, "supplemental": 5516, "saving": 5517, "didn": 5518, "shorth": 5519, "shorthand": 5520, "lowercase": 5521, "needle": 5522, "d1": 5523, "shapes": 5524, "shake": 5525, "choo": 5526, "leaves": 5527, "cookbook": 5528, "tg": 5529, "deleg": 5530, "epoch": 5531, "emitted": 5532, "fld": 5533, "confidence": 5534, "lites": 5535, "oneway": 5536, "spar": 5537, "challenge": 5538, "grammatical": 5539, "brace": 5540, "competing": 5541, "episode": 5542, "indentation": 5543, "divide": 5544, "nao": 5545, "lets": 5546, "deviation": 5547, "merges": 5548, "shares": 5549, "released": 5550, "contiv": 5551, "datasets": 5552, "ndim": 5553, "datasource": 5554, "recognized": 5555, "explo": 5556, "executions": 5557, "eni": 5558, "referrer": 5559, "reci": 5560, "swa": 5561, "orderby": 5562, "lf": 5563, "inder": 5564, "beans": 5565, "udf": 5566, "annotatef": 5567, "attempting": 5568, "paused": 5569, "elli": 5570, "cors": 5571, "ghost": 5572, "groupname": 5573, "collected": 5574, "fixt": 5575, "kers": 5576, "ansi": 5577, "opens": 5578, "administr": 5579, "edits": 5580, "larger": 5581, "particle": 5582, "tier": 5583, "solve": 5584, "passive": 5585, "ctivity": 5586, "shif": 5587, "shi": 5588, "gutter": 5589, "interests": 5590, "lid": 5591, "unded": 5592, "moment": 5593, "ints": 5594, "ased": 5595, "backward": 5596, "reviewing": 5597, "identic": 5598, "probabilities": 5599, "izing": 5600, "arity": 5601, "fed": 5602, "hed": 5603, "lx": 5604, "isk": 5605, "gopter": 5606, "volution": 5607, "popover": 5608, "gger": 5609, "zi": 5610, "notifier": 5611, "normalizer": 5612, "nth": 5613, "indicating": 5614, "blo": 5615, "pil": 5616, "x509": 5617, "backoff": 5618, "timeline": 5619, "identical": 5620, "licenses": 5621, "html5": 5622, "reactor": 5623, "qq": 5624, "genes": 5625, "audits": 5626, "dee": 5627, "prefs": 5628, "fastq": 5629, "cdn": 5630, "bp": 5631, "bitmap": 5632, "reporter": 5633, "bib": 5634, "emo": 5635, "mfa": 5636, "assembly": 5637, "manual": 5638, "pylint": 5639, "indexing": 5640, "metabolites": 5641, "committed": 5642, "vc": 5643, "validators": 5644, "servlet": 5645, "pian": 5646, "pianor": 5647, "pianorol": 5648, "advisor": 5649, "labeling": 5650, "hdu": 5651, "exif": 5652, "occu": 5653, "kms": 5654, "breaks": 5655, "ane": 5656, "aren": 5657, "scipy": 5658, "assumes": 5659, "answ": 5660, "answers": 5661, "vagrant": 5662, "chal": 5663, "pools": 5664, "normalization": 5665, "production": 5666, "babel": 5667, "differences": 5668, "sand": 5669, "thrift": 5670, "mono": 5671, "sessionpolicy": 5672, "l2": 5673, "pinyin": 5674, "brokers": 5675, "occurred": 5676, "rgba": 5677, "migrations": 5678, "fx": 5679, "drive": 5680, "consecu": 5681, "n2": 5682, "dar": 5683, "occ": 5684, "uniform": 5685, "contribut": 5686, "manip": 5687, "p3": 5688, "invi": 5689, "arange": 5690, "rsp": 5691, "verbosity": 5692, "listening": 5693, "cycles": 5694, "wav": 5695, "energy": 5696, "closes": 5697, "physical": 5698, "fasta": 5699, "tle": 5700, "jetty": 5701, "prospect": 5702, "overridden": 5703, "waits": 5704, "searching": 5705, "installer": 5706, "produces": 5707, "consecutive": 5708, "haml": 5709, "gist": 5710, "guar": 5711, "pnp": 5712, "127": 5713, "air": 5714, "gav": 5715, "fc": 5716, "announcement": 5717, "uids": 5718, "accur": 5719, "secondary": 5720, "trunc": 5721, "autoscale": 5722, "communication": 5723, "recurse": 5724, "eli": 5725, "moving": 5726, "concer": 5727, "sass": 5728, "ropy": 5729, "cda": 5730, "hdf5": 5731, "setattr": 5732, "ldml": 5733, "mutate": 5734, "xi": 5735, "dro": 5736, "ught": 5737, "decorate": 5738, "past": 5739, "manipul": 5740, "uploader": 5741, "profilename": 5742, "priv": 5743, "crypt": 5744, "filtering": 5745, "sti": 5746, "bookmark": 5747, "skeleton": 5748, "izations": 5749, "intval": 5750, "webpack": 5751, "aaauser": 5752, "cdaccount": 5753, "abspath": 5754, "subscribers": 5755, "fq": 5756, "faster": 5757, "searches": 5758, "realpath": 5759, "persisted": 5760, "determined": 5761, "street": 5762, "circu": 5763, "possibly": 5764, "querystring": 5765, "stash": 5766, "instructions": 5767, "moder": 5768, "prc": 5769, "uber": 5770, "stacks": 5771, "symbolic": 5772, "vest": 5773, "haplo": 5774, "forced": 5775, "70": 5776, "dismis": 5777, "retrying": 5778, "jquery": 5779, "pressed": 5780, "forb": 5781, "playing": 5782, "vpnclient": 5783, "assist": 5784, "inver": 5785, "phantom": 5786, "xhtml": 5787, "oserror": 5788, "insertion": 5789, "urlencode": 5790, "shown": 5791, "sslcertkey": 5792, "waiter": 5793, "detection": 5794, "ipset": 5795, "questions": 5796, "vp": 5797, "arer": 5798, "likeli": 5799, "likelihood": 5800, "brand": 5801, "dhcp": 5802, "aaaa": 5803, "followed": 5804, "modifications": 5805, "adapt": 5806, "eds": 5807, "bars": 5808, "amin": 5809, "smal": 5810, "packets": 5811, "chalk": 5812, "appfwprofile": 5813, "goto": 5814, "creds": 5815, "money": 5816, "pol": 5817, "kid": 5818, "deprecation": 5819, "locks": 5820, "ridge": 5821, "m2": 5822, "vue": 5823, "stuff": 5824, "proxies": 5825, "cleaned": 5826, "smallest": 5827, "gomock": 5828, "rebuild": 5829, "diagnostic": 5830, "swagger": 5831, "realm": 5832, "translat": 5833, "passes": 5834, "party": 5835, "uploads": 5836, "transmit": 5837, "submitted": 5838, "weak": 5839, "specifications": 5840, "dan": 5841, "autocomplete": 5842, "cds": 5843, "serializable": 5844, "prede": 5845, "hue": 5846, "decim": 5847, "criterion": 5848, "nego": 5849, "sz": 5850, "subscribed": 5851, "weeks": 5852, "applicable": 5853, "oned": 5854, "netmask": 5855, "compressor": 5856, "modifies": 5857, "predecess": 5858, "b64": 5859, "readline": 5860, "warm": 5861, "preconditions": 5862, "wc": 5863, "ambigu": 5864, "excludes": 5865, "sized": 5866, "uring": 5867, "scrol": 5868, "nspbr": 5869, "breadcrumb": 5870, "lexer": 5871, "ech": 5872, "undo": 5873, "several": 5874, "ifies": 5875, "spectrum": 5876, "recommended": 5877, "consistency": 5878, "gar": 5879, "concrete": 5880, "ios": 5881, "apiclient": 5882, "umin": 5883, "rp": 5884, "currencies": 5885, "bearer": 5886, "cty": 5887, "operators": 5888, "buffers": 5889, "logout": 5890, "suggest": 5891, "graphics": 5892, "nabu": 5893, "caught": 5894, "heading": 5895, "uricomponent": 5896, "joint": 5897, "concurrent": 5898, "vanilla": 5899, "circuit": 5900, "vk": 5901, "unwrap": 5902, "fresh": 5903, "seo": 5904, "stalk": 5905, "changing": 5906, "continuous": 5907, "clet": 5908, "heap": 5909, "moun": 5910, "03": 5911, "rstrip": 5912, "giving": 5913, "redirects": 5914, "tailed": 5915, "clusternode": 5916, "jus": 5917, "ngram": 5918, "hopopt": 5919, "manif": 5920, "mismatch": 5921, "quot": 5922, "stable": 5923, "a2": 5924, "compares": 5925, "coder": 5926, "principals": 5927, "bookmarks": 5928, "maintain": 5929, "decimals": 5930, "entially": 5931, "floating": 5932, "int8": 5933, "dialect": 5934, "smtp": 5935, "reducer": 5936, "beanstalk": 5937, "apache": 5938, "datapo": 5939, "mator": 5940, "pes": 5941, "w3": 5942, "symmetric": 5943, "central": 5944, "clnt": 5945, "matrices": 5946, "cel": 5947, "had": 5948, "gered": 5949, "mes": 5950, "shipping": 5951, "verifier": 5952, "canceled": 5953, "labele": 5954, "labeled": 5955, "corner": 5956, "negoti": 5957, "convolution": 5958, "gender": 5959, "satisfi": 5960, "metri": 5961, "scales": 5962, "hack": 5963, "frozen": 5964, "goes": 5965, "subscriber": 5966, "asarray": 5967, "layouts": 5968, "testing": 5969, "removal": 5970, "queryset": 5971, "aborted": 5972, "xss": 5973, "fastlane": 5974, "clic": 5975, "wirevector": 5976, "metrictable": 5977, "sms": 5978, "reachable": 5979, "bre": 5980, "pathinfo": 5981, "gri": 5982, "adjusted": 5983, "deployments": 5984, "offline": 5985, "profil": 5986, "mvc": 5987, "periods": 5988, "regenerate": 5989, "limited": 5990, "interactive": 5991, "handshake": 5992, "specialized": 5993, "wsdl": 5994, "shrinker": 5995, "iiif": 5996, "classic": 5997, "walker": 5998, "metas": 5999, "pdb": 6000, "auditns": 6001, "auditnslogpolicy": 6002, "assumed": 6003, "hh": 6004, "tempfile": 6005, "detailed": 6006, "qr": 6007, "inheritance": 6008, "bgp": 6009, "cidr": 6010, "servicegroupname": 6011, "ever": 6012, "fips": 6013, "destroyed": 6014, "dog": 6015, "minator": 6016, "visual": 6017, "prag": 6018, "ku": 6019, "op2": 6020, "restriction": 6021, "sorts": 6022, "ye": 6023, "kuber": 6024, "kuberne": 6025, "kubernetes": 6026, "invalidate": 6027, "timedelta": 6028, "seems": 6029, "disconnected": 6030, "extname": 6031, "getenv": 6032, "sci": 6033, "iable": 6034, "keydown": 6035, "mol": 6036, "newer": 6037, "ticket": 6038, "sink": 6039, "raml": 6040, "wlm": 6041, "packed": 6042, "nonnull": 6043, "sentin": 6044, "value2": 6045, "approxim": 6046, "readonly": 6047, "ctives": 6048, "10000": 6049, "nesting": 6050, "credit": 6051, "strop": 6052, "strophe": 6053, "cash": 6054, "ons": 6055, "older": 6056, "mbean": 6057, "activated": 6058, "express": 6059, "literals": 6060, "reorder": 6061, "shrink": 6062, "delayed": 6063, "edbobject": 6064, "transparent": 6065, "subtract": 6066, "archite": 6067, "wide": 6068, "acceptable": 6069, "backups": 6070, "tld": 6071, "unbind": 6072, "ational": 6073, "vxlan": 6074, "located": 6075, "triggered": 6076, "featured": 6077, "poses": 6078, "revert": 6079, "foreignkey": 6080, "keyname": 6081, "incorrect": 6082, "ipt": 6083, "newly": 6084, "verified": 6085, "ball": 6086, "correspond": 6087, "vary": 6088, "macro": 6089, "independ": 6090, "cop": 6091, "97": 6092, "superclass": 6093, "protobuf": 6094, "relay": 6095, "macar": 6096, "evaluator": 6097, "largest": 6098, "56": 6099, "iri": 6100, "orial": 6101, "survey": 6102, "pragma": 6103, "payer": 6104, "silon": 6105, "dynamo": 6106, "fixme": 6107, "alternate": 6108, "b1": 6109, "etree": 6110, "wg": 6111, "blocklist": 6112, "cyan": 6113, "prise": 6114, "nickname": 6115, "spatial": 6116, "caas": 6117, "colori": 6118, "die": 6119, "transitions": 6120, "indice": 6121, "jobject": 6122, "exclusion": 6123, "integers": 6124, "ances": 6125, "zones": 6126, "sometimes": 6127, "99999999": 6128, "indy": 6129, "fox": 6130, "revisions": 6131, "substitution": 6132, "linjection": 6133, "overload": 6134, "pianoroll": 6135, "carry": 6136, "playback": 6137, "corrup": 6138, "wit": 6139, "bable": 6140, "spin": 6141, "intran": 6142, "rounds": 6143, "maxresults": 6144, "elt": 6145, "cni": 6146, "epsilon": 6147, "renamed": 6148, "balancer": 6149, "storing": 6150, "chip": 6151, "replic": 6152, "49": 6153, "isdir": 6154, "hierarchical": 6155, "egg": 6156, "leader": 6157, "justifi": 6158, "configurable": 6159, "fired": 6160, "internally": 6161, "quota": 6162, "ados": 6163, "adjacent": 6164, "cros": 6165, "splitext": 6166, "lake": 6167, "substitute": 6168, "independent": 6169, "ij": 6170, "p0": 6171, "avro": 6172, "paginate": 6173, "coding": 6174, "ote": 6175, "slices": 6176, "throt": 6177, "chnk": 6178, "findall": 6179, "rounding": 6180, "downloads": 6181, "preced": 6182, "ora": 6183, "weigh": 6184, "invite": 6185, "prebuilt": 6186, "transpose": 6187, "signific": 6188, "asynchronous": 6189, "odd": 6190, "ipop": 6191, "subnets": 6192, "lout": 6193, "inactive": 6194, "snake": 6195, "fonts": 6196, "analyzed": 6197, "navigator": 6198, "a0": 6199, "policyname": 6200, "spam": 6201, "ctypes": 6202, "uca": 6203, "speech": 6204, "backdrop": 6205, "weighted": 6206, "amico": 6207, "dex": 6208, "firefox": 6209, "databases": 6210, "enterprise": 6211, "blk": 6212, "fluxes": 6213, "waveform": 6214, "restr": 6215, "paragraphs": 6216, "printer": 6217, "aper": 6218, "prefetch": 6219, "lbmonitor": 6220, "uv": 6221, "fee": 6222, "analyzer": 6223, "z1": 6224, "sippr": 6225, "callsign": 6226, "printed": 6227, "twice": 6228, "generators": 6229, "resets": 6230, "perf": 6231, "markers": 6232, "predictions": 6233, "instantiation": 6234, "dbsecurity": 6235, "asp": 6236, "replacing": 6237, "fingerprint": 6238, "wanted": 6239, "finalize": 6240, "rebalance": 6241, "dictionaries": 6242, "ention": 6243, "readdir": 6244, "lessaccess": 6245, "dnss": 6246, "unescape": 6247, "tiles": 6248, "consumers": 6249, "cachepolicy": 6250, "strand": 6251, "compartment": 6252, "mlmodel": 6253, "letters": 6254, "artist": 6255, "javab": 6256, "javabridge": 6257, "cio": 6258, "indirection": 6259, "acls": 6260, "gable": 6261, "interrupt": 6262, "mocks": 6263, "concern": 6264, "startup": 6265, "peop": 6266, "connecting": 6267, "drain": 6268, "remainder": 6269, "parens": 6270, "nstates": 6271, "redshift": 6272, "qa": 6273, "subsystem": 6274, "glyph": 6275, "overview": 6276, "autoload": 6277, "chooser": 6278, "bst": 6279, "shp": 6280, "locking": 6281, "therefore": 6282, "ctively": 6283, "encodes": 6284, "cascade": 6285, "constru": 6286, "accumul": 6287, "respe": 6288, "bud": 6289, "microsoft": 6290, "inx": 6291, "rtrim": 6292, "described": 6293, "equality": 6294, "rid": 6295, "rede": 6296, "searchable": 6297, "appq": 6298, "appqoe": 6299, "bypass": 6300, "bn": 6301, "ecc": 6302, "parameterized": 6303, "diagnostics": 6304, "evaluated": 6305, "worksheet": 6306, "specifying": 6307, "taxonomy": 6308, "mini": 6309, "people": 6310, "restric": 6311, "crit": 6312, "maturi": 6313, "unction": 6314, "vrid": 6315, "gw": 6316, "dots": 6317, "contextual": 6318, "detached": 6319, "enta": 6320, "videos": 6321, "periodic": 6322, "retrieving": 6323, "derive": 6324, "behaviour": 6325, "rss": 6326, "flattened": 6327, "macaro": 6328, "jsx": 6329, "consen": 6330, "consensus": 6331, "converting": 6332, "fileng": 6333, "syslog": 6334, "401": 6335, "cust": 6336, "contrib": 6337, "07": 6338, "auditsys": 6339, "auditsyslogpolicy": 6340, "connectivity": 6341, "emul": 6342, "quar": 6343, "authenticationvserver": 6344, "ymin": 6345, "fork": 6346, "qualifier": 6347, "unzip": 6348, "ancy": 6349, "scans": 6350, "kb": 6351, "los": 6352, "erlang": 6353, "47": 6354, "bare": 6355, "house": 6356, "hang": 6357, "computation": 6358, "601": 6359, "2006": 6360, "outgoing": 6361, "xl": 6362, "cen": 6363, "applying": 6364, "pyrtl": 6365, "ics": 6366, "species": 6367, "vable": 6368, "dispose": 6369, "chdir": 6370, "award": 6371, "formation": 6372, "wrapping": 6373, "voldem": 6374, "voldemort": 6375, "precedence": 6376, "eu": 6377, "frac": 6378, "stick": 6379, "themes": 6380, "denied": 6381, "pipes": 6382, "exporter": 6383, "wildcards": 6384, "becomes": 6385, "olds": 6386, "pct": 6387, "classpath": 6388, "allocation": 6389, "erb": 6390, "fis": 6391, "opcode": 6392, "displays": 6393, "inds": 6394, "polar": 6395, "forbidden": 6396, "decorators": 6397, "wic": 6398, "semicolon": 6399, "propagate": 6400, "gather": 6401, "cident": 6402, "shows": 6403, "nstr": 6404, "hydrator": 6405, "chosen": 6406, "xw": 6407, "formatters": 6408, "absent": 6409, "ioutil": 6410, "seller": 6411, "pointers": 6412, "heart": 6413, "trg": 6414, "primer": 6415, "bias": 6416, "infinite": 6417, "x7": 6418, "gif": 6419, "gpu": 6420, "bub": 6421, "robots": 6422, "validations": 6423, "genotype": 6424, "grpc": 6425, "tgt": 6426, "derivative": 6427, "combinations": 6428, "exceeded": 6429, "rw": 6430, "tech": 6431, "vpnclientlessaccess": 6432, "multiplier": 6433, "forwarding": 6434, "rna": 6435, "appender": 6436, "46": 6437, "domin": 6438, "jct": 6439, "xmin": 6440, "kwic": 6441, "deno": 6442, "shuff": 6443, "scratch": 6444, "hasher": 6445, "plotlib": 6446, "lost": 6447, "yyyy": 6448, "consumed": 6449, "nz": 6450, "ulary": 6451, "augment": 6452, "hq": 6453, "tut": 6454, "succeeded": 6455, "codepoint": 6456, "ond": 6457, "mediote": 6458, "lua": 6459, "atten": 6460, "supply": 6461, "gold": 6462, "descricao": 6463, "accounting": 6464, "sentinel": 6465, "s0": 6466, "matplotlib": 6467, "directives": 6468, "tin": 6469, "sqr": 6470, "ascending": 6471, "jpa": 6472, "nolint": 6473, "89": 6474, "cial": 6475, "exposed": 6476, "fills": 6477, "ucfirst": 6478, "validating": 6479, "standalone": 6480, "ofnet": 6481, "wires": 6482, "zmq": 6483, "ctype": 6484, "inp": 6485, "contr": 6486, "rnat": 6487, "auditable": 6488, "gslbservice": 6489, "42": 6490, "zzle": 6491, "requis": 6492, "prepares": 6493, "asyncio": 6494, "monitoring": 6495, "multiply": 6496, "desktop": 6497, "dying": 6498, "mult": 6499, "vocabulary": 6500, "f0": 6501, "vcf": 6502, "objs": 6503, "invert": 6504, "dename": 6505, "o1": 6506, "fuzz": 6507, "reported": 6508, "permitted": 6509, "slop": 6510, "vera": 6511, "stab": 6512, "colspan": 6513, "snippet": 6514, "gm": 6515, "forget": 6516, "environs": 6517, "plur": 6518, "agents": 6519, "stud": 6520, "sation": 6521, "lr": 6522, "expiry": 6523, "8601": 6524, "motion": 6525, "thead": 6526, "iam": 6527, "v0": 6528, "hqmf": 6529, "clusterinstance": 6530, "lxd": 6531, "homo": 6532, "yn": 6533, "gavc": 6534, "characteristic": 6535, "subst": 6536, "i2": 6537, "cv2": 6538, "arp": 6539, "plen": 6540, "coral": 6541, "ciph": 6542, "assistant": 6543, "destport": 6544, "manifold": 6545, "phpcs": 6546, "enclosing": 6547, "truncated": 6548, "purpose": 6549, "gettype": 6550, "natural": 6551, "wy": 6552, "granted": 6553, "communic": 6554, "hosted": 6555, "genome": 6556, "irc": 6557, "clears": 6558, "nstraf": 6559, "nstraffic": 6560, "nstrafficdomain": 6561, "symlink": 6562, "retention": 6563, "structured": 6564, "expansion": 6565, "engines": 6566, "firebase": 6567, "cspolicy": 6568, "contra": 6569, "standar": 6570, "corbel": 6571, "b2": 6572, "aligned": 6573, "drush": 6574, "h1": 6575, "ember": 6576, "zoo": 6577, "treated": 6578, "verifies": 6579, "constructed": 6580, "ya": 6581, "forever": 6582, "ivar": 6583, "upgra": 6584, "an2": 6585, "index1": 6586, "reqs": 6587, "certs": 6588, "ua": 6589, "reme": 6590, "selects": 6591, "1000000": 6592, "identificad": 6593, "identificador": 6594, "titu": 6595, "aliased": 6596, "affili": 6597, "produced": 6598, "allowlist": 6599, "webkit": 6600, "jsonresponse": 6601, "cdt": 6602, "website": 6603, "populated": 6604, "stars": 6605, "prece": 6606, "fft": 6607, "deepcopy": 6608, "paging": 6609, "preprocessor": 6610, "plans": 6611, "systemglobal": 6612, "shield": 6613, "acct": 6614, "surn": 6615, "sie": 6616, "disposition": 6617, "arily": 6618, "uwsgi": 6619, "suggestions": 6620, "stra": 6621, "polyno": 6622, "semantic": 6623, "elife": 6624, "rights": 6625, "wfn": 6626, "r0": 6627, "ffi": 6628, "jsonarray": 6629, "alleles": 6630, "awserr": 6631, "bloco": 6632, "treatment": 6633, "boundaries": 6634, "alerts": 6635, "narrow": 6636, "road": 6637, "ague": 6638, "surname": 6639, "informed": 6640, "basis": 6641, "fullpath": 6642, "shouldn": 6643, "residual": 6644, "players": 6645, "kept": 6646, "occup": 6647, "coeffs": 6648, "recs": 6649, "smarti": 6650, "smartirc": 6651, "bid": 6652, "medioteca": 6653, "errback": 6654, "collab": 6655, "cumul": 6656, "sandbox": 6657, "decrement": 6658, "xp": 6659, "courses": 6660, "ymax": 6661, "charge": 6662, "requester": 6663, "regression": 6664, "squares": 6665, "internet": 6666, "2000": 6667, "pep": 6668, "assuming": 6669, "strtoupper": 6670, "anode": 6671, "tried": 6672, "dnszone": 6673, "impro": 6674, "scenarios": 6675, "ambiguous": 6676, "angles": 6677, "procedures": 6678, "cers": 6679, "keyspace": 6680, "evene": 6681, "xmax": 6682, "ntp": 6683, "dnspolicy": 6684, "rio": 6685, "edition": 6686, "jpg": 6687, "cion": 6688, "199": 6689, "08": 6690, "banner": 6691, "overwritten": 6692, "associative": 6693, "decide": 6694, "accent": 6695, "subclasses": 6696, "platforms": 6697, "chef": 6698, "jrdesign": 6699, "dbinstances": 6700, "overlaps": 6701, "ante": 6702, "urllib": 6703, "naming": 6704, "modifiable": 6705, "duplicated": 6706, "hands": 6707, "indirect": 6708, "structures": 6709, "ota": 6710, "urne": 6711, "opl": 6712, "restrictions": 6713, "carri": 6714, "separators": 6715, "ive": 6716, "few": 6717, "rpos": 6718, "mgmt": 6719, "snow": 6720, "aege": 6721, "aegean": 6722, "qpi": 6723, "chunked": 6724, "disp": 6725, "frontend": 6726, "esc": 6727, "thre": 6728, "factors": 6729, "icons": 6730, "trip": 6731, "hd": 6732, "ifiers": 6733, "foot": 6734, "incremental": 6735, "heartbeat": 6736, "360": 6737, "reln": 6738, "capability": 6739, "tou": 6740, "anno": 6741, "grp": 6742, "shuffle": 6743, "probe": 6744, "functionality": 6745, "cloned": 6746, "exts": 6747, "joins": 6748, "adapters": 6749, "route6": 6750, "titles": 6751, "ligh": 6752, "omega": 6753, "tmpl": 6754, "divid": 6755, "ifi": 6756, "bered": 6757, "maven": 6758, "knot": 6759, "similarity": 6760, "upstream": 6761, "nslimitidentifier": 6762, "league": 6763, "exon": 6764, "mgr": 6765, "ically": 6766, "rounded": 6767, "86": 6768, "optimization": 6769, "masks": 6770, "undef": 6771, "recipients": 6772, "plaintext": 6773, "shallow": 6774, "plevel": 6775, "lut": 6776, "facets": 6777, "gues": 6778, "stackoverflow": 6779, "overall": 6780, "iff": 6781, "minimal": 6782, "datastore": 6783, "key2": 6784, "voxel": 6785, "propel": 6786, "tabbable": 6787, "imagin": 6788, "hoist": 6789, "xxxx": 6790, "lacon": 6791, "laconic": 6792, "subgal": 6793, "aaagroup": 6794, "inverted": 6795, "fieldname": 6796, "hashed": 6797, "cmap": 6798, "clauses": 6799, "vities": 6800, "actors": 6801, "acess": 6802, "macaroon": 6803, "copying": 6804, "upsert": 6805, "decid": 6806, "toast": 6807, "sortable": 6808, "recognizer": 6809, "taking": 6810, "delimited": 6811, "initiated": 6812, "bles": 6813, "fm": 6814, "tutorial": 6815, "itter": 6816, "signer": 6817, "lain": 6818, "construction": 6819, "00000000": 6820, "analyses": 6821, "drawing": 6822, "infile": 6823, "latency": 6824, "crawler": 6825, "plist": 6826, "rates": 6827, "evi": 6828, "kma": 6829, "xion": 6830, "k1": 6831, "2013": 6832, "capitalize": 6833, "classify": 6834, "camelize": 6835, "descending": 6836, "performing": 6837, "assigns": 6838, "ues": 6839, "embedding": 6840, "brid": 6841, "reversible": 6842, "renew": 6843, "mutations": 6844, "submodule": 6845, "subdom": 6846, "lp": 6847, "lm": 6848, "umbs": 6849, "infohash": 6850, "ats": 6851, "ents": 6852, "automatic": 6853, "esti": 6854, "responderpolicy": 6855, "polynomi": 6856, "portion": 6857, "isation": 6858, "emails": 6859, "concurrency": 6860, "wkt": 6861, "matic": 6862, "appended": 6863, "stride": 6864, "postfix": 6865, "descendant": 6866, "ming": 6867, "maturity": 6868, "buy": 6869, "cha": 6870, "sensor": 6871, "intranet": 6872, "intranetapplication": 6873, "payloads": 6874, "cmds": 6875, "photoset": 6876, "authn": 6877, "rts": 6878, "netprofile": 6879, "nba": 6880, "rpm": 6881, "xbin": 6882, "stealer": 6883, "oplus": 6884, "downloading": 6885, "ens": 6886, "noinspection": 6887, "pure": 6888, "sph": 6889, "lnk": 6890, "discri": 6891, "consul": 6892, "rval": 6893, "perman": 6894, "permanent": 6895, "chains": 6896, "restricted": 6897, "privi": 6898, "dsn": 6899, "manial": 6900, "owners": 6901, "3333": 6902, "z2": 6903, "destip": 6904, "treebank": 6905, "dv": 6906, "postcode": 6907, "graphs": 6908, "eta": 6909, "aggregated": 6910, "sbmodel": 6911, "asing": 6912, "coefficients": 6913, "overrid": 6914, "recogni": 6915, "recognize": 6916, "55": 6917, "125": 6918, "causes": 6919, "opener": 6920, "izes": 6921, "unmodifiable": 6922, "recaptcha": 6923, "risk": 6924, "bm": 6925, "elementslib": 6926, "dotted": 6927, "xrange": 6928, "painter": 6929, "ciphers": 6930, "userdata": 6931, "chmod": 6932, "noop": 6933, "anchors": 6934, "boo": 6935, "diameter": 6936, "nucleotides": 6937, "describes": 6938, "popen": 6939, "statistic": 6940, "timeouts": 6941, "pkt": 6942, "fuzzy": 6943, "thop": 6944, "votes": 6945, "zh": 6946, "lating": 6947, "uel": 6948, "storm": 6949, "ering": 6950, "chemy": 6951, "topo": 6952, "colorize": 6953, "rip": 6954, "srcport": 6955, "gv": 6956, "contracts": 6957, "predicates": 6958, "hasn": 6959, "filesize": 6960, "company": 6961, "bower": 6962, "pubsub": 6963, "fps": 6964, "spotify": 6965, "campa": 6966, "nexthop": 6967, "mastercfg": 6968, "loqu": 6969, "pf": 6970, "i1": 6971, "tempo": 6972, "wur": 6973, "declaring": 6974, "tdc": 6975, "orb": 6976, "invok": 6977, "operating": 6978, "silently": 6979, "xmlns": 6980, "1d": 6981, "liers": 6982, "vola": 6983, "spy": 6984, "errorcode": 6985, "normally": 6986, "decoding": 6987, "sors": 6988, "fopen": 6989, "sess": 6990, "c0": 6991, "breaker": 6992, "privile": 6993, "servic": 6994, "servicename": 6995, "turns": 6996, "lix": 6997, "terminated": 6998, "typo": 6999, "alchemy": 7000, "sslvserver": 7001, "experiment": 7002, "iface": 7003, "crosstab": 7004, "identities": 7005, "201": 7006, "filt": 7007, "activities": 7008, "debugger": 7009, "vcard": 7010, "isolation": 7011, "decidim": 7012, "danger": 7013, "fclose": 7014, "nonzero": 7015, "night": 7016, "variation": 7017, "outline": 7018, "pickle": 7019, "ctl": 7020, "neighbour": 7021, "illumin": 7022, "loquent": 7023, "rotated": 7024, "browse": 7025, "xlink": 7026, "linter": 7027, "traver": 7028, "eigen": 7029, "gslbsite": 7030, "lv": 7031, "tone": 7032, "pif": 7033, "multiline": 7034, "percenti": 7035, "ctures": 7036, "sidebar": 7037, "enhanced": 7038, "mxmap": 7039, "splitter": 7040, "directions": 7041, "3600": 7042, "popper": 7043, "trash": 7044, "describing": 7045, "aut": 7046, "timers": 7047, "rit": 7048, "obsole": 7049, "i18ns": 7050, "nsip6": 7051, "m1": 7052, "grand": 7053, "confound": 7054, "tells": 7055, "keyed": 7056, "ital": 7057, "respect": 7058, "benchmark": 7059, "spil": 7060, "dsl": 7061, "l1": 7062, "propor": 7063, "cobra": 7064, "sharing": 7065, "sockets": 7066, "responsive": 7067, "meters": 7068, "ath": 7069, "amd": 7070, "l3": 7071, "eloquent": 7072, "uffix": 7073, "dto": 7074, "connects": 7075, "nbsp": 7076, "formato": 7077, "td1": 7078, "unmatched": 7079, "ately": 7080, "workaround": 7081, "curly": 7082, "wares": 7083, "dropped": 7084, "spillover": 7085, "jsh": 7086, "perobs": 7087, "migrate": 7088, "fitted": 7089, "fluent": 7090, "importer": 7091, "kee": 7092, "72": 7093, "allocated": 7094, "istan": 7095, "istanbul": 7096, "cod": 7097, "fobj": 7098, "sphinx": 7099, "metabolite": 7100, "rtn": 7101, "constructors": 7102, "structs": 7103, "bitwidth": 7104, "midi": 7105, "tmpdir": 7106, "sslcrl": 7107, "obsolete": 7108, "dnsaction": 7109, "eth": 7110, "ables": 7111, "chk": 7112, "slider": 7113, "pron": 7114, "etcd": 7115, "v20": 7116, "tur": 7117, "k8": 7118, "doctype": 7119, "serializes": 7120, "aker": 7121, "id2": 7122, "breakpoint": 7123, "aster": 7124, "protocols": 7125, "ipv6address": 7126, "established": 7127, "nameserver": 7128, "lsx": 7129, "keeping": 7130, "zipfile": 7131, "cgi": 7132, "han": 7133, "stationary": 7134, "fetcher": 7135, "voice": 7136, "aclname": 7137, "ont": 7138, "zf": 7139, "tan": 7140, "v2logging": 7141, "wheres": 7142, "logo": 7143, "smarty": 7144, "chimp": 7145, "solid": 7146, "appears": 7147, "functional": 7148, "weet": 7149, "intended": 7150, "keeper": 7151, "showing": 7152, "accessed": 7153, "east": 7154, "toplevel": 7155, "x80": 7156, "guarante": 7157, "nvgraph": 7158, "remedi": 7159, "vhost": 7160, "phas": 7161, "synced": 7162, "secs": 7163, "planned": 7164, "hsl": 7165, "06": 7166, "acting": 7167, "bandwidth": 7168, "phar": 7169, "dark": 7170, "axio": 7171, "axioms": 7172, "synthetic": 7173, "maxlen": 7174, "onerror": 7175, "localization": 7176, "quant": 7177, "sbjct": 7178, "installment": 7179, "shipment": 7180, "selves": 7181, "sku": 7182, "diagram": 7183, "pbkey": 7184, "hover": 7185, "strrpos": 7186, "observers": 7187, "truth": 7188, "pkcs": 7189, "comes": 7190, "ascent": 7191, "north": 7192, "occuren": 7193, "escap": 7194, "arec": 7195, "subdir": 7196, "qpart": 7197, "lodash": 7198, "tbl": 7199, "schemes": 7200, "cumulative": 7201, "presentation": 7202, "constrain": 7203, "staging": 7204, "translatable": 7205, "ym": 7206, "4j": 7207, "scroller": 7208, "icmp": 7209, "manu": 7210, "fout": 7211, "requesting": 7212, "covered": 7213, "uintptr": 7214, "wbs": 7215, "resolving": 7216, "plots": 7217, "enumerator": 7218, "stu": 7219, "analog": 7220, "lstrip": 7221, "vb": 7222, "symfon": 7223, "ili": 7224, "acle": 7225, "nie": 7226, "cmppolicy": 7227, "campaign": 7228, "53": 7229, "pmd": 7230, "izable": 7231, "thelia": 7232, "coer": 7233, "lis": 7234, "manialink": 7235, "shutil": 7236, "mz": 7237, "blocksize": 7238, "uncertain": 7239, "presenter": 7240, "enhancer": 7241, "twitter": 7242, "segmentation": 7243, "parenthesis": 7244, "latin": 7245, "int16": 7246, "f1": 7247, "probs": 7248, "bor": 7249, "ada": 7250, "upcase": 7251, "bt": 7252, "configures": 7253, "ising": 7254, "significant": 7255, "uppercase": 7256, "corresponds": 7257, "tol": 7258, "sslcipher": 7259, "tbody": 7260, "holding": 7261, "explanations": 7262, "toolbar": 7263, "point2d": 7264, "hexa": 7265, "index2": 7266, "lease": 7267, "loopa": 7268, "loopable": 7269, "enableresources": 7270, "chord": 7271, "readme": 7272, "xref": 7273, "hor": 7274, "bur": 7275, "fac": 7276, "adresses": 7277, "sze": 7278, "wurfl": 7279, "cities": 7280, "manufact": 7281, "mro": 7282, "carte": 7283, "middlewares": 7284, "recall": 7285, "pluck": 7286, "ssa": 7287, "oracle": 7288, "regar": 7289, "regard": 7290, "ible": 7291, "clipped": 7292, "lelement": 7293, "existence": 7294, "idem": 7295, "chance": 7296, "soon": 7297, "interim": 7298, "forma": 7299, "numbered": 7300, "spark": 7301, "jas": 7302, "alternati": 7303, "disks": 7304, "mailer": 7305, "disableresources": 7306, "arg1": 7307, "movement": 7308, "kcdaccount": 7309, "pkey": 7310, "nsacl6": 7311, "market": 7312, "icu": 7313, "netp": 7314, "padded": 7315, "decrease": 7316, "ipv6prefix": 7317, "mcs": 7318, "enables": 7319, "ip6": 7320, "mixins": 7321, "injected": 7322, "overl": 7323, "clamp": 7324, "fires": 7325, "symfony": 7326, "incident": 7327, "p4": 7328, "itoa": 7329, "bands": 7330, "linspace": 7331, "nexus": 7332, "interactions": 7333, "unsubscribe": 7334, "sanitized": 7335, "ham": 7336, "printing": 7337, "pai": 7338, "09": 7339, "mgo": 7340, "unrecognized": 7341, "t0": 7342, "presets": 7343, "hexadecimal": 7344, "appfwpolicy": 7345, "contribu": 7346, "shards": 7347, "corrupted": 7348, "sounds": 7349, "pv": 7350, "shel": 7351, "diagonal": 7352, "drawable": 7353, "binder": 7354, "recording": 7355, "linalg": 7356, "dynamically": 7357, "improper": 7358, "ities": 7359, "namespaced": 7360, "conversation": 7361, "hf": 7362, "utcdate": 7363, "proportion": 7364, "pysv": 7365, "accuracy": 7366, "locally": 7367, "bf": 7368, "overtime": 7369, "chine": 7370, "chinese": 7371, "dpt": 7372, "swipe": 7373, "odb": 7374, "base58": 7375, "newlines": 7376, "comparer": 7377, "territ": 7378, "passwords": 7379, "howler": 7380, "acl6name": 7381, "sslservicegroup": 7382, "ctn": 7383, "toks": 7384, "chomp": 7385, "redund": 7386, "sibility": 7387, "evaluates": 7388, "exceeds": 7389, "constanti": 7390, "kine": 7391, "expose": 7392, "his": 7393, "club": 7394, "xception": 7395, "folded": 7396, "eras": 7397, "deny": 7398, "ox": 7399, "organizations": 7400, "balan": 7401, "zlib": 7402, "ciphertext": 7403, "smb": 7404, "prompts": 7405, "6666": 7406, "daily": 7407, "403": 7408, "fan": 7409, "decrypted": 7410, "publishing": 7411, "kr": 7412, "postings": 7413, "uite": 7414, "tif": 7415, "initialise": 7416, "segs": 7417, "gul": 7418, "bourne": 7419, "traces": 7420, "tracef": 7421, "sslfips": 7422, "easily": 7423, "homepage": 7424, "rek": 7425, "clob": 7426, "overlapping": 7427, "jshint": 7428, "diffs": 7429, "expecting": 7430, "transformpolicy": 7431, "protect": 7432, "f2": 7433, "cpecomponent": 7434, "unchanged": 7435, "complement": 7436, "octets": 7437, "sentry": 7438, "dac": 7439, "gradebook": 7440, "ledge": 7441, "operands": 7442, "fixing": 7443, "discrete": 7444, "wants": 7445, "typing": 7446, "multiprocessing": 7447, "suspend": 7448, "strtotime": 7449, "nside": 7450, "pricing": 7451, "entail": 7452, "tolerate": 7453, "melbourne": 7454, "op1": 7455, "opaque": 7456, "pathlib": 7457, "pout": 7458, "receipt": 7459, "rekord": 7460, "imap": 7461, "seper": 7462, "obtains": 7463, "placed": 7464, "fade": 7465, "82": 7466, "k8s": 7467, "prepar": 7468, "approved": 7469, "completely": 7470, "runlock": 7471, "refe": 7472, "measurements": 7473, "mpeg": 7474, "assem": 7475, "listdir": 7476, "stm": 7477, "providing": 7478, "gdata": 7479, "authenticator": 7480, "gems": 7481, "ecs": 7482, "clog": 7483, "dpo": 7484, "tregex": 7485, "contrast": 7486, "hid": 7487, "mounted": 7488, "wx": 7489, "synsets": 7490, "bait": 7491, "thin": 7492, "nssimple": 7493, "imgur": 7494, "entailment": 7495, "gulp": 7496, "decodes": 7497, "touched": 7498, "estimated": 7499, "compiles": 7500, "cdf": 7501, "indented": 7502, "constantize": 7503, "editing": 7504, "codecs": 7505, "hexdigest": 7506, "obj2": 7507, "rlock": 7508, "chromo": 7509, "chromosome": 7510, "tel": 7511, "c3": 7512, "safely": 7513, "ipopo": 7514, "ivars": 7515, "slope": 7516, "remediation": 7517, "flavor": 7518, "filterpolicy": 7519, "escaping": 7520, "movie": 7521, "corre": 7522, "interceptors": 7523, "vowel": 7524, "getcwd": 7525, "grep": 7526, "opcodes": 7527, "adjacency": 7528, "animations": 7529, "forge": 7530, "evenement": 7531, "imaginary": 7532, "accessors": 7533, "participants": 7534, "agen": 7535, "finfo": 7536, "portop": 7537, "whenever": 7538, "aw": 7539, "pronac": 7540, "groupby": 7541, "volatility": 7542, "whate": 7543, "whatever": 7544, "okhttp": 7545, "openssl": 7546, "argparse": 7547, "rewind": 7548, "artifactory": 7549, "grants": 7550, "sufficient": 7551, "ico": 7552, "69": 7553, "visu": 7554, "molec": 7555, "63": 7556, "recognition": 7557, "jasper": 7558, "psis": 7559, "cfgs": 7560, "1234": 7561, "nes": 7562, "gob": 7563, "simplify": 7564, "smoo": 7565, "badge": 7566, "abbre": 7567, "abbrevi": 7568, "tename": 7569, "navigate": 7570, "lian": 7571, "sslciphers": 7572, "sslciphersuite": 7573, "ich": 7574, "leap": 7575, "trade": 7576, "hmat": 7577, "fitness": 7578, "outfilename": 7579, "xdoclet": 7580, "gslbvserver": 7581, "easier": 7582, "squareup": 7583, "exiting": 7584, "tro": 7585, "oboe": 7586, "ensem": 7587, "pobs": 7588, "postal": 7589, "thresholds": 7590, "fv": 7591, "multiplex": 7592, "rng": 7593, "sslpolicy": 7594, "pec": 7595, "male": 7596, "corpor": 7597, "cta": 7598, "reduction": 7599, "2014": 7600, "crud": 7601, "msr": 7602, "tty": 7603, "weaponlike": 7604, "songs": 7605, "slotname": 7606, "holi": 7607, "001": 7608, "asm": 7609, "k2": 7610, "drup": 7611, "drupal": 7612, "requisi": 7613, "threading": 7614, "authenticationradius": 7615, "polynomial": 7616, "captured": 7617, "84": 7618, "cleared": 7619, "scrollbar": 7620, "decompress": 7621, "hanode": 7622, "optimized": 7623, "validf": 7624, "cleaning": 7625, "httperror": 7626, "paired": 7627, "promote": 7628, "htt": 7629, "lbl": 7630, "idxs": 7631, "tobj": 7632, "swe": 7633, "pnky": 7634, "standardi": 7635, "quantum": 7636, "smi": 7637, "xmlcontenttype": 7638, "docstring": 7639, "nml": 7640, "abi": 7641, "biom": 7642, "biomass": 7643, "cdata": 7644, "sales": 7645, "apirequest": 7646, "passwd": 7647, "misc": 7648, "oo": 7649, "lugin": 7650, "predecessor": 7651, "cacertificate": 7652, "cw": 7653, "gor": 7654, "recently": 7655, "nodename": 7656, "invitation": 7657, "nodoc": 7658, "varchar": 7659, "haven": 7660, "ideal": 7661, "fixture": 7662, "qname": 7663, "libo": 7664, "libovs": 7665, "libovsdb": 7666, "lbmetrictable": 7667, "acknow": 7668, "bkg": 7669, "monitorname": 7670, "sitename": 7671, "3000": 7672, "sector": 7673, "fb": 7674, "metabolic": 7675, "gens": 7676, "participant": 7677, "ndb": 7678, "checkpoint": 7679, "mnx": 7680, "ore": 7681, "pushed": 7682, "jek": 7683, "spot": 7684, "imshow": 7685, "promotion": 7686, "lru": 7687, "rdn": 7688, "preser": 7689, "synchronization": 7690, "wasn": 7691, "drm": 7692, "zonename": 7693, "substitutions": 7694, "tives": 7695, "pedia": 7696, "nid": 7697, "unloaded": 7698, "menus": 7699, "viz": 7700, "tabindex": 7701, "anyway": 7702, "builders": 7703, "clicked": 7704, "incompatible": 7705, "svn": 7706, "mute": 7707, "hdulist": 7708, "gravity": 7709, "feeds": 7710, "intersections": 7711, "tzinfo": 7712, "adjustment": 7713, "srid": 7714, "learn": 7715, "contenti": 7716, "urlparse": 7717, "rubo": 7718, "entropy": 7719, "tails": 7720, "cst": 7721, "lbwlm": 7722, "architecture": 7723, "kk": 7724, "jeky": 7725, "jekyll": 7726, "disables": 7727, "interpre": 7728, "rowspan": 7729, "meshes": 7730, "transmitter": 7731, "funding": 7732, "ero": 7733, "123": 7734, "aname": 7735, "introspection": 7736, "referer": 7737, "sax": 7738, "owned": 7739, "unserialize": 7740, "bitfield": 7741, "ltrim": 7742, "metries": 7743, "surround": 7744, "microtime": 7745, "o2": 7746, "recommend": 7747, "blockchain": 7748, "normals": 7749, "79": 7750, "tice": 7751, "funcinfo": 7752, "semver": 7753, "ense": 7754, "synchronously": 7755, "celer": 7756, "tie": 7757, "redirection": 7758, "negate": 7759, "elevation": 7760, "gettext": 7761, "sqli": 7762, "unnecessary": 7763, "enrich": 7764, "enroll": 7765, "uml": 7766, "lip": 7767, "pypy": 7768, "cmy": 7769, "vnode": 7770, "discar": 7771, "dumped": 7772, "weka": 7773, "staged": 7774, "succeed": 7775, "profiler": 7776, "geted": 7777, "rive": 7778, "activations": 7779, "inves": 7780, "investi": 7781, "fuse": 7782, "regarding": 7783, "rl": 7784, "vpnurl": 7785, "apikey": 7786, "comparable": 7787, "bing": 7788, "verts": 7789, "inserting": 7790, "recorded": 7791, "dated": 7792, "templating": 7793, "colours": 7794, "iap": 7795, "mousedown": 7796, "predefined": 7797, "tiny": 7798, "postg": 7799, "upgrad": 7800, "dits": 7801, "hay": 7802, "tack": 7803, "citation": 7804, "tnet": 7805, "tmsessionpolicy": 7806, "subdomain": 7807, "xcode": 7808, "rtsp": 7809, "drawer": 7810, "wound": 7811, "blast": 7812, "dct": 7813, "contributors": 7814, "rewritepolicy": 7815, "octet": 7816, "192": 7817, "interpreted": 7818, "invocations": 7819, "elect": 7820, "collision": 7821, "cursors": 7822, "deprecate": 7823, "maxim": 7824, "expl": 7825, "85": 7826, "srcip": 7827, "decoration": 7828, "okay": 7829, "ana": 7830, "blen": 7831, "gauss": 7832, "rote": 7833, "2016": 7834, "aggregations": 7835, "osm": 7836, "libor": 7837, "sqlalchemy": 7838, "assemble": 7839, "mysqli": 7840, "oldest": 7841, "scho": 7842, "forwarder": 7843, "nd6": 7844, "mentions": 7845, "msgid": 7846, "apos": 7847, "blend": 7848, "systemgroup": 7849, "fstate": 7850, "fixtures": 7851, "ljava": 7852, "heat": 7853, "pra": 7854, "naive": 7855, "gant": 7856, "orthog": 7857, "targeted": 7858, "notifies": 7859, "keystore": 7860, "minimize": 7861, "facts": 7862, "highligh": 7863, "zhu": 7864, "httpserver": 7865, "lattice": 7866, "rise": 7867, "imgs": 7868, "dnsview": 7869, "postgres": 7870, "initializing": 7871, "attendee": 7872, "newest": 7873, "inclusion": 7874, "apple": 7875, "dialogs": 7876, "bear": 7877, "optimal": 7878, "haplotype": 7879, "corr": 7880, "bw": 7881, "bd": 7882, "constitu": 7883, "sight": 7884, "faker": 7885, "expon": 7886, "predicted": 7887, "regardless": 7888, "bdf": 7889, "cg": 7890, "obj1": 7891, "tomb": 7892, "escapes": 7893, "charts": 7894, "vow": 7895, "conson": 7896, "dean": 7897, "favi": 7898, "encies": 7899, "guin": 7900, "guinier": 7901, "pks": 7902, "clid": 7903, "lename": 7904, "approach": 7905, "deletions": 7906, "instantiated": 7907, "bez": 7908, "purposes": 7909, "hc": 7910, "samp": 7911, "srs": 7912, "adb": 7913, "leaders": 7914, "dnssuffix": 7915, "among": 7916, "iocs": 7917, "makedirs": 7918, "conjunction": 7919, "excluding": 7920, "bytecode": 7921, "searcher": 7922, "delt": 7923, "usr": 7924, "codons": 7925, "ligand": 7926, "blacklist": 7927, "amer": 7928, "hp": 7929, "numeral": 7930, "bridgegroup": 7931, "sanity": 7932, "arith": 7933, "bea": 7934, "nspbr6": 7935, "vpnsessionpolicy": 7936, "harvest": 7937, "changeset": 7938, "cartesian": 7939, "foreground": 7940, "obtained": 7941, "specials": 7942, "millisecond": 7943, "techn": 7944, "orters": 7945, "isogeo": 7946, "vtx": 7947, "invokes": 7948, "2012": 7949, "decomposition": 7950, "sqs": 7951, "quater": 7952, "gce": 7953, "dbparameter": 7954, "spaceship": 7955, "wikipedia": 7956, "generally": 7957, "expn": 7958, "voting": 7959, "trie": 7960, "lg": 7961, "tracer": 7962, "converters": 7963, "virtualenv": 7964, "importing": 7965, "trireme": 7966, "packaging": 7967, "vpnintranetapplication": 7968, "assess": 7969, "dbus": 7970, "accel": 7971, "analytical": 7972, "standing": 7973, "denominator": 7974, "rubocop": 7975, "datapoint": 7976, "poller": 7977, "jv": 7978, "dirpath": 7979, "adapted": 7980, "rollup": 7981, "valor": 7982, "forwarded": 7983, "oelib": 7984, "ui5filter": 7985, "boxed": 7986, "noko": 7987, "nokogi": 7988, "nokogiri": 7989, "kinetic": 7990, "ret0": 7991, "responsible": 7992, "loggers": 7993, "sums": 7994, "kins": 7995, "skus": 7996, "cname": 7997, "tolist": 7998, "fwrite": 7999, "detects": 8000, "replies": 8001, "typically": 8002, "outbounds": 8003, "watchers": 8004, "fav": 8005, "concept": 8006, "ndi": 8007, "stp": 8008, "log10": 8009, "reasons": 8010, "viewname": 8011, "las": 8012, "voxels": 8013, "appflowpolicy": 8014, "acked": 8015, "lk": 8016, "eager": 8017, "onlink": 8018, "genesippr": 8019, "appointments": 8020, "pypyr": 8021, "mrof": 8022, "donor": 8023, "quarter": 8024, "preprocess": 8025, "materialized": 8026, "neither": 8027, "centered": 8028, "falha": 8029, "gantt": 8030, "ipsec": 8031, "grain": 8032, "prot": 8033, "sides": 8034, "bust": 8035, "cancell": 8036, "rolling": 8037, "quat": 8038, "vowels": 8039, "incl": 8040, "instant": 8041, "backing": 8042, "orthogonal": 8043, "bezier": 8044, "alternatives": 8045, "potentially": 8046, "shifted": 8047, "iapws": 8048, "totals": 8049, "computer": 8050, "archives": 8051, "credits": 8052, "zepi": 8053, "umber": 8054, "xsd": 8055, "vservername": 8056, "nsacl": 8057, "pers": 8058, "submodules": 8059, "bonds": 8060, "student": 8061, "couch": 8062, "x20": 8063, "semantics": 8064, "oids": 8065, "discovered": 8066, "comparing": 8067, "attaches": 8068, "estimator": 8069, "callers": 8070, "posted": 8071, "iptunnel": 8072, "wake": 8073, "director": 8074, "iso8601": 8075, "resultset": 8076, "edited": 8077, "ength": 8078, "eucli": 8079, "reli": 8080, "arel": 8081, "went": 8082, "oh": 8083, "diver": 8084, "violations": 8085, "quaterni": 8086, "mojo": 8087, "cum": 8088, "numerical": 8089, "accessory": 8090, "ptime": 8091, "rake": 8092, "cwl": 8093, "mss": 8094, "jack": 8095, "1111": 8096, "beau": 8097, "descendants": 8098, "msgs": 8099, "microseconds": 8100, "inval": 8101, "jsd": 8102, "launcher": 8103, "lvl": 8104, "ripple": 8105, "percentile": 8106, "splitting": 8107, "trixion": 8108, "trixionary": 8109, "binds": 8110, "screenshot": 8111, "object3d": 8112, "populates": 8113, "tus": 8114, "bubble": 8115, "relational": 8116, "unmodified": 8117, "occurences": 8118, "threat": 8119, "dome": 8120, "jen": 8121, "descr": 8122, "favicon": 8123, "wm": 8124, "vcl": 8125, "swarm": 8126, "bump": 8127, "plug": 8128, "uuids": 8129, "puid": 8130, "accordingly": 8131, "perspec": 8132, "filterhtm": 8133, "filterhtmlinjection": 8134, "mention": 8135, "dnskey": 8136, "fuel": 8137, "rings": 8138, "convol": 8139, "overcommit": 8140, "km": 8141, "arg0": 8142, "pipe2": 8143, "pipe2py": 8144, "employ": 8145, "typecode": 8146, "portfolios": 8147, "nomin": 8148, "clipping": 8149, "inat": 8150, "fsm": 8151, "fcomp": 8152, "contentitem": 8153, "otaupdate": 8154, "aser": 8155, "stry": 8156, "interp": 8157, "patching": 8158, "cacert": 8159, "bend": 8160, "ybin": 8161, "dblog": 8162, "foundation": 8163, "chaining": 8164, "wned": 8165, "quoting": 8166, "ago": 8167, "spilloverpolicy": 8168, "posta": 8169, "backbone": 8170, "weird": 8171, "algorithms": 8172, "scattering": 8173, "teams": 8174, "mozilla": 8175, "bla": 8176, "wood": 8177, "adder": 8178, "chem": 8179, "vxl": 8180, "often": 8181, "perspective": 8182, "inferred": 8183, "declarator": 8184, "viewer": 8185, "87": 8186, "ipython": 8187, "layered": 8188, "boun": 8189, "odmg": 8190, "miss": 8191}, "merges": [["r", "e"], ["o", "n"], ["i", "n"], ["e", "r"], ["e", "n"], ["t", "h"], ["t", "i"], ["s", "t"], ["c", "o"], ["s", "e"], ["d", "e"], ["a", "t"], ["ti", "on"], ["o", "r"], ["a", "l"], ["l", "e"], ["a", "r"], ["m", "e"], ["en", "t"], ["a", "n"], ["u", "r"], ["u", "n"], ["c", "e"], ["i", "f"], ["p", "e"], ["t", "y"], ["i", "s"], ["g", "e"], ["th", "e"], ["r", "o"], ["t", "e"], ["c", "tion"], ["m", "ent"], ["ty", "pe"], ["co", "m"], ["f", "i"], ["c", "h"], ["u", "e"], ["in", "g"], ["f", "un"], ["c", "on"], ["t", "o"], ["re", "s"], ["l", "o"], ["a", "me"], ["re", "t"], ["at", "e"], ["l", "i"], ["a", "s"], ["i", "d"], ["fun", "ction"], ["ur", "n"], ["co", "de"], ["ret", "urn"], ["c", "t"], ["u", "t"], ["a", "d"], ["v", "al"], ["ge", "t"], ["u", "l"], ["com", "ment"], ["n", "e"], ["p", "a"], ["n", "ame"], ["f", "or"], ["e", "l"], ["t", "r"], ["s", "i"], ["n", "o"], ["th", "is"], ["o", "p"], ["st", "r"], ["t", "er"], ["e", "x"], ["a", "p"], ["i", "l"], ["p", "ar"], ["er", "r"], ["se", "t"], ["en", "d"], ["p", "ro"], ["k", "e"], ["o", "f"], ["d", "i"], ["an", "d"], ["val", "ue"], ["a", "b"], ["a", "tion"], ["a", "m"], ["u", "p"], ["s", "er"], ["r", "i"], ["c", "k"], ["re", "q"], ["se", "l"], ["ne", "w"], ["r", "a"], ["de", "f"], ["sel", "f"], ["m", "o"], ["e", "d"], ["i", "t"], ["m", "a"], ["e", "s"], ["at", "a"], ["p", "o"], ["p", "ut"], ["d", "o"], ["fi", "le"], ["b", "e"], ["o", "ut"], ["c", "l"], ["v", "er"], ["str", "ing"], ["ke", "y"], ["al", "l"], ["o", "b"], ["pa", "th"], ["d", "ata"], ["t", "a"], ["s", "s"], ["ul", "t"], ["err", "or"], ["u", "b"], ["in", "t"], ["o", "ur"], ["v", "i"], ["x", "t"], ["re", "n"], ["b", "u"], ["our", "ce"], ["e", "ct"], ["v", "ar"], ["u", "m"], ["ab", "le"], ["li", "st"], ["ob", "j"], ["v", "e"], ["f", "o"], ["c", "a"], ["lo", "g"], ["ue", "st"], ["req", "uest"], ["as", "s"], ["l", "en"], ["p", "er"], ["op", "tion"], ["ul", "l"], ["m", "p"], ["l", "a"], ["li", "c"], ["h", "e"], ["b", "o"], ["co", "l"], ["er", "s"], ["ad", "d"], ["w", "i"], ["par", "am"], ["m", "at"], ["te", "xt"], ["no", "t"], ["res", "ource"], ["el", "se"], ["q", "u"], ["o", "l"], ["p", "on"], ["res", "ult"], ["ra", "y"], ["si", "on"], ["ar", "ray"], ["s", "h"], ["wi", "th"], ["a", "ge"], ["s", "c"], ["b", "y"], ["ar", "g"], ["d", "ate"], ["b", "a"], ["i", "c"], ["n", "il"], ["n", "ull"], ["no", "de"], ["ap", "p"], ["on", "e"], ["c", "u"], ["h", "t"], ["in", "put"], ["obj", "ect"], ["ti", "me"], ["val", "id"], ["ch", "e"], ["l", "in"], ["u", "se"], ["p", "re"], ["p", "tion"], ["el", "d"], ["cl", "ass"], ["res", "pon"], ["option", "s"], ["ro", "w"], ["an", "ce"], ["t", "s"], ["c", "re"], ["con", "fi"], ["con", "t"], ["f", "ro"], ["confi", "g"], ["f", "a"], ["fro", "m"], ["c", "all"], ["ren", "t"], ["in", "st"], ["ex", "ce"], ["fi", "eld"], ["te", "d"], ["respon", "se"], ["g", "i"], ["c", "ur"], ["in", "de"], ["p", "le"], ["p", "ub"], ["inde", "x"], ["f", "e"], ["i", "g"], ["l", "y"], ["u", "s"], ["tr", "ue"], ["i", "te"], ["st", "o"], ["in", "d"], ["z", "e"], ["pub", "lic"], ["he", "ad"], ["or", "t"], ["re", "ad"], ["at", "tr"], ["w", "or"], ["m", "s"], ["cre", "ate"], ["v", "ent"], ["a", "c"], ["w", "h"], ["f", "al"], ["exce", "ption"], ["vi", "ce"], ["fal", "se"], ["re", "d"], ["th", "at"], ["g", "th"], ["mo", "de"], ["il", "d"], ["len", "gth"], ["o", "d"], ["ur", "l"], ["co", "r"], ["w", "e"], ["m", "ap"], ["s", "o"], ["h", "as"], ["g", "ro"], ["inst", "ance"], ["e", "le"], ["ti", "c"], ["u", "ser"], ["con", "text"], ["me", "th"], ["out", "put"], ["n", "um"], ["up", "date"], ["re", "ct"], ["i", "p"], ["g", "er"], ["fun", "c"], ["un", "d"], ["co", "un"], ["meth", "od"], ["param", "s"], ["sc", "ri"], ["an", "ge"], ["gro", "up"], ["s", "ub"], ["st", "ar"], ["s", "y"], ["m", "in"], ["ser", "vice"], ["c", "al"], ["ce", "ss"], ["a", "u"], ["ele", "ment"], ["s", "pe"], ["e", "vent"], ["in", "fo"], ["n", "one"], ["me", "ss"], ["in", "ter"], ["lin", "e"], ["com", "ple"], ["pro", "per"], ["a", "ult"], ["fi", "l"], ["mess", "age"], ["ba", "ck"], ["ame", "ter"], ["te", "s"], ["en", "ti"], ["par", "ameter"], ["re", "p"], ["arg", "s"], ["or", "y"], ["mode", "l"], ["to", "k"], ["u", "le"], ["st", "ate"], ["lo", "ad"], ["ta", "g"], ["st", "a"], ["c", "li"], ["def", "ault"], ["tok", "en"], ["re", "a"], ["h", "and"], ["ca", "se"], ["for", "mat"], ["j", "s"], ["i", "bu"], ["d", "er"], ["mat", "ch"], ["an", "s"], ["star", "t"], ["i", "se"], ["si", "ze"], ["th", "row"], ["v", "en"], ["u", "re"], ["com", "m"], ["at", "or"], ["d", "if"], ["ex", "p"], ["al", "i"], ["log", "ic"], ["che", "ck"], ["qu", "er"], ["attr", "ibu"], ["t", "p"], ["ta", "in"], ["h", "o"], ["cont", "ent"], ["lo", "w"], ["w", "ri"], ["resource", "s"], ["st", "at"], ["for", "m"], ["coun", "t"], ["p", "t"], ["comple", "x"], ["quer", "y"], ["head", "ers"], ["cur", "rent"], ["spe", "c"], ["tr", "a"], ["sto", "m"], ["b", "er"], ["cu", "stom"], ["lo", "ck"], ["con", "tain"], ["s", "p"], ["gi", "ven"], ["si", "g"], ["cli", "ent"], ["di", "tion"], ["l", "er"], ["ba", "se"], ["de", "le"], ["fil", "ter"], ["ht", "tp"], ["a", "re"], ["var", "i"], ["w", "n"], ["le", "ction"], ["en", "er"], ["de", "scri"], ["st", "e"], ["ma", "x"], ["return", "s"], ["ite", "m"], ["ver", "sion"], ["js", "on"], ["re", "mo"], ["ap", "i"], ["te", "mp"], ["m", "l"], ["de", "d"], ["se", "s"], ["t", "able"], ["pa", "ge"], ["tr", "ans"], ["op", "er"], ["u", "i"], ["o", "k"], ["at", "ch"], ["wh", "i"], ["r", "y"], ["value", "s"], ["wor", "k"], ["p", "ri"], ["di", "r"], ["f", "in"], ["t", "ar"], ["in", "valid"], ["r", "un"], ["ar", "y"], ["proper", "ty"], ["po", "int"], ["i", "st"], ["con", "ne"], ["bu", "ild"], ["vari", "able"], ["p", "y"], ["cl", "u"], ["d", "s"], ["de", "p"], ["ra", "ise"], ["tar", "get"], ["ne", "xt"], ["def", "in"], ["sig", "n"], ["o", "t"], ["il", "l"], ["u", "ment"], ["c", "ted"], ["la", "y"], ["par", "se"], ["f", "f"], ["name", "s"], ["d", "is"], ["a", "ction"], ["ce", "s"], ["tr", "y"], ["s", "ource"], ["arg", "ument"], ["as", "k"], ["p", "i"], ["g", "r"], ["e", "a"], ["sta", "tic"], ["col", "um"], ["fi", "x"], ["colum", "n"], ["j", "ect"], ["app", "end"], ["th", "er"], ["st", "re"], ["m", "an"], ["g", "in"], ["au", "th"], ["i", "m"], ["col", "lection"], ["l", "ate"], ["ea", "ch"], ["0", "0"], ["ser", "ver"], ["stre", "am"], ["dele", "te"], ["num", "ber"], ["parameter", "s"], ["mo", "d"], ["r", "ange"], ["a", "v"], ["re", "f"], ["ro", "l"], ["stat", "us"], ["con", "dition"], ["p", "r"], ["ti", "ve"], ["pa", "rent"], ["c", "an"], ["g", "ener"], ["ch", "ar"], ["ch", "ild"], ["d", "y"], ["po", "si"], ["b", "lock"], ["p", "u"], ["con", "st"], ["of", "f"], ["l", "an"], ["spec", "if"], ["ca", "use"], ["fe", "ren"], ["ex", "ist"], ["wri", "te"], ["oper", "ation"], ["on", "ly"], ["ul", "d"], ["f", "ind"], ["vi", "e"], ["s", "end"], ["fi", "r"], ["l", "ab"], ["c", "i"], ["comm", "and"], ["vie", "w"], ["a", "ve"], ["re", "gi"], ["le", "ct"], ["di", "rect"], ["e", "mp"], ["cor", "rect"], ["ch", "o"], ["req", "ui"], ["attribu", "te"], ["fir", "st"], ["c", "le"], ["c", "lo"], ["st", "er"], ["ex", "t"], ["co", "me"], ["lo", "cal"], ["emp", "ty"], ["pro", "cess"], ["i", "ma"], ["be", "cause"], ["la", "ce"], ["ti", "l"], ["ar", "ch"], ["ite", "ms"], ["lab", "el"], ["ation", "s"], ["ex", "e"], ["res", "s"], ["has", "h"], ["dif", "f"], ["ima", "ge"], ["ca", "che"], ["i", "ed"], ["w", "id"], ["mod", "ule"], ["w", "ill"], ["po", "s"], ["t", "ing"], ["ch", "ange"], ["p", "ort"], ["ne", "t"], ["m", "it"], ["out", "come"], ["k", "s"], ["qu", "al"], ["enti", "ty"], ["le", "d"], ["lo", "c"], ["re", "feren"], ["or", "i"], ["ate", "d"], ["wor", "d"], ["d", "b"], ["fin", "al"], ["w", "a"], ["b", "ind"], ["b", "rea"], ["la", "st"], ["bo", "dy"], ["u", "ct"], ["lo", "op"], ["i", "mp"], ["s", "up"], ["brea", "k"], ["v", "o"], ["ent", "ry"], ["ur", "ation"], ["key", "s"], ["hand", "ler"], ["remo", "ve"], ["i", "ter"], ["call", "back"], ["v", "el"], ["log", "ger"], ["error", "s"], ["sh", "o"], ["o", "se"], ["n", "c"], ["p", "h"], ["p", "l"], ["p", "s"], ["q", "ue"], ["s", "u"], ["off", "set"], ["s", "ing"], ["ti", "es"], ["conne", "ction"], ["j", "o"], ["pa", "ce"], ["p", "ass"], ["c", "ke"], ["bu", "g"], ["u", "st"], ["t", "ask"], ["file", "s"], ["fa", "il"], ["ter", "n"], ["a", "ct"], ["a", "g"], ["op", "ts"], ["do", "wn"], ["a", "se"], ["do", "cu"], ["pr", "int"], ["cont", "rol"], ["u", "res"], ["docu", "ment"], ["m", "ar"], ["ma", "in"], ["ro", "ot"], ["temp", "late"], ["re", "e"], ["de", "bug"], ["ho", "st"], ["b", "r"], ["po", "lic"], ["it", "s"], ["r", "ule"], ["n", "p"], ["rep", "lace"], ["i", "o"], ["po", "st"], ["f", "ull"], ["me", "t"], ["field", "s"], ["jo", "in"], ["cho", "ose"], ["fo", "und"], ["ro", "u"], ["dep", "end"], ["referen", "ce"], ["st", "y"], ["do", "c"], ["ig", "ht"], ["di", "ct"], ["whi", "ch"], ["diff", "ers"], ["u", "til"], ["set", "s"], ["call", "er"], ["pre", "fix"], ["ur", "i"], ["se", "arch"], ["polic", "y"], ["d", "a"], ["wh", "en"], ["head", "er"], ["w", "he"], ["wid", "th"], ["m", "is"], ["v", "is"], ["le", "vel"], ["s", "co"], ["se", "d"], ["r", "on"], ["fa", "ct"], ["v", "ate"], ["w", "ar"], ["posi", "tion"], ["le", "ss"], ["se", "lect"], ["c", "ate"], ["re", "cor"], ["fa", "ce"], ["exe", "cu"], ["w", "s"], ["ses", "sion"], ["o", "s"], ["sp", "li"], ["bind", "ing"], ["op", "en"], ["result", "s"], ["v", "es"], ["or", "der"], ["w", "al"], ["o", "ther"], ["pri", "vate"], ["res", "ol"], ["ht", "ml"], ["fo", "l"], ["fi", "len"], ["ct", "x"], ["an", "y"], ["m", "er"], ["lin", "k"], ["sto", "re"], ["valid", "ate"], ["ol", "d"], ["i", "es"], ["met", "ad"], ["filen", "ame"], ["ra", "w"], ["attribu", "tes"], ["a", "f"], ["as", "y"], ["d", "at"], ["metad", "ata"], ["if", "y"], ["me", "m"], ["time", "out"], ["g", "o"], ["ste", "m"], ["sty", "le"], ["config", "uration"], ["ti", "t"], ["defin", "ed"], ["fo", "re"], ["set", "ting"], ["specif", "ied"], ["o", "le"], ["n", "ing"], ["m", "d"], ["direct", "ory"], ["con", "ver"], ["d", "ing"], ["i", "r"], ["p", "at"], ["bu", "ff"], ["en", "sion"], ["x", "ml"], ["in", "clu"], ["contain", "er"], ["to", "p"], ["whi", "le"], ["ma", "ke"], ["lan", "g"], ["t", "ch"], ["str", "uct"], ["ac", "cess"], ["f", "lo"], ["i", "ti"], ["en", "ce"], ["b", "le"], ["descri", "be"], ["t", "ree"], ["cke", "t"], ["argument", "s"], ["an", "t"], ["ter", "min"], ["sh", "a"], ["pu", "sh"], ["m", "ul"], ["sy", "stem"], ["exist", "s"], ["s", "r"], ["le", "t"], ["b", "ut"], ["pon", "ent"], ["bo", "ole"], ["buff", "er"], ["ms", "g"], ["spli", "t"], ["pro", "ject"], ["l", "at"], ["use", "d"], ["requi", "red"], ["c", "y"], ["ri", "es"], ["boole", "an"], ["pat", "tern"], ["rea", "ch"], ["type", "s"], ["hand", "le"], ["lo", "b"], ["ali", "z"], ["in", "to"], ["am", "ple"], ["lic", "ation"], ["s", "um"], ["fe", "tch"], ["gener", "ate"], ["l", "l"], ["s", "che"], ["proper", "ties"], ["un", "less"], ["asy", "nc"], ["w", "o"], ["re", "ce"], ["v", "ed"], ["com", "ponent"], ["a", "ger"], ["v", "id"], ["on", "g"], ["in", "te"], ["id", "s"], ["ne", "l"], ["add", "ress"], ["w", "in"], ["man", "ager"], ["cle", "ar"], ["flo", "at"], ["rece", "i"], ["me", "di"], ["c", "er"], ["or", "ig"], ["ar", "d"], ["sho", "uld"], ["g", "ht"], ["inter", "face"], ["h", "ave"], ["h", "el"], ["n", "s"], ["wal", "ks"], ["cont", "in"], ["ent", "ries"], ["f", "r"], ["throw", "s"], ["f", "t"], ["col", "or"], ["pa", "ck"], ["tag", "s"], ["j", "ob"], ["as", "h"], ["id", "enti"], ["u", "al"], ["m", "on"], ["in", "iti"], ["th", "en"], ["fo", "reach"], ["al", "low"], ["f", "n"], ["w", "r"], ["co", "py"], ["e", "qual"], ["ch", "an"], ["sy", "m"], ["av", "a"], ["sco", "pe"], ["by", "te"], ["m", "ust"], ["mul", "ti"], ["tit", "le"], ["res", "ent"], ["un", "i"], ["ser", "t"], ["descri", "ption"], ["in", "e"], ["res", "sion"], ["s", "q"], ["or", "m"], ["bo", "ol"], ["o", "ver"], ["k", "w"], ["be", "fore"], ["vis", "i"], ["re", "g"], ["vo", "id"], ["s", "k"], ["sc", "al"], ["recor", "d"], ["re", "l"], ["clo", "se"], ["c", "atch"], ["util", "s"], ["app", "lication"], ["sta", "ck"], ["loc", "ation"], ["or", "ted"], ["us", "ing"], ["ment", "s"], ["fail", "ures"], ["build", "er"], ["de", "termin"], ["pre", "vent"], ["identi", "fi"], ["que", "ue"], ["at", "ure"], ["de", "st"], ["fr", "ame"], ["gr", "ap"], ["he", "ight"], ["me", "ta"], ["un", "k"], ["wr", "ap"], ["c", "r"], ["contin", "ue"], ["pro", "vid"], ["win", "do"], ["g", "lob"], ["mer", "ge"], ["o", "m"], ["ali", "ze"], ["au", "to"], ["grap", "h"], ["net", "work"], ["control", "ler"], ["inclu", "de"], ["rou", "te"], ["pa", "y"], ["ig", "no"], ["a", "ws"], ["an", "not"], ["setting", "s"], ["e", "p"], ["le", "ft"], ["p", "lay"], ["k", "er"], ["a", "x"], ["m", "t"], ["mo", "dif"], ["kw", "args"], ["di", "t"], ["ext", "ension"], ["m", "i"], ["par", "t"], ["st", "op"], ["da", "y"], ["app", "ly"], ["b", "in"], ["pl", "u"], ["s", "ame"], ["ex", "tra"], ["e", "t"], ["af", "ter"], ["by", "tes"], ["pa", "re"], ["ol", "u"], ["g", "ra"], ["pro", "te"], ["element", "s"], ["de", "vice"], ["n", "orm"], ["exp", "ression"], ["el", "if"], ["whe", "re"], ["wa", "it"], ["la", "g"], ["ub", "le"], ["id", "x"], ["orig", "in"], ["ex", "pe"], ["is", "h"], ["1", "0"], ["node", "s"], ["do", "uble"], ["sign", "al"], ["inte", "ger"], ["plu", "gin"], ["e", "ar"], ["pro", "to"], ["en", "able"], ["an", "ch"], ["6", "4"], ["st", "or"], ["end", "point"], ["read", "y"], ["s", "w"], ["all", "y"], ["sche", "ma"], ["dat", "ab"], ["n", "a"], ["li", "mit"], ["sup", "p"], ["ser", "i"], ["u", "age"], ["bo", "x"], ["ro", "le"], ["c", "ri"], ["s", "ort"], ["lang", "uage"], ["n", "on"], ["ass", "o"], ["li", "ty"], ["tra", "ce"], ["is", "set"], ["chan", "nel"], ["names", "pace"], ["in", "di"], ["sr", "c"], ["exce", "pt"], ["pro", "d"], ["object", "s"], ["do", "main"], ["imp", "ort"], ["datab", "ase"], ["par", "ser"], ["o", "us"], ["f", "lag"], ["pro", "ce"], ["be", "gin"], ["s", "pace"], ["si", "te"], ["do", "es"], ["i", "tion"], ["p", "op"], ["te", "st"], ["en", "vi"], ["ri", "ght"], ["prote", "cted"], ["ta", "ch"], ["ma", "il"], ["provid", "er"], ["envi", "ron"], ["i", "z"], ["identifi", "er"], ["ma", "th"], ["m", "ise"], ["ad", "dition"], ["lin", "es"], ["ti", "fi"], ["s", "ave"], ["un", "defined"], ["cal", "c"], ["glob", "al"], ["event", "s"], ["windo", "w"], ["ac", "tive"], ["pro", "mise"], ["regi", "ster"], ["child", "ren"], ["pe", "d"], ["en", "code"], ["hel", "per"], ["bo", "und"], ["defin", "ition"], ["or", "s"], ["ali", "as"], ["igno", "re"], ["t", "al"], ["se", "qu"], ["ta", "il"], ["th", "ing"], ["asso", "ci"], ["c", "s"], ["ab", "s"], ["en", "co"], ["l", "ong"], ["se", "e"], ["pack", "age"], ["column", "s"], ["en", "v"], ["clu", "ster"], ["o", "u"], ["t", "mp"], ["s", "in"], ["no", "w"], ["br", "anch"], ["pass", "word"], ["ne", "ed"], ["full", "y"], ["fact", "ory"], ["mis", "sion"], ["i", "de"], ["r", "t"], ["scri", "pt"], ["i", "ty"], ["we", "b"], ["fa", "i"], ["ge", "x"], ["u", "id"], ["pro", "file"], ["re", "gex"], ["lo", "ok"], ["p", "atch"], ["se", "g"], ["o", "g"], ["ate", "s"], ["conver", "t"], ["instance", "of"], ["com", "p"], ["di", "st"], ["resol", "ve"], ["w", "as"], ["wa", "y"], ["equal", "s"], ["c", "at"], ["ava", "il"], ["sing", "le"], ["e", "dit"], ["is", "ol"], ["s", "ample"], ["com", "pu"], ["rep", "resent"], ["co", "re"], ["c", "ent"], ["se", "con"], ["b", "und"], ["po", "ol"], ["bo", "l"], ["trans", "form"], ["is", "instance"], ["me", "d"], ["i", "a"], ["contain", "s"], ["sha", "pe"], ["proce", "ed"], ["s", "ure"], ["res", "h"], ["pro", "vi"], ["fai", "led"], ["match", "es"], ["e", "mit"], ["se", "c"], ["create", "s"], ["sq", "l"], ["i", "lity"], ["ify", "ing"], ["stor", "age"], ["at", "tach"], ["al", "ready"], ["to", "tal"], ["l", "u"], ["calc", "ul"], ["bund", "le"], ["se", "ction"], ["isol", "ate"], ["re", "ject"], ["expe", "cted"], ["pay", "load"], ["ren", "der"], ["low", "er"], ["li", "ke"], ["qual", "ifying"], ["or", "d"], ["par", "ti"], ["the", "re"], ["wri", "ter"], ["o", "wn"], ["s", "li"], ["mem", "ber"], ["in", "it"], ["bu", "f"], ["ac", "count"], ["state", "ment"], ["list", "ener"], ["lo", "t"], ["o", "v"], ["su", "c"], ["fol", "low"], ["de", "cl"], ["stat", "s"], ["type", "of"], ["d", "f"], ["cate", "g"], ["conne", "ct"], ["option", "al"], ["z", "er"], ["par", "ts"], ["scal", "e"], ["pro", "p"], ["local", "e"], ["it", "ch"], ["n", "b"], ["li", "b"], ["string", "s"], ["de", "tail"], ["per", "mission"], ["ed", "ge"], ["wo", "uld"], ["avail", "able"], ["sy", "n"], ["ke", "d"], ["environ", "ment"], ["s", "a"], ["y", "i"], ["rel", "ation"], ["c", "ap"], ["ver", "y"], ["n", "it"], ["sym", "bol"], ["e", "mail"], ["ce", "ll"], ["n", "er"], ["rol", "l"], ["b", "atch"], ["an", "g"], ["specif", "ic"], ["char", "act"], ["enco", "ding"], ["x", "y"], ["path", "s"], ["sk", "ip"], ["t", "en"], ["ch", "ed"], ["am", "p"], ["m", "ask"], ["token", "s"], ["as", "sign"], ["app", "ing"], ["a", "in"], ["descri", "pt"], ["con", "struct"], ["c", "f"], ["read", "er"], ["s", "n"], ["depend", "en"], ["if", "e"], ["y", "ou"], ["gra", "ce"], ["rep", "ort"], ["war", "ning"], ["ste", "p"], ["un", "it"], ["pi", "pe"], ["mat", "ri"], ["t", "up"], ["recei", "ves"], ["inter", "n"], ["get", "s"], ["execu", "te"], ["th", "read"], ["sw", "itch"], ["m", "ary"], ["cri", "ter"], ["h", "ol"], ["grace", "fully"], ["g", "ing"], ["origin", "al"], ["ch", "unk"], ["sequ", "ence"], ["pre", "pare"], ["rule", "s"], ["en", "tic"], ["prod", "uct"], ["suc", "cess"], ["ret", "ri"], ["pa", "ir"], ["iter", "ator"], ["con", "str"], ["point", "s"], ["or", "ts"], ["ar", "r"], ["ma", "ch"], ["se", "par"], ["row", "s"], ["si", "de"], ["g", "en"], ["data", "set"], ["base", "d"], ["si", "st"], ["si", "mp"], ["k", "ind"], ["comm", "it"], ["r", "and"], ["ul", "ar"], ["nit", "ro"], ["in", "form"], ["spe", "ct"], ["s", "ent"], ["matri", "x"], ["retri", "e"], ["content", "s"], ["de", "code"], ["ov", "err"], ["g", "h"], ["tup", "le"], ["m", "en"], ["p", "as"], ["f", "low"], ["group", "s"], ["3", "2"], ["op", "t"], ["no", "te"], ["dis", "able"], ["yi", "eld"], ["no", "wn"], ["pi", "x"], ["ad", "min"], ["sec", "ret"], ["int", "f"], ["descript", "or"], ["down", "stream"], ["criter", "ia"], ["m", "apping"], ["ff", "ect"], ["e", "ded"], ["extra", "ct"], ["f", "mt"], ["auth", "entic"], ["mar", "k"], ["c", "ss"], ["cl", "as"], ["str", "ip"], ["annot", "ation"], ["sho", "w"], ["ro", "ut"], ["de", "l"], ["d", "r"], ["j", "ust"], ["add", "resources"], ["sli", "ce"], ["lay", "er"], ["for", "med"], ["mo", "re"], ["d", "on"], ["al", "s"], ["so", "cket"], ["b", "it"], ["inform", "ation"], ["remo", "te"], ["ste", "ps"], ["ig", "h"], ["inter", "val"], ["fe", "ature"], ["page", "s"], ["mis", "sing"], ["posi", "t"], ["en", "um"], ["c", "md"], ["1", "00"], ["ph", "p"], ["d", "one"], ["di", "ction"], ["message", "s"], ["in", "sert"], ["sy", "nc"], ["intern", "al"], ["for", "ce"], ["v", "ect"], ["an", "al"], ["tra", "ck"], ["aliz", "ed"], ["re", "posit"], ["1", "2"], ["do", "m"], ["method", "s"], ["b", "as"], ["le", "cted"], ["b", "ar"], ["di", "m"], ["compu", "te"], ["d", "en"], ["i", "er"], ["ext", "end"], ["i", "e"], ["ac", "ti"], ["u", "d"], ["th", "an"], ["visi", "on"], ["parse", "d"], ["b", "ers"], ["el", "s"], ["enable", "d"], ["categ", "ory"], ["trans", "action"], ["run", "ning"], ["provi", "ded"], ["auth", "ori"], ["vi", "ous"], ["ad", "ded"], ["ac", "ce"], ["cal", "end"], ["requi", "re"], ["m", "al"], ["sp", "r"], ["cl", "s"], ["f", "s"], ["fol", "der"], ["proto", "col"], ["medi", "ate"], ["exe", "c"], ["anal", "y"], ["dis", "play"], ["clas", "ses"], ["addition", "al"], ["an", "ts"], ["a", "int"], ["me", "tr"], ["calend", "ar"], ["2", "0"], ["constr", "aint"], ["overr", "ide"], ["pre", "vious"], ["so", "me"], ["ne", "eded"], ["exist", "ing"], ["determin", "es"], ["di", "re"], ["as", "sert"], ["mach", "ine"], ["cr", "ash"], ["regi", "str"], ["coun", "ter"], ["p", "n"], ["p", "an"], ["l", "ish"], ["lat", "er"], ["whe", "ther"], ["men", "u"], ["cle", "an"], ["be", "t"], ["pro", "xy"], ["s", "or"], ["sub", "scri"], ["de", "c"], ["ho", "ok"], ["l", "n"], ["es", "ca"], ["cf", "g"], ["al", "og"], ["st", "amp"], ["at", "ing"], ["d", "ri"], ["v", "olu"], ["z", "ip"], ["a", "st"], ["d", "um"], ["tr", "im"], ["spr", "intf"], ["wor", "ds"], ["mon", "th"], ["d", "uration"], ["select", "or"], ["ma", "y"], ["o", "c"], ["tr", "ig"], ["co", "ok"], ["g", "reg"], ["m", "b"], ["ss", "l"], ["pro", "ps"], ["cal", "led"], ["simp", "le"], ["se", "lected"], ["ter", "m"], ["or", "g"], ["ag", "ent"], ["run", "time"], ["y", "ear"], ["lay", "out"], ["s", "pa"], ["sc", "an"], ["be", "en"], ["user", "name"], ["ig", "n"], ["reposit", "ory"], ["pre", "v"], ["re", "st"], ["sto", "res"], ["so", "le"], ["t", "wo"], ["if", "t"], ["execu", "tes"], ["back", "up"], ["regi", "on"], ["valid", "ation"], ["ser", "ies"], ["res", "p"], ["change", "d"], ["ab", "ility"], ["wrap", "per"], ["re", "set"], ["a", "ded"], ["pas", "sed"], ["t", "on"], ["con", "f"], ["ex", "clu"], ["s", "v"], ["b", "ro"], ["decl", "ar"], ["re", "al"], ["1", "6"], ["m", "y"], ["ra", "g"], ["can", "not"], ["create", "d"], ["filter", "s"], ["supp", "orted"], ["c", "ip"], ["vect", "or"], ["le", "g"], ["lo", "aded"], ["si", "ble"], ["bo", "t"], ["u", "int"], ["in", "spect"], ["sup", "er"], ["fe", "rent"], ["def", "er"], ["ex", "ample"], ["hand", "l"], ["seg", "ment"], ["ori", "es"], ["c", "p"], ["g", "it"], ["t", "ab"], ["b", "l"], ["volu", "me"], ["list", "en"], ["sin", "ce"], ["edit", "or"], ["the", "y"], ["metr", "ic"], ["h", "y"], ["ver", "se"], ["up", "load"], ["process", "ing"], ["ax", "is"], ["comm", "on"], ["am", "b"], ["con", "sole"], ["con", "n"], ["co", "ord"], ["ind", "ent"], ["exp", "ort"], ["un", "set"], ["mo", "ck"], ["trans", "l"], ["medi", "a"], ["dep", "th"], ["wi", "se"], ["th", "on"], ["c", "b"], ["i", "al"], ["r", "ad"], ["flag", "s"], ["u", "uid"], ["rand", "om"], ["but", "ton"], ["dif", "ferent"], ["determin", "e"], ["te", "red"], ["ag", "greg"], ["dri", "ver"], ["detail", "s"], ["gr", "am"], ["time", "stamp"], ["d", "enti"], ["p", "end"], ["bo", "ok"], ["imp", "le"], ["p", "c"], ["default", "s"], ["check", "s"], ["pro", "g"], ["cl", "a"], ["dist", "ance"], ["ne", "d"], ["generate", "s"], ["t", "l"], ["update", "resources"], ["un", "t"], ["vi", "rt"], ["re", "le"], ["sc", "roll"], ["multi", "ple"], ["re", "cur"], ["e", "val"], ["w", "atch"], ["ta", "ke"], ["ro", "p"], ["top", "ic"], ["de", "sc"], ["a", "a"], ["p", "lace"], ["c", "ar"], ["i", "con"], ["f", "y"], ["inst", "all"], ["we", "en"], ["a", "ffect"], ["col", "lect"], ["virt", "ual"], ["to", "ol"], ["bet", "ween"], ["co", "uld"], ["tr", "an"], ["qu", "o"], ["z", "one"], ["s", "l"], ["variable", "s"], ["im", "um"], ["diction", "ary"], ["2", "5"], ["col", "l"], ["c", "ard"], ["star", "ts"], ["label", "s"], ["update", "resource"], ["h", "er"], ["change", "s"], ["p", "k"], ["n", "i"], ["per", "sist"], ["di", "v"], ["log", "ging"], ["c", "ation"], ["look", "up"], ["pa", "cket"], ["be", "an"], ["sup", "port"], ["man", "age"], ["instance", "s"], ["py", "thon"], ["im", "g"], ["re", "la"], ["initi", "al"], ["b", "row"], ["mo", "ve"], ["qu", "i"], ["tion", "s"], ["ge", "o"], ["model", "s"], ["with", "out"], ["sign", "ature"], ["d", "n"], ["de", "li"], ["s", "lot"], ["construct", "or"], ["affect", "ing"], ["gener", "ator"], ["id", "entity"], ["cer", "tifi"], ["se", "lection"], ["at", "temp"], ["re", "direct"], ["certifi", "cate"], ["st", "d"], ["cur", "ren"], ["inter", "mediate"], ["en", "gin"], ["ge", "st"], ["valid", "ator"], ["ear", "ly"], ["cur", "sor"], ["separ", "ator"], ["sh", "ift"], ["ar", "ti"], ["add", "ing"], ["c", "ms"], ["allow", "ed"], ["comple", "te"], ["se", "q"], ["mal", "formed"], ["act", "ual"], ["fe", "at"], ["wid", "get"], ["sh", "ort"], ["per", "i"], ["uni", "que"], ["sp", "an"], ["down", "load"], ["rela", "tive"], ["9", "9"], ["com", "pa"], ["cre", "denti"], ["we", "ight"], ["charact", "er"], ["attr", "s"], ["dest", "in"], ["is", "s"], ["the", "m"], ["no", "tifi"], ["fil", "tered"], ["str", "i"], ["esca", "pe"], ["module", "s"], ["i", "ze"], ["ut", "f"], ["to", "do"], ["prog", "ress"], ["c", "n"], ["secon", "d"], ["represent", "ing"], ["h", "ist"], ["te", "x"], ["f", "lu"], ["z", "z"], ["ch", "ain"], ["l", "ife"], ["unk", "nown"], ["work", "er"], ["modif", "ied"], ["si", "ve"], ["g", "re"], ["m", "id"], ["request", "s"], ["st", "and"], ["c", "ance"], ["per", "form"], ["1", "8"], ["c", "ry"], ["update", "s"], ["add", "r"], ["ele", "m"], ["requi", "res"], ["engin", "e"], ["return", "ed"], ["he", "re"], ["fil", "l"], ["rou", "gh"], ["bin", "ary"], ["iss", "ue"], ["ne", "st"], ["r", "ate"], ["add", "s"], ["brow", "ser"], ["g", "ate"], ["late", "d"], ["s", "orted"], ["zer", "o"], ["l", "d"], ["f", "lat"], ["destin", "ation"], ["com", "par"], ["hol", "ds"], ["up", "per"], ["b", "its"], ["de", "cor"], ["authori", "z"], ["en", "sure"], ["ang", "le"], ["war", "n"], ["trig", "ger"], ["secon", "ds"], ["lo", "y"], ["am", "o"], ["handl", "ers"], ["sub", "str"], ["com", "pi"], ["de", "te"], ["d", "up"], ["ta", "x"], ["pri", "ori"], ["imple", "ment"], ["seri", "alize"], ["po", "inter"], ["error", "f"], ["ct", "r"], ["se", "cur"], ["m", "x"], ["com", "pare"], ["al", "so"], ["log", "in"], ["abs", "olu"], ["o", "id"], ["in", "vo"], ["h", "igh"], ["authentic", "ation"], ["s", "ap"], ["add", "resource"], ["secur", "ity"], ["g", "a"], ["own", "er"], ["other", "wise"], ["pl", "at"], ["absolu", "te"], ["a", "rea"], ["depend", "s"], ["dependen", "cy"], ["u", "red"], ["pipe", "line"], ["su", "f"], ["mar", "sh"], ["cl", "one"], ["ex", "it"], ["action", "s"], ["ch", "ron"], ["fin", "ish"], ["th", "rough"], ["set", "up"], ["f", "er"], ["oper", "ator"], ["sa", "fe"], ["le", "x"], ["c", "ue"], ["visi", "ble"], ["j", "ava"], ["vi", "ty"], ["ad", "ap"], ["pri", "mary"], ["m", "ut"], ["ci", "es"], ["cu", "s"], ["pub", "lish"], ["h", "a"], ["declar", "ation"], ["t", "x"], ["e", "k"], ["registr", "y"], ["u", "ch"], ["sco", "re"], ["f", "on"], ["p", "resent"], ["as", "set"], ["dep", "loy"], ["follow", "s"], ["bound", "s"], ["coord", "in"], ["referen", "ces"], ["sy", "s"], ["priori", "ty"], ["wh", "ite"], ["pre", "c"], ["indi", "ces"], ["dis", "patch"], ["fi", "t"], ["num", "er"], ["el", "l"], ["p", "ho"], ["un", "til"], ["clo", "ud"], ["trans", "port"], ["d", "type"], ["acce", "pt"], ["z", "on"], ["const", "ants"], ["li", "br"], ["res", "er"], ["ref", "resh"], ["gr", "id"], ["arti", "fact"], ["dim", "ension"], ["b", "i"], ["dire", "ction"], ["marsh", "al"], ["cance", "l"], ["http", "s"], ["al", "t"], ["it", "or"], ["cook", "ie"], ["u", "ce"], ["lo", "de"], ["retrie", "ve"], ["ve", "lo"], ["for", "ms"], ["gro", "und"], ["leg", "al"], ["cap", "t"], ["dum", "p"], ["am", "l"], ["del", "ta"], ["exp", "i"], ["suf", "fix"], ["ro", "und"], ["e", "very"], ["b", "s"], ["plat", "form"], ["command", "s"], ["cer", "t"], ["use", "s"], ["rele", "ase"], ["parti", "tion"], ["l", "amb"], ["ver", "ify"], ["exp", "and"], ["ex", "tern"], ["no", "ti"], ["contain", "ing"], ["n", "d"], ["time", "s"], ["nest", "ed"], ["c", "d"], ["h", "ex"], ["ca", "ched"], ["struct", "ure"], ["print", "ln"], ["recor", "ds"], ["i", "ther"], ["p", "ing"], ["t", "d"], ["ho", "w"], ["ret", "ry"], ["pos", "sible"], ["re", "po"], ["calcul", "ate"], ["component", "s"], ["vi", "de"], ["list", "s"], ["pend", "ing"], ["lamb", "da"], ["service", "s"], ["res", "cue"], ["as", "on"], ["ro", "t"], ["uni", "code"], ["else", "if"], ["defin", "e"], ["con", "cat"], ["pro", "ces"], ["call", "s"], ["ca", "st"], ["il", "legal"], ["w", "w"], ["de", "s"], ["load", "er"], ["pho", "to"], ["6", "0"], ["match", "ing"], ["enum", "er"], ["iz", "ed"], ["user", "s"], ["io", "exception"], ["th", "resh"], ["ke", "ep"], ["in", "ner"], ["arch", "i"], ["ob", "ser"], ["sn", "ap"], ["i", "on"], ["tran", "si"], ["cke", "d"], ["ver", "bo"], ["v", "pn"], ["pro", "vision"], ["amo", "unt"], ["f", "rag"], ["comment", "s"], ["subscri", "ption"], ["peri", "od"], ["d", "ns"], ["mi", "me"], ["a", "cl"], ["feat", "ures"], ["s", "b"], ["d", "rop"], ["e", "ither"], ["de", "lay"], ["c", "and"], ["clo", "sed"], ["d", "raw"], ["pa", "ren"], ["j", "e"], ["1", "1"], ["v", "server"], ["tic", "s"], ["an", "ti"], ["al", "ph"], ["und", "er"], ["with", "in"], ["listen", "ers"], ["w", "er"], ["s", "en"], ["s", "ched"], ["task", "s"], ["date", "time"], ["id", "den"], ["update", "d"], ["http", "method"], ["re", "lated"], ["bas", "ic"], ["ip", "v"], ["bro", "ker"], ["sub", "ject"], ["fi", "re"], ["tic", "le"], ["extern", "al"], ["do", "t"], ["war", "d"], ["the", "me"], ["way", "s"], ["r", "m"], ["s", "m"], ["back", "ground"], ["f", "ul"], ["4", "0"], ["ck", "er"], ["r", "g"], ["pe", "er"], ["regi", "ste"], ["v", "ing"], ["me", "an"], ["associ", "ation"], ["lin", "ks"], ["name", "d"], ["at", "er"], ["p", "lan"], ["response", "s"], ["sub", "string"], ["au", "di"], ["en", "cry"], ["cy", "cle"], ["ctr", "l"], ["mem", "ory"], ["http", "path"], ["char", "s"], ["dependen", "cies"], ["al", "g"], ["permission", "s"], ["ab", "out"], ["to", "m"], ["registe", "red"], ["execu", "tion"], ["re", "verse"], ["cli", "ck"], ["auth", "or"], ["var", "s"], ["acti", "vity"], ["seri", "aliz"], ["eval", "u"], ["w", "are"], ["pix", "el"], ["in", "cre"], ["hist", "ory"], ["image", "s"], ["cand", "id"], ["rad", "i"], ["mem", "bers"], ["2", "00"], ["ma", "ster"], ["m", "u"], ["fact", "or"], ["norm", "alize"], ["re", "co"], ["numer", "ic"], ["extension", "s"], ["array", "s"], ["exception", "s"], ["call", "able"], ["l", "on"], ["int", "en"], ["sig", "ned"], ["p", "adding"], ["version", "s"], ["sum", "mary"], ["man", "y"], ["fon", "t"], ["remo", "ved"], ["tr", "i"], ["us", "age"], ["pre", "g"], ["b", "ad"], ["u", "de"], ["ti", "s"], ["stand", "ard"], ["do", "ut"], ["re", "pe"], ["en", "ame"], ["ti", "mer"], ["s", "he"], ["does", "n"], ["adap", "ter"], ["c", "tive"], ["fail", "ure"], ["p", "id"], ["credenti", "als"], ["els", "if"], ["coun", "ts"], ["raise", "s"], ["s", "av"], ["num", "py"], ["be", "st"], ["li", "ter"], ["re", "r"], ["stri", "ct"], ["h", "int"], ["1", "5"], ["ma", "c"], ["respon", "d"], ["he", "al"], ["l", "b"], ["function", "s"], ["sh", "ip"], ["h", "it"], ["associ", "ated"], ["f", "l"], ["verbo", "se"], ["st", "dout"], ["li", "ed"], ["flu", "sh"], ["initi", "alize"], ["pa", "gin"], ["attach", "ment"], ["exclu", "de"], ["bo", "ot"], ["charact", "ers"], ["as", "tic"], ["ab", "u"], ["to", "uch"], ["aggreg", "ate"], ["un", "its"], ["parti", "al"], ["syn", "chron"], ["bu", "cket"], ["w", "ant"], ["p", "lot"], ["max", "imum"], ["put", "s"], ["libr", "ary"], ["hy", "dr"], ["ren", "de"], ["tic", "al"], ["v", "m"], ["re", "store"], ["sh", "ot"], ["spa", "ces"], ["on", "ce"], ["spec", "ial"], ["re", "ason"], ["b", "ra"], ["un", "marshal"], ["cat", "alog"], ["f", "all"], ["b", "ility"], ["ar", "ticle"], ["config", "ured"], ["ro", "y"], ["i", "ent"], ["c", "c"], ["v", "1"], ["d", "t"], ["exec", "ut"], ["dest", "roy"], ["h", "ref"], ["iz", "ation"], ["coun", "try"], ["ap", "pro"], ["r", "c"], ["d", "le"], ["e", "ad"], ["al", "ways"], ["el", "astic"], ["compi", "le"], ["a", "ses"], ["re", "c"], ["end", "s"], ["iter", "able"], ["transl", "ation"], ["condition", "s"], ["thresh", "old"], ["ci", "ty"], ["dele", "ted"], ["d", "id"], ["modif", "y"], ["the", "ir"], ["plugin", "s"], ["inst", "ead"], ["format", "ter"], ["p", "ts"], ["request", "ed"], ["op", "s"], ["di", "alog"], ["y", "our"], ["che", "cked"], ["mid", "dle"], ["encode", "d"], ["r", "s"], ["fix", "ed"], ["rout", "er"], ["cs", "v"], ["re", "main"], ["dete", "ct"], ["bo", "th"], ["po", "se"], ["s", "3"], ["read", "s"], ["vide", "o"], ["e", "v"], ["pro", "c"], ["sched", "ule"], ["ab", "str"], ["ti", "ck"], ["ti", "m"], ["ref", "lect"], ["man", "ife"], ["manife", "st"], ["con", "sum"], ["target", "s"], ["map", "per"], ["r", "f"], ["sent", "ence"], ["edge", "s"], ["cho", "i"], ["per", "cent"], ["gener", "ic"], ["l", "int"], ["annot", "ations"], ["ic", "ation"], ["ti", "le"], ["2", "4"], ["assign", "ment"], ["hol", "der"], ["noti", "fy"], ["we", "ek"], ["w", "d"], ["m", "ig"], ["s", "ol"], ["proto", "type"], ["ma", "g"], ["c", "m"], ["heal", "th"], ["is", "on"], ["mar", "ker"], ["key", "word"], ["mo", "st"], ["b", "ig"], ["sto", "red"], ["dup", "lic"], ["r", "type"], ["dy", "n"], ["doc", "s"], ["e", "ps"], ["p", "x"], ["curren", "cy"], ["lu", "g"], ["bot", "tom"], ["work", "ing"], ["at", "om"], ["mon", "itor"], ["rep", "ly"], ["match", "er"], ["ge", "d"], ["o", "w"], ["y", "aml"], ["hel", "p"], ["follow", "ing"], ["snap", "shot"], ["archi", "ve"], ["alg", "ori"], ["abstr", "act"], ["e", "m"], ["gra", "de"], ["algori", "th"], ["al", "le"], ["b", "ul"], ["tra", "in"], ["recei", "ved"], ["compar", "ison"], ["fa", "st"], ["ver", "age"], ["conver", "ts"], ["m", "il"], ["take", "s"], ["s", "on"], ["ve", "c"], ["rou", "tes"], ["an", "im"], ["fo", "cus"], ["u", "ally"], ["e", "mb"], ["p", "ted"], ["an", "other"], ["s", "lug"], ["pop", "ul"], ["x", "x"], ["in", "f"], ["v", "lan"], ["table", "s"], ["quo", "te"], ["block", "s"], ["job", "s"], ["h", "idden"], ["defer", "red"], ["pro", "b"], ["expe", "ct"], ["e", "f"], ["day", "s"], ["resol", "ved"], ["sche", "me"], ["collection", "s"], ["in", "line"], ["alph", "a"], ["process", "or"], ["ref", "lection"], ["cent", "er"], ["g", "y"], ["p", "la"], ["u", "me"], ["me", "as"], ["se", "p"], ["frag", "ment"], ["url", "s"], ["match", "ed"], ["template", "s"], ["enti", "ties"], ["decor", "ator"], ["sha", "red"], ["fe", "ed"], ["emb", "ed"], ["di", "gest"], ["3", "0"], ["char", "t"], ["wh", "at"], ["pan", "e"], ["a", "wait"], ["ab", "o"], ["7", "5"], ["k", "l"], ["gener", "ated"], ["seg", "ments"], ["notifi", "cation"], ["t", "cp"], ["is", "o"], ["initi", "aliz"], ["liter", "al"], ["b", "lan"], ["es", "s"], ["source", "s"], ["temp", "or"], ["authoriz", "ation"], ["fo", "o"], ["num", "bers"], ["e", "qui"], ["ker", "nel"], ["custom", "er"], ["s", "is"], ["an", "k"], ["dir", "name"], ["en", "ded"], ["red", "uce"], ["r", "pc"], ["de", "v"], ["h", "our"], ["start", "ing"], ["col", "s"], ["v", "ation"], ["algorith", "m"], ["be", "ing"], ["play", "er"], ["coordin", "ates"], ["bo", "ard"], ["mi", "x"], ["com", "bin"], ["mig", "r"], ["z", "y"], ["g", "p"], ["g", "ot"], ["a", "k"], ["m", "as"], ["li", "ght"], ["she", "et"], ["remain", "ing"], ["norm", "alized"], ["sh", "ell"], ["blan", "k"], ["remo", "ves"], ["d", "st"], ["ch", "un"], ["v", "ault"], ["role", "s"], ["calcul", "ations"], ["00", "00"], ["fore", "ign"], ["c", "ing"], ["ta", "ct"], ["lic", "en"], ["send", "er"], ["1", "4"], ["sample", "s"], ["su", "ch"], ["org", "an"], ["load", "ing"], ["tool", "s"], ["cor", "respon"], ["ver", "tex"], ["deli", "m"], ["co", "s"], ["ic", "al"], ["code", "s"], ["in", "str"], ["for", "ward"], ["metric", "s"], ["ali", "ty"], ["vel", "y"], ["host", "name"], ["need", "s"], ["f", "ree"], ["al", "ign"], ["dir", "s"], ["warning", "s"], ["me", "try"], ["s", "qu"], ["if", "ied"], ["the", "se"], ["trans", "late"], ["g", "t"], ["vi", "a"], ["in", "ser"], ["flat", "ten"], ["k", "nown"], ["bas", "ename"], ["attemp", "t"], ["int", "64"], ["ne", "cess"], ["l", "ar"], ["po", "ly"], ["h", "s"], ["f", "w"], ["collect", "or"], ["sk", "ill"], ["sc", "en"], ["e", "qu"], ["index", "es"], ["v", "2"], ["pre", "di"], ["state", "s"], ["to", "o"], ["comp", "il"], ["config", "ur"], ["incre", "ment"], ["ma", "inten"], ["recur", "sive"], ["fin", "ally"], ["position", "s"], ["mainten", "ance"], ["audi", "o"], ["im", "al"], ["input", "s"], ["ing", "s"], ["mo", "use"], ["sty", "pe"], ["ma", "j"], ["conne", "cted"], ["c", "id"], ["cip", "her"], ["s", "ur"], ["b", "lob"], ["un", "able"], ["5", "0"], ["di", "str"], ["config", "ure"], ["vis", "it"], ["p", "ad"], ["ex", "c"], ["extend", "s"], ["der", "i"], ["current", "ly"], ["cke", "ts"], ["bu", "il"], ["enumer", "ate"], ["file", "system"], ["const", "ant"], ["u", "ction"], ["am", "ic"], ["str", "len"], ["proces", "sed"], ["white", "space"], ["mat", "er"], ["lic", "it"], ["ro", "ss"], ["norm", "al"], ["in", "ject"], ["av", "oid"], ["necess", "ary"], ["3", "3"], ["syn", "tax"], ["buil", "t"], ["e", "st"], ["pattern", "s"], ["format", "ted"], ["file", "path"], ["back", "end"], ["radi", "us"], ["constraint", "s"], ["re", "en"], ["ke", "eps"], ["exp", "r"], ["go", "og"], ["represent", "ation"], ["ref", "s"], ["res", "ses"], ["loc", "ator"], ["rg", "b"], ["p", "ur"], ["call", "ing"], ["sw", "ap"], ["ut", "c"], ["consum", "er"], ["distr", "ibu"], ["pro", "ble"], ["in", "her"], ["f", "req"], ["h", "i"], ["windo", "ws"], ["en", "cy"], ["co", "st"], ["pi", "e"], ["p", "ret"], ["na", "tive"], ["ac", "c"], ["fall", "back"], ["p", "ull"], ["cur", "l"], ["t", "un"], ["g", "ation"], ["no", "thing"], ["x", "path"], ["dis", "k"], ["manage", "ment"], ["sc", "reen"], ["load", "s"], ["il", "y"], ["p", "b"], ["transi", "tion"], ["repe", "at"], ["ca", "de"], ["meas", "ure"], ["definition", "s"], ["kl", "ass"], ["de", "ep"], ["la", "zy"], ["ph", "ase"], ["re", "vision"], ["i", "18"], ["binding", "s"], ["format", "s"], ["e", "cho"], ["sh", "ad"], ["b", "al"], ["resol", "ver"], ["0", "1"], ["std", "err"], ["invo", "ke"], ["pro", "mp"], ["analy", "sis"], ["is", "ion"], ["chun", "ks"], ["correspon", "ding"], ["in", "side"], ["v", "r"], ["exp", "lode"], ["nd", "array"], ["in", "s"], ["fi", "g"], ["candid", "ate"], ["bul", "k"], ["include", "s"], ["par", "tic"], ["ipv", "6"], ["c", "ti"], ["compa", "ti"], ["le", "ad"], ["callback", "s"], ["retrie", "ves"], ["en", "ces"], ["can", "v"], ["que", "s"], ["sv", "c"], ["sub", "mit"], ["read", "able"], ["sv", "g"], ["te", "am"], ["h", "av"], ["s", "d"], ["all", "er"], ["specif", "y"], ["li", "ties"], ["pr", "in"], ["canv", "as"], ["min", "u"], ["up", "grade"], ["c", "am"], ["con", "s"], ["inspect", "s"], ["relation", "ship"], ["cur", "r"], ["rout", "ing"], ["ca", "pa"], ["feren", "ce"], ["predi", "cate"], ["min", "imum"], ["out", "er"], ["connection", "s"], ["d", "ra"], ["rep", "lication"], ["dyn", "amic"], ["sta", "tis"], ["j", "u"], ["x", "1"], ["g", "g"], ["call", "y"], ["deploy", "ment"], ["t", "t"], ["d", "ur"], ["disable", "d"], ["100", "0"], ["5", "4"], ["goog", "le"], ["geo", "metry"], ["par", "a"], ["style", "s"], ["si", "z"], ["t", "tl"], ["watch", "er"], ["base", "64"], ["a", "tive"], ["am", "a"], ["je", "ction"], ["work", "flow"], ["recei", "ver"], ["di", "g"], ["ans", "wer"], ["allow", "s"], ["e", "ven"], ["red", "is"], ["starts", "with"], ["na", "vi"], ["t", "xt"], ["app", "fw"], ["st", "ers"], ["se", "ed"], ["ac", "cor"], ["pix", "els"], ["u", "ti"], ["c", "ut"], ["1", "3"], ["ne", "igh"], ["pay", "ment"], ["operation", "s"], ["ar", "n"], ["regex", "p"], ["en", "velo"], ["sl", "ash"], ["rende", "rer"], ["gre", "ater"], ["sub", "net"], ["float", "64"], ["o", "auth"], ["f", "ut"], ["u", "tion"], ["ho", "me"], ["m", "m"], ["pla", "in"], ["no", "tes"], ["w", "ild"], ["view", "s"], ["dele", "tes"], ["get", "attr"], ["direct", "ories"], ["j", "b"], ["reser", "ved"], ["range", "s"], ["star", "ted"], ["ra", "ti"], ["oc", "cur"], ["s", "al"], ["st", "mt"], ["accor", "ding"], ["le", "ast"], ["sav", "ed"], ["gr", "ad"], ["date", "s"], ["de", "prec"], ["ter", "s"], ["capt", "ure"], ["indi", "c"], ["enco", "der"], ["indi", "cate"], ["tr", "ac"], ["wal", "k"], ["licen", "se"], ["if", "ier"], ["au", "dit"], ["ama", "zon"], ["map", "s"], ["1", "9"], ["ad", "just"], ["delim", "iter"], ["deprec", "ated"], ["wri", "t"], ["issue", "s"], ["envelo", "pe"], ["vari", "ant"], ["al", "er"], ["er", "a"], ["attemp", "ts"], ["pro", "gram"], ["pk", "g"], ["se", "cu"], ["op", "ti"], ["mon", "go"], ["b", "el"], ["cre", "ating"], ["id", "ge"], ["h", "ip"], ["neigh", "b"], ["po", "ll"], ["j", "av"], ["writ", "ten"], ["life", "cycle"], ["t", "re"], ["weight", "s"], ["igno", "red"], ["fo", "li"], ["dec", "imal"], ["ter", "ms"], ["cl", "d"], ["str", "pos"], ["si", "bl"], ["implement", "ation"], ["b", "ill"], ["a", "red"], ["i18", "n"], ["me", "sh"], ["g", "u"], ["ld", "ap"], ["resol", "ves"], ["la", "ck"], ["n", "x"], ["config", "s"], ["replace", "ment"], ["add", "resses"], ["n", "g"], ["si", "ty"], ["h", "ide"], ["so", "und"], ["com", "ma"], ["str", "to"], ["organ", "ization"], ["d", "ash"], ["pn", "g"], ["iz", "er"], ["r", "v"], ["promp", "t"], ["s", "an"], ["y", "y"], ["rati", "o"], ["h", "r"], ["inclu", "ded"], ["provid", "ers"], ["ali", "ases"], ["dis", "co"], ["registr", "ation"], ["supp", "lied"], ["work", "s"], ["imp", "lode"], ["inst", "anti"], ["manage", "d"], ["me", "ans"], ["gate", "way"], ["middle", "ware"], ["wait", "ing"], ["color", "s"], ["ent", "er"], ["categ", "ories"], ["pri", "ce"], ["st", "age"], ["seri", "al"], ["int", "ent"], ["str", "ate"], ["ur", "al"], ["port", "foli"], ["b", "and"], ["ag", "a"], ["b", "order"], ["l", "s"], ["ar", "ies"], ["gi", "th"], ["ww", "w"], ["quer", "ies"], ["cla", "use"], ["aga", "inst"], ["gith", "ub"], ["g", "c"], ["frame", "s"], ["ti", "p"], ["res", "sed"], ["y", "et"], ["ha", "vi"], ["se", "ver"], ["be", "havi"], ["h", "old"], ["run", "s"], ["p", "df"], ["d", "ers"], ["clo", "sing"], ["un", "lock"], ["associ", "ate"], ["q", "l"], ["e", "ffect"], ["dig", "its"], ["i", "i"], ["distribu", "tion"], ["ne", "ga"], ["di", "ag"], ["n", "an"], ["a", "z"], ["ver", "ti"], ["p", "w"], ["or", "de"], ["level", "s"], ["e", "c"], ["comple", "ted"], ["prec", "ision"], ["orde", "red"], ["un", "expected"], ["tra", "ct"], ["li", "es"], ["le", "ep"], ["til", "l"], ["p", "tr"], ["log", "s"], ["ang", "ular"], ["indic", "ator"], ["fa", "cade"], ["logic", "al"], ["m", "k"], ["server", "s"], ["f", "ron"], ["statis", "tics"], ["nega", "tive"], ["tra", "il"], ["ac", "ces"], ["str", "ap"], ["migr", "ation"], ["compu", "ted"], ["wri", "tes"], ["w", "p"], ["confi", "rm"], ["cell", "s"], ["ci", "i"], ["val", "s"], ["p", "orts"], ["g", "ue"], ["clo", "sure"], ["document", "s"], ["string", "ify"], ["t", "m"], ["check", "ing"], ["state", "ments"], ["persist", "ence"], ["t", "c"], ["com", "po"], ["wrap", "ped"], ["c", "ross"], ["as", "sets"], ["s", "lo"], ["z", "o"], ["c", "mp"], ["con", "tact"], ["tr", "un"], ["c", "ations"], ["s", "leep"], ["paren", "ts"], ["zer", "os"], ["sub", "s"], ["25", "6"], ["we", "re"], ["per", "son"], ["re", "v"], ["ance", "stor"], ["exp", "licit"], ["um", "b"], ["l", "st"], ["po", "t"], ["car", "t"], ["app", "lic"], ["compa", "ct"], ["oc", "curren"], ["al", "led"], ["00", "0"], ["proce", "d"], ["wi", "re"], ["iter", "ation"], ["o", "jb"], ["finish", "ed"], ["cli", "p"], ["loc", "ate"], ["d", "rag"], ["inst", "alled"], ["helper", "s"], ["device", "s"], ["duplic", "ate"], ["g", "ers"], ["et", "c"], ["reg", "ular"], ["md", "5"], ["choi", "ce"], ["vi", "p"], ["k", "en"], ["auto", "ma"], ["f", "li"], ["as", "cii"], ["si", "vely"], ["prin", "cip"], ["elastic", "search"], ["par", "sing"], ["boot", "strap"], ["b", "on"], ["scope", "s"], ["frame", "work"], ["de", "serialize"], ["b", "g"], ["trans", "fer"], ["clean", "up"], ["place", "holder"], ["res", "ize"], ["mater", "ial"], ["cn", "abu"], ["channel", "s"], ["attach", "ments"], ["fut", "ure"], ["obser", "v"], ["f", "d"], ["r", "up"], ["tl", "s"], ["m", "ight"], ["ar", "o"], ["bu", "sin"], ["busin", "ess"], ["exp", "orts"], ["policy", "label"], ["d", "u"], ["ass", "ume"], ["reference", "d"], ["t", "wi"], ["strate", "gy"], ["de", "tach"], ["ri", "c"], ["ne", "ss"], ["if", "ication"], ["de", "si"], ["tr", "ies"], ["re", "name"], ["fron", "t"], ["a", "verage"], ["rot", "ation"], ["o", "pa"], ["p", "do"], ["g", "ui"], ["ab", "ort"], ["h", "ub"], ["re", "ver"], ["h", "ier"], ["capt", "ures"], ["read", "ers"], ["h", "al"], ["work", "space"], ["ex", "act"], ["in", "es"], ["ques", "tion"], ["r", "ub"], ["o", "th"], ["gr", "ant"], ["fi", "ci"], ["authoriz", "ed"], ["supp", "ress"], ["portfoli", "o"], ["ret", "val"], ["ar", "row"], ["thread", "s"], ["conver", "ted"], ["initi", "alized"], ["le", "af"], ["in", "v"], ["ti", "cally"], ["d", "d"], ["do", "cker"], ["x", "2"], ["endpoint", "s"], ["f", "p"], ["recei", "ve"], ["le", "s"], ["cre", "ation"], ["te", "m"], ["s", "till"], ["m", "ir"], ["m", "r"], ["writer", "s"], ["r", "ank"], ["abo", "ve"], ["path", "name"], ["desi", "red"], ["trail", "ing"], ["char", "set"], ["conver", "ter"], ["modif", "ier"], ["loc", "ked"], ["h", "5"], ["credenti", "al"], ["comp", "ress"], ["let", "on"], ["t", "or"], ["sh", "ut"], ["iter", "ate"], ["f", "ab"], ["j", "db"], ["over", "write"], ["m", "ill"], ["ba", "sel"], ["ce", "ption"], ["con", "su"], ["appro", "pri"], ["uint", "32"], ["n", "u"], ["direct", "ly"], ["p", "or"], ["language", "s"], ["jdb", "c"], ["pre", "pa"], ["un", "ch"], ["ss", "h"], ["dispatch", "er"], ["symbol", "s"], ["ap", "sed"], ["reco", "g"], ["de", "co"], ["appropri", "ate"], ["sh", "are"], ["e", "di"], ["rel", "ations"], ["r", "ds"], ["provi", "de"], ["proble", "m"], ["c", "py"], ["pair", "s"], ["exp", "an"], ["m", "ic"], ["oper", "ate"], ["c", "ame"], ["ph", "one"], ["w", "ave"], ["example", "s"], ["lay", "ers"], ["recur", "sively"], ["maj", "or"], ["con", "sist"], ["8", "0"], ["feren", "ces"], ["hour", "s"], ["cla", "zz"], ["g", "l"], ["g", "sub"], ["siz", "es"], ["re", "load"], ["a", "ck"], ["find", "er"], ["f", "ra"], ["v", "end"], ["con", "ven"], ["fa", "ces"], ["x", "0"], ["imp", "l"], ["expi", "res"], ["package", "s"], ["merge", "d"], ["or", "ds"], ["the", "ta"], ["un", "supported"], ["1", "7"], ["scan", "ner"], ["r", "or"], ["attr", "i"], ["inter", "po"], ["x", "hr"], ["gener", "al"], ["hook", "s"], ["25", "5"], ["re", "write"], ["pre", "view"], ["ori", "ent"], ["ple", "ase"], ["di", "git"], ["dur", "ing"], ["gen", "e"], ["75", "54"], ["par", "ses"], ["up", "dat"], ["si", "mil"], ["specific", "ation"], ["equi", "pa"], ["spe", "ed"], ["con", "v"], ["e", "ol"], ["seri", "alized"], ["2", "2"], ["s", "of"], ["san", "iti"], ["equipa", "ment"], ["ction", "s"], ["z", "a"], ["br", "idge"], ["mut", "able"], ["basel", "ine"], ["hydr", "ated"], ["k", "i"], ["v", "a"], ["fe", "red"], ["g", "ame"], ["handle", "s"], ["go", "ver"], ["ch", "ro"], ["p", "in"], ["lin", "ked"], ["co", "ords"], ["be", "low"], ["minu", "tes"], ["de", "ad"], ["n", "at"], ["c", "lock"], ["r", "hs"], ["pagin", "ation"], ["j", "ax"], ["prod", "u"], ["return", "ing"], ["aro", "und"], ["co", "lo"], ["end", "ing"], ["proces", "ses"], ["visi", "bility"], ["h", "app"], ["read", "ing"], ["li", "ct"], ["alle", "l"], ["cam", "era"], ["annot", "ate"], ["simil", "ar"], ["pre", "fer"], ["output", "s"], ["co", "pi"], ["ar", "ia"], ["im", "mediate"], ["host", "s"], ["mo", "unt"], ["check", "sum"], ["aggreg", "ation"], ["pi", "cker"], ["sq", "rt"], ["ct", "or"], ["char", "m"], ["h", "um"], ["posi", "tive"], ["dis", "card"], ["at", "t"], ["6", "6"], ["make", "s"], ["ad", "v"], ["on", "es"], ["sof", "t"], ["ev", "t"], ["be", "hav"], ["as", "ser"], ["esca", "ped"], ["de", "sign"], ["offset", "s"], ["db", "cluster"], ["com", "ing"], ["be", "at"], ["cook", "ies"], ["com", "b"], ["st", "ro"], ["r", "df"], ["aa", "a"], ["t", "urn"], ["mar", "ks"], ["rout", "ine"], ["so", "meth"], ["type", "d"], ["utf", "8"], ["mt", "as"], ["someth", "ing"], ["conf", "lict"], ["buf", "fered"], ["vend", "or"], ["dimension", "s"], ["l", "ap"], ["prefix", "es"], ["case", "s"], ["se", "en"], ["le", "m"], ["hier", "arch"], ["ag", "ain"], ["ex", "change"], ["d", "j"], ["mar", "ked"], ["st", "an"], ["si", "l"], ["opti", "mi"], ["k", "now"], ["99", "99"], ["fab", "ric"], ["bel", "ong"], ["evalu", "ate"], ["behav", "es"], ["may", "be"], ["dis", "cus"], ["th", "ose"], ["coordin", "ate"], ["mic", "ro"], ["compati", "ble"], ["serializ", "er"], ["wri", "ting"], ["mir", "ror"], ["scal", "er"], ["y", "s"], ["z", "ed"], ["sen", "si"], ["bl", "ue"], ["happ", "en"], ["compi", "led"], ["sibl", "ing"], ["h", "ori"], ["posi", "te"], ["tempor", "ary"], ["az", "ure"], ["d", "x"], ["discus", "sion"], ["m", "and"], ["lar", "ge"], ["provision", "ing"], ["flo", "or"], ["pret", "ty"], ["f", "at"], ["compil", "er"], ["si", "p"], ["partic", "ular"], ["squ", "are"], ["mapping", "s"], ["gue", "ss"], ["mill", "is"], ["fi", "c"], ["contain", "ers"], ["id", "le"], ["encry", "pted"], ["l", "and"], ["proced", "ure"], ["has", "attr"], ["norm", "aliz"], ["scen", "e"], ["s", "olu"], ["con", "version"], ["ab", "lish"], ["persist", "ent"], ["me", "l"], ["contin", "u"], ["fici", "ent"], ["pi", "ck"], ["sever", "ity"], ["indi", "vid"], ["wri", "table"], ["build", "s"], ["secu", "re"], ["li", "ve"], ["ret", "ries"], ["ou", "gh"], ["c", "wd"], ["d", "c"], ["automa", "tically"], ["sn", "mp"], ["c", "pe"], ["p", "ress"], ["anim", "ation"], ["y", "pe"], ["e", "g"], ["spli", "ce"], ["est", "ablish"], ["run", "ner"], ["p", "2"], ["5", "8"], ["ma", "ker"], ["imp", "orts"], ["md", "l"], ["la", "unch"], ["z", "ap"], ["ver", "tical"], ["g", "vr"], ["i", "ers"], ["er", "ce"], ["p", "1"], ["as", "cri"], ["shad", "ow"], ["can", "on"], ["con", "tract"], ["pan", "el"], ["p", "res"], ["con", "d"], ["rf", "c"], ["ag", "ing"], ["n", "t"], ["wild", "card"], ["w", "ell"], ["in", "k"], ["anch", "or"], ["dele", "gate"], ["throw", "able"], ["asy", "n"], ["or", "ter"], ["face", "t"], ["tp", "l"], ["every", "thing"], ["ipv", "4"], ["see", "k"], ["transl", "ations"], ["ce", "pt"], ["transform", "er"], ["inher", "it"], ["as", "se"], ["m", "arg"], ["late", "st"], ["is", "n"], ["up", "on"], ["bal", "ance"], ["qu", "anti"], ["si", "mul"], ["equipament", "o"], ["al", "tern"], ["r", "ing"], ["inter", "faces"], ["es", "tim"], ["sensi", "tive"], ["deli", "very"], ["c", "rop"], ["pre", "f"], ["ob", "tain"], ["un", "pack"], ["gover", "ns"], ["t", "abs"], ["get", "ting"], ["r", "x"], ["navi", "gation"], ["inclu", "ding"], ["au", "x"], ["find", "s"], ["resol", "ution"], ["sr", "v"], ["tr", "ust"], ["jav", "ascri"], ["rub", "y"], ["class", "name"], ["strto", "lower"], ["e", "of"], ["code", "c"], ["dat", "as"], ["scri", "pts"], ["dec", "ry"], ["a", "o"], ["as", "c"], ["hori", "zon"], ["h", "its"], ["pe", "ct"], ["inter", "section"], ["inte", "rest"], ["execut", "or"], ["transl", "ator"], ["f", "name"], ["r", "b"], ["de", "g"], ["map", "ped"], ["freq", "u"], ["reco", "very"], ["s", "mar"], ["si", "an"], ["line", "ar"], ["handl", "ing"], ["pa", "ces"], ["de", "velo"], ["synchron", "ized"], ["cur", "ve"], ["individ", "ual"], ["tx", "n"], ["cn", "t"], ["f", "am"], ["in", "verse"], ["b", "lack"], ["graph", "ic"], ["tit", "ude"], ["wal", "let"], ["si", "x"], ["choi", "ces"], ["solu", "tion"], ["pie", "ce"], ["ss", "m"], ["rep", "la"], ["recog", "n"], ["k", "a"], ["to", "gg"], ["pop", "up"], ["hy", "per"], ["ron", "g"], ["p", "d"], ["princip", "al"], ["polic", "ies"], ["attach", "ed"], ["il", "s"], ["schedule", "d"], ["w", "rong"], ["j", "id"], ["shut", "down"], ["i", "ce"], ["sm", "all"], ["co", "ur"], ["vari", "ance"], ["hash", "es"], ["track", "er"], ["b", "ed"], ["auto", "m"], ["act", "ually"], ["rep", "orts"], ["success", "fully"], ["high", "light"], ["names", "paces"], ["0", "2"], ["send", "s"], ["an", "go"], ["ext", "ent"], ["expression", "s"], ["ne", "ver"], ["separ", "ated"], ["candid", "ates"], ["embed", "ded"], ["publish", "ed"], ["time", "zone"], ["d", "l"], ["roll", "back"], ["secret", "s"], ["ac", "y"], ["ste", "ms"], ["respon", "der"], ["behavi", "or"], ["l", "t"], ["mo", "le"], ["remo", "ving"], ["configur", "ations"], ["be", "ta"], ["consu", "me"], ["inter", "rup"], ["po", "d"], ["applic", "ations"], ["javascri", "pt"], ["success", "ful"], ["net", "scaler"], ["prepa", "red"], ["cer", "tain"], ["am", "pl"], ["note", "book"], ["a", "jax"], ["colo", "ur"], ["pagin", "ator"], ["implement", "ed"], ["key", "words"], ["th", "ree"], ["arg", "v"], ["sub", "set"], ["r", "d"], ["exp", "ir"], ["3", "6"], ["multi", "p"], ["ver", "b"], ["compar", "ator"], ["qual", "ified"], ["depend", "ent"], ["reser", "ve"], ["b", "c"], ["local", "es"], ["service", "group"], ["stream", "s"], ["so", "ck"], ["hand", "led"], ["hal", "f"], ["zo", "om"], ["expan", "ded"], ["en", "g"], ["min", "or"], ["atom", "ic"], ["equ", "ip"], ["dep", "s"], ["app", "lied"], ["hydr", "ate"], ["fl", "ash"], ["dif", "ference"], ["subs", "tit"], ["di", "al"], ["stan", "za"], ["dire", "ctive"], ["re", "cent"], ["ca", "ch"], ["ci", "r"], ["ten", "ant"], ["b", "b"], ["prod", "uce"], ["loc", "ations"], ["s", "alt"], ["k", "ing"], ["sequ", "ences"], ["bro", "ad"], ["pe", "ar"], ["db", "instance"], ["com", "posite"], ["sequ", "ent"], ["v", "s"], ["lead", "ing"], ["percent", "age"], ["pl", "ural"], ["uint", "64"], ["pe", "t"], ["thing", "s"], ["i", "an"], ["auth", "ors"], ["new", "line"], ["co", "g"], ["or", "th"], ["ali", "ve"], ["dra", "ft"], ["pr", "f"], ["n", "av"], ["ax", "es"], ["access", "or"], ["instr", "uction"], ["m", "f"], ["expir", "ation"], ["co", "verage"], ["an", "on"], ["t", "w"], ["it", "self"], ["en", "o"], ["long", "it"], ["par", "allel"], ["send", "ing"], ["expi", "red"], ["qu", "ad"], ["be", "am"], ["verti", "ces"], ["q", "p"], ["analy", "si"], ["analysi", "stype"], ["at", "ype"], ["back", "trace"], ["stro", "ke"], ["serializ", "ation"], ["bound", "ary"], ["termin", "al"], ["sol", "r"], ["ar", "io"], ["notifi", "cations"], ["subscri", "be"], ["bs", "on"], ["parti", "tions"], ["comb", "ine"], ["scal", "ar"], ["text", "ure"], ["aler", "t"], ["train", "ing"], ["up", "loaded"], ["indicate", "s"], ["use", "ful"], ["3", "9"], ["popul", "ate"], ["c", "as"], ["po", "wer"], ["cor", "p"], ["war", "ds"], ["regi", "sters"], ["bill", "ing"], ["m", "or"], ["t", "ap"], ["exp", "lan"], ["inte", "gr"], ["i", "ted"], ["mag", "ic"], ["app", "s"], ["ment", "al"], ["marg", "in"], ["l", "c"], ["global", "s"], ["in", "coming"], ["connect", "or"], ["sing", "leton"], ["validate", "s"], ["para", "graph"], ["p", "q"], ["se", "ct"], ["p", "g"], ["la", "titude"], ["n", "r"], ["n", "1"], ["check", "er"], ["vis", "itor"], ["go", "ing"], ["g", "aller"], ["transform", "ation"], ["g", "on"], ["provision", "ed"], ["mk", "dir"], ["2", "d"], ["uti", "lity"], ["col", "on"], ["v", "ol"], ["uint", "8"], ["d", "ue"], ["sig", "ma"], ["comp", "ression"], ["t", "z"], ["fin", "ite"], ["mix", "ed"], ["o", "data"], ["dir", "ty"], ["fat", "al"], ["e", "q"], ["k", "ill"], ["rende", "red"], ["ex", "peri"], ["sp", "ans"], ["sy", "stems"], ["c", "raw"], ["prob", "ab"], ["uni", "on"], ["ext", "ended"], ["g", "sl"], ["si", "m"], ["re", "cip"], ["network", "api"], ["ud", "p"], ["g", "ap"], ["go", "od"], ["do", "i"], ["st", "al"], ["th", "umb"], ["mp", "p"], ["g", "zip"], ["sil", "ent"], ["u", "x"], ["ly", "ing"], ["sp", "l"], ["ef", "ficient"], ["pre", "diction"], ["no", "un"], ["gp", "f"], ["f", "ri"], ["condition", "al"], ["run", "e"], ["w", "t"], ["mil", "li"], ["re", "strict"], ["vi", "c"], ["longit", "ude"], ["gre", "en"], ["togg", "le"], ["es", "lint"], ["over", "flow"], ["fam", "ily"], ["ph", "y"], ["pre", "ferences"], ["u", "ff"], ["per", "m"], ["inter", "cept"], ["en", "c"], ["orient", "ation"], ["comp", "ressed"], ["gro", "u"], ["tuple", "s"], ["bu", "s"], ["s", "mo"], ["sh", "ard"], ["sub", "sequent"], ["supp", "orts"], ["dis", "connect"], ["as", "signed"], ["recip", "ient"], ["option", "ally"], ["b", "an"], ["opa", "city"], ["sy", "ll"], ["ap", "point"], ["enti", "al"], ["w", "l"], ["li", "te"], ["execut", "able"], ["ty", "p"], ["cog", "ni"], ["i", "re"], ["context", "s"], ["h", "dr"], ["sa", "tis"], ["imple", "ments"], ["p", "al"], ["prefer", "red"], ["4", "8"], ["decl", "ared"], ["9", "0"], ["v", "ot"], ["w", "k"], ["pro", "pa"], ["stop", "ped"], ["ob", "server"], ["client", "s"], ["qu", "ality"], ["ff", "ff"], ["act", "or"], ["p", "se"], ["s", "id"], ["recor", "der"], ["deco", "der"], ["ip", "address"], ["f", "ar"], ["quo", "tes"], ["depend", "ing"], ["per", "forms"], ["project", "s"], ["over", "lap"], ["w", "all"], ["declar", "ations"], ["flu", "x"], ["open", "ed"], ["acce", "pted"], ["acces", "sible"], ["class", "ifier"], ["provi", "des"], ["any", "thing"], ["ge", "s"], ["li", "m"], ["canon", "ical"], ["wh", "ole"], ["en", "h"], ["o", "e"], ["gre", "es"], ["lo", "ss"], ["lem", "ma"], ["queue", "s"], ["local", "s"], ["let", "ter"], ["log", "ged"], ["m", "v"], ["pan", "ic"], ["tra", "ject"], ["tempor", "al"], ["vari", "ants"], ["y", "1"], ["40", "4"], ["galler", "y"], ["authentic", "ated"], ["bundle", "s"], ["me", "mo"], ["cogni", "to"], ["ends", "with"], ["el", "y"], ["p", "en"], ["trig", "gers"], ["separ", "ate"], ["sco", "res"], ["gsl", "b"], ["tag", "ged"], ["co", "ver"], ["app", "lies"], ["exclu", "ded"], ["f", "k"], ["sub", "mission"], ["ap", "pear"], ["met", "abo"], ["scen", "ario"], ["h", "ar"], ["bin", "s"], ["re", "view"], ["de", "grees"], ["k", "it"], ["encry", "pt"], ["s", "1"], ["um", "p"], ["horizon", "tal"], ["ti", "d"], ["i", "pa"], ["w", "b"], ["w", "ater"], ["n", "w"], ["hum", "an"], ["su", "g"], ["ch", "r"], ["acti", "vation"], ["q", "t"], ["y", "es"], ["syll", "able"], ["def", "s"], ["ge", "m"], ["associ", "ations"], ["ele", "ms"], ["ord", "in"], ["2", "3"], ["ef", "fe"], ["frequ", "ency"], ["get", "ter"], ["new", "s"], ["p", "and"], ["at", "o"], ["sing", "ular"], ["begin", "ning"], ["i", "x"], ["mach", "ines"], ["en", "abu"], ["h", "op"], ["l", "gc"], ["adv", "ance"], ["initializ", "es"], ["pl", "us"], ["inspect", "or"], ["rot", "ate"], ["ph", "ra"], ["vi", "ol"], ["ir", "d"], ["observ", "able"], ["hint", "s"], ["p", "m"], ["delete", "resources"], ["id", "er"], ["gener", "ation"], ["x", "mpp"], ["lan", "e"], ["spe", "ction"], ["mark", "down"], ["5", "00"], ["grad", "ient"], ["co", "upon"], ["asser", "tion"], ["ni", "ck"], ["mu", "tex"], ["re", "connect"], ["comm", "un"], ["ad", "j"], ["section", "s"], ["hierarch", "y"], ["lex", "ception"], ["as", "pect"], ["ampl", "ing"], ["t", "n"], ["s", "us"], ["combin", "ed"], ["g", "s"], ["ph", "i"], ["encry", "ption"], ["bra", "ckets"], ["in", "i"], ["came", "l"], ["equi", "val"], ["o", "me"], ["i", "q"], ["trans", "forms"], ["render", "ing"], ["el", "apsed"], ["identifi", "ers"], ["g", "am"], ["poly", "gon"], ["m", "g"], ["visi", "ted"], ["ta", "ken"], ["k", "v"], ["im", "mutable"], ["dj", "ango"], ["exp", "orted"], ["dete", "cted"], ["io", "m"], ["broad", "cast"], ["li", "ca"], ["se", "x"], ["wi", "ki"], ["su", "res"], ["sub", "class"], ["u", "c"], ["p", "p"], ["mp", "x"], ["c", "sr"], ["comple", "tion"], ["e", "ts"], ["con", "ti"], ["ous", "ly"], ["cre", "ator"], ["float", "32"], ["info", "s"], ["sk", "y"], ["t", "u"], ["lo", "ver"], ["tr", "ap"], ["post", "s"], ["tra", "f"], ["spec", "i"], ["acce", "pts"], ["ni", "i"], ["expi", "re"], ["mess", "aging"], ["oper", "and"], ["execu", "ted"], ["ar", "t"], ["g", "b"], ["defin", "es"], ["under", "lying"], ["int", "32"], ["concat", "en"], ["dum", "ps"], ["represent", "s"], ["mole", "cu"], ["gi", "ve"], ["to", "ler"], ["mel", "is"], ["sh", "r"], ["calcul", "ates"], ["ro", "o"], ["i", "v"], ["sche", "mas"], ["out", "bound"], ["hi", "sto"], ["le", "ave"], ["slo", "ts"], ["asyn", "chron"], ["tax", "on"], ["comm", "uni"], ["ac", "counts"], ["pa", "use"], ["ra", "ils"], ["sd", "k"], ["rt", "l"], ["domain", "s"], ["ui", "5"], ["re", "vo"], ["ho", "t"], ["s", "x"], ["raise", "d"], ["clo", "ser"], ["li", "er"], ["comm", "its"], ["pro", "files"], ["g", "z"], ["we", "st"], ["trans", "formed"], ["func", "s"], ["mark", "up"], ["g", "uid"], ["ln", "g"], ["is", "m"], ["work", "ers"], ["quo", "ted"], ["belong", "s"], ["c", "ab"], ["tor", "rent"], ["sample", "d"], ["capa", "city"], ["com", "put"], ["cap", "tion"], ["p", "reserve"], ["dat", "um"], ["d", "h"], ["amb", "ient"], ["w", "ind"], ["authori", "zer"], ["autom", "ation"], ["int", "ro"], ["cal", "i"], ["fail", "s"], ["deri", "ved"], ["l", "ers"], ["po", "w"], ["occurren", "ce"], ["ver", "ification"], ["vect", "ors"], ["in", "vent"], ["lo", "pt"], ["open", "ing"], ["bound", "ing"], ["grou", "ped"], ["neighb", "ors"], ["authentic", "ate"], ["replace", "d"], ["inter", "sect"], ["compo", "ser"], ["ma", "de"], ["try", "ing"], ["token", "izer"], ["instanti", "ate"], ["re", "ction"], ["3", "5"], ["tick", "s"], ["ed", "b"], ["di", "c"], ["fetch", "es"], ["histo", "gram"], ["s", "age"], ["app", "flow"], ["over", "lay"], ["decor", "ated"], ["button", "s"], ["d", "na"], ["j", "ar"], ["dele", "tion"], ["ul", "er"], ["s", "f"], ["a", "head"], ["index", "ed"], ["month", "s"], ["analy", "tics"], ["pre", "ad"], ["und", "ers"], ["control", "s"], ["4", "4"], ["equival", "ent"], ["fol", "ders"], ["lb", "vserver"], ["scal", "ing"], ["res", "ume"], ["pri", "or"], ["no", "s"], ["qui", "ck"], ["ref", "er"], ["previous", "ly"], ["spa", "cing"], ["fol", "d"], ["te", "ll"], ["q", "b"], ["volume", "s"], ["pre", "pend"], ["je", "cted"], ["invo", "cation"], ["decode", "d"], ["pre", "d"], ["log", "y"], ["product", "s"], ["tim", "ing"], ["tool", "tip"], ["p", "un"], ["pie", "ces"], ["track", "s"], ["document", "ation"], ["compu", "tes"], ["build", "ing"], ["pe", "ak"], ["ke", "t"], ["st", "ub"], ["r", "u"], ["ce", "d"], ["acti", "vate"], ["wor", "ld"], ["coll", "ap"], ["po", "sed"], ["popul", "ation"], ["check", "out"], ["ra", "ck"], ["clu", "sters"], ["r", "ating"], ["fig", "ure"], ["rep", "r"], ["s", "ampling"], ["std", "in"], ["disco", "very"], ["modif", "iers"], ["certificate", "s"], ["ch", "at"], ["uni", "x"], ["un", "used"], ["ph", "ing"], ["mut", "ation"], ["sym", "bo"], ["fli", "ck"], ["f", "ing"], ["promise", "s"], ["ver", "t"], ["add", "on"], ["valid", "ated"], ["cr", "l"], ["in", "jection"], ["invent", "ory"], ["hold", "ers"], ["cali", "br"], ["anon", "y"], ["re", "start"], ["up", "o"], ["bol", "d"], ["compil", "ation"], ["quanti", "ty"], ["wh", "ose"], ["a", "io"], ["attri", "b"], ["lin", "eno"], ["mpx", "j"], ["print", "f"], ["rec", "v"], ["scal", "ed"], ["inter", "action"], ["en", "sures"], ["sort", "ing"], ["urn", "al"], ["enti", "re"], ["su", "ite"], ["require", "ments"], ["rep", "lica"], ["tre", "at"], ["s", "ong"], ["7", "7"], ["al", "ong"], ["termin", "ate"], ["dat", "atype"], ["explan", "ation"], ["at", "ar"], ["ar", "c"], ["r", "ame"], ["b", "read"], ["con", "tri"], ["rad", "io"], ["lib", "s"], ["ws", "gi"], ["override", "s"], ["non", "ce"], ["10", "24"], ["o", "ct"], ["s", "pread"], ["updat", "ing"], ["ad", "o"], ["i", "ms"], ["skill", "s"], ["end", "ian"], ["am", "i"], ["pand", "as"], ["saniti", "ze"], ["ss", "o"], ["pe", "g"], ["g", "uest"], ["phra", "se"], ["car", "ds"], ["fix", "er"], ["ap", "o"], ["for", "war"], ["check", "box"], ["process", "ors"], ["3", "4"], ["err", "s"], ["f", "lex"], ["b", "ank"], ["a", "stype"], ["da", "e"], ["select", "ors"], ["ob", "s"], ["acti", "v"], ["pres", "ence"], ["cu", "dn"], ["cudn", "n"], ["h", "mm"], ["appoint", "ment"], ["dae", "mon"], ["filename", "s"], ["vis", "or"], ["f", "le"], ["pl", "t"], ["explicit", "ly"], ["traject", "ory"], ["ne", "x"], ["vpn", "global"], ["modif", "ication"], ["fra", "ction"], ["ip", "s"], ["fa", "ke"], ["trac", "ted"], ["look", "s"], ["control", "lers"], ["perform", "ance"], ["cor", "relation"], ["iter", "ates"], ["diag", "nos"], ["copi", "ed"], ["sh", "ar"], ["avail", "ability"], ["regex", "es"], ["simul", "ated"], ["mo", "ved"], ["v", "l"], ["a", "pe"], ["ip", "y"], ["alle", "le"], ["mo", "us"], ["in", "fer"], ["delete", "resource"], ["d", "ry"], ["per", "mit"], ["close", "st"], ["tun", "nel"], ["iter", "ations"], ["wid", "gets"], ["ambient", "e"], ["bet", "ter"], ["out", "side"], ["n", "l"], ["print", "s"], ["unset", "resource"], ["fire", "wall"], ["en", "ough"], ["mas", "ked"], ["block", "ing"], ["pri", "mi"], ["primi", "tive"], ["e", "asy"], ["sent", "ences"], ["dum", "my"], ["unset", "resources"], ["effe", "ctive"], ["anony", "mous"], ["molecu", "le"], ["mod", "al"], ["in", "ct"], ["asse", "mb"], ["libr", "aries"], ["sq", "lexception"], ["occurren", "ces"], ["al", "loc"], ["gam", "ma"], ["z", "0"], ["cri", "tical"], ["decry", "pt"], ["immediate", "ly"], ["pro", "mo"], ["ex", "tracted"], ["cent", "r"], ["photo", "s"], ["y", "o"], ["in", "sn"], ["gen", "us"], ["no", "me"], ["in", "bound"], ["pass", "ing"], ["members", "hip"], ["u", "th"], ["2", "7"], ["pi", "vot"], ["cons", "ider"], ["ti", "lity"], ["spa", "wn"], ["li", "k"], ["v", "4"], ["fetch", "ed"], ["list", "ing"], ["n", "y"], ["medi", "um"], ["log", "policy"], ["tra", "verse"], ["identi", "fy"], ["qui", "et"], ["cur", "lopt"], ["ap", "ic"], ["r", "2"], ["sub", "process"], ["pe", "ek"], ["w", "an"], ["io", "c"], ["emit", "ter"], ["get", "filtered"], ["ju", "ju"], ["hel", "lo"], ["session", "s"], ["touch", "es"], ["dist", "inct"], ["ex", "ponent"], ["x", "s"], ["rea", "ct"], ["oth", "ers"], ["f", "h"], ["li", "ze"], ["c", "x"], ["icon", "tact"], ["interval", "s"], ["whe", "el"], ["pal", "et"], ["r", "ti"], ["null", "able"], ["asso", "c"], ["foo", "ter"], ["prob", "ability"], ["smo", "oth"], ["spec", "s"], ["v", "x"], ["leg", "acy"], ["sc", "r"], ["proper", "ly"], ["m", "gt"], ["skip", "ped"], ["vo", "te"], ["bra", "cket"], ["length", "s"], ["le", "e"], ["s", "2"], ["provision", "er"], ["6", "7"], ["shad", "er"], ["if", "rame"], ["ad", "res"], ["com", "pose"], ["ga", "us"], ["fri", "end"], ["ti", "fy"], ["ato", "ms"], ["transi", "ent"], ["vo", "cab"], ["f", "ur"], ["all", "en"], ["a", "es"], ["flick", "r"], ["aio", "xmpp"], ["repla", "ces"], ["rect", "angle"], ["h", "mac"], ["assign", "ments"], ["bon", "d"], ["ec", "2"], ["al", "bu"], ["j", "ump"], ["calcul", "ated"], ["bi", "lities"], ["de", "cre"], ["ve", "red"], ["white", "list"], ["cla", "im"], ["com", "position"], ["mi", "ted"], ["f", "u"], ["12", "8"], ["obser", "ved"], ["adres", "se"], ["compati", "bility"], ["ct", "ure"], ["z", "ation"], ["sav", "es"], ["al", "go"], ["f", "if"], ["branch", "es"], ["tran", "script"], ["tem", "per"], ["pos", "si"], ["neighb", "or"], ["noti", "ce"], ["topic", "s"], ["st", "ation"], ["uni", "q"], ["gaus", "sian"], ["sp", "ri"], ["ut", "ter"], ["to", "pt"], ["reposit", "ories"], ["establish", "es"], ["is", "land"], ["ren", "ders"], ["p", "up"], ["w", "on"], ["a", "y"], ["resh", "ape"], ["tun", "ing"], ["test", "s"], ["jo", "urnal"], ["3", "1"], ["communi", "ty"], ["gr", "upo"], ["sha", "1"], ["rele", "v"], ["sp", "ort"], ["inher", "ited"], ["play", "list"], ["re", "stri"], ["g", "id"], ["co", "efficient"], ["pro", "jection"], ["sto", "ck"], ["fli", "p"], ["json", "object"], ["h", "ard"], ["inser", "ts"], ["queue", "d"], ["pro", "pos"], ["co", "don"], ["equip", "ment"], ["pe", "m"], ["sha", "256"], ["ca", "o"], ["err", "no"], ["in", "spection"], ["interrup", "ted"], ["8", "8"], ["fing", "er"], ["z", "wave"], ["r", "ho"], ["tri", "ple"], ["y", "2"], ["ce", "il"], ["xy", "z"], ["bu", "sy"], ["limit", "s"], ["interpo", "l"], ["mime", "type"], ["spli", "ts"], ["mag", "nit"], ["cla", "ims"], ["de", "mo"], ["i", "ence"], ["substit", "u"], ["alph", "ab"], ["he", "st"], ["lon", "ger"], ["result", "ing"], ["drop", "down"], ["gram", "mar"], ["in", "c"], ["pre", "dict"], ["um", "ul"], ["fo", "cu"], ["ne", "are"], ["h", "ig"], ["le", "ar"], ["calibr", "ation"], ["description", "s"], ["pun", "ct"], ["imp", "orted"], ["correct", "ly"], ["ne", "g"], ["h", "ap"], ["ic", "ations"], ["b", "en"], ["order", "ing"], ["hig", "hest"], ["sum", "mar"], ["ver", "sal"], ["an", "n"], ["b", "box"], ["look", "ing"], ["ro", "id"], ["an", "noun"], ["mor", "ph"], ["set", "ter"], ["region", "s"], ["vpn", "vserver"], ["chro", "me"], ["yield", "s"], ["s", "parse"], ["twi", "g"], ["ov", "s"], ["b", "log"], ["decl", "are"], ["5", "9"], ["traf", "fic"], ["pe", "ers"], ["install", "ation"], ["af", "fe"], ["network", "s"], ["calendar", "s"], ["inser", "ted"], ["suc", "ce"], ["e", "2"], ["r", "1"], ["roo", "ts"], ["cert", "key"], ["uti", "lities"], ["to", "day"], ["cap", "tch"], ["de", "mand"], ["in", "fin"], ["descript", "ors"], ["sc", "at"], ["built", "in"], ["sur", "face"], ["4", "00"], ["re", "member"], ["captch", "a"], ["site", "map"], ["pup", "pet"], ["den", "sity"], ["en", "for"], ["fil", "led"], ["off", "er"], ["de", "ck"], ["work", "team"], ["r", "r"], ["wrap", "s"], ["li", "t"], ["palet", "te"], ["eng", "lish"], ["collap", "se"], ["un", "ary"], ["to", "ur"], ["at", "ts"], ["dict", "s"], ["y", "ar"], ["relationship", "s"], ["hav", "ing"], ["ro", "s"], ["b", "one"], ["cre", "te"], ["key", "board"], ["un", "checked"], ["de", "register"], ["estim", "ate"], ["desc", "end"], ["d", "p"], ["io", "error"], ["re", "comm"], ["d", "matrix"], ["sol", "ver"], ["neare", "st"], ["down", "case"], ["as", "n1"], ["magnit", "ude"], ["per", "si"], ["deli", "ver"], ["reach", "ed"], ["combin", "ation"], ["gest", "ure"], ["affe", "cted"], ["rea", "ction"], ["il", "la"], ["g", "ain"], ["acl", "6"], ["strip", "ped"], ["cour", "se"], ["t", "k"], ["pre", "set"], ["block", "ly"], ["l", "hs"], ["be", "come"], ["j", "wt"], ["align", "ment"], ["st", "ory"], ["obj", "e"], ["comp", "li"], ["uint", "16"], ["life", "time"], ["v", "v"], ["se", "ason"], ["fur", "ther"], ["t", "1"], ["lear", "ning"], ["g", "as"], ["it", "able"], ["g", "d"], ["contain", "ed"], ["duplic", "ates"], ["cir", "cle"], ["ra", "vel"], ["par", "s"], ["de", "pre"], ["e", "as"], ["d", "m"], ["relev", "ant"], ["csr", "f"], ["g", "row"], ["ep", "g"], ["initializ", "er"], ["cal", "lee"], ["poll", "ing"], ["extract", "or"], ["ser", "ve"], ["phase", "d"], ["import", "ant"], ["incre", "ase"], ["evalu", "ation"], ["trans", "lated"], ["e", "1"], ["fi", "ts"], ["av", "atar"], ["lo", "west"], ["inf", "of"], ["c", "1"], ["e", "e"], ["v", "6"], ["at", "ory"], ["produ", "cer"], ["text", "s"], ["announ", "ce"], ["c", "ad"], ["lik", "ely"], ["debug", "f"], ["min", "im"], ["width", "s"], ["fin", "e"], ["partic", "ip"], ["ta", "u"], ["m", "q"], ["am", "ps"], ["rea", "ctions"], ["b", "tn"], ["feed", "back"], ["pre", "ference"], ["le", "av"], ["ur", "is"], ["l", "ing"], ["n", "v"], ["pur", "ge"], ["selection", "s"], ["annot", "ated"], ["x", "ff"], ["an", "cer"], ["track", "ing"], ["face", "book"], ["seed", "s"], ["y", "in"], ["detect", "or"], ["comm", "erce"], ["fif", "o"], ["sub", "title"], ["minu", "te"], ["a", "e"], ["syn", "the"], ["initializ", "ation"], ["su", "itable"], ["extract", "s"], ["e", "red"], ["y", "ml"], ["str", "conv"], ["trim", "med"], ["i", "lities"], ["av", "g"], ["f", "tp"], ["ar", "m"], ["id", "ent"], ["analy", "ze"], ["do", "s"], ["sup", "ple"], ["de", "ci"], ["de", "vi"], ["spl", "ash"], ["milli", "seconds"], ["infin", "ity"], ["trac", "ked"], ["expect", "s"], ["ph", "an"], ["end", "er"], ["un", "st"], ["ci", "rc"], ["9", "6"], ["s", "wi"], ["n", "m"], ["web", "hook"], ["p", "lo"], ["lo", "an"], ["enh", "ance"], ["ac", "qui"], ["radi", "ans"], ["vo", "x"], ["auto", "mat"], ["un", "signed"], ["report", "ing"], ["su", "do"], ["run", "n"], ["sign", "ing"], ["ch", "n"], ["confi", "d"], ["cu", "be"], ["batch", "es"], ["m", "time"], ["s", "at"], ["ti", "al"], ["observ", "ations"], ["browser", "s"], ["hy", "ph"], ["mater", "i"], ["debug", "ging"], ["ma", "ge"], ["adj", "ac"], ["stop", "s"], ["trun", "cate"], ["me", "ter"], ["m", "ass"], ["se", "mi"], ["artifact", "s"], ["un", "register"], ["cry", "p"], ["skip", "ping"], ["gi", "ck"], ["v", "3"], ["ex", "tr"], ["ord", "ers"], ["d", "ag"], ["pse", "u"], ["ho", "we"], ["howe", "ver"], ["bi", "tr"], ["3", "d"], ["g", "dn"], ["mo", "ves"], ["so", "up"], ["ge", "ther"], ["stop", "ping"], ["conven", "ience"], ["do", "ck"], ["ra", "ther"], ["require", "ment"], ["ser", "v"], ["dis", "count"], ["la", "x"], ["g", "al"], ["n", "sip"], ["effect", "s"], ["x", "so"], ["at", "ures"], ["pro", "x"], ["simp", "ly"], ["identifi", "ed"], ["publish", "er"], ["high", "er"], ["co", "erce"], ["k", "nx"], ["ise", "d"], ["mo", "bi"], ["trust", "ed"], ["2", "6"], ["fi", "d"], ["obser", "ve"], ["web", "driver"], ["counter", "s"], ["c", "2"], ["ne", "ts"], ["discussion", "s"], ["con", "j"], ["z", "end"], ["p", "itch"], ["r", "ms"], ["automat", "on"], ["r", "am"], ["fetch", "ing"], ["sign", "atures"], ["a", "ce"], ["form", "ul"], ["2", "8"], ["pro", "j"], ["th", "r"], ["pseu", "do"], ["un", "shift"], ["version", "ed"], ["j", "i"], ["toler", "ance"], ["proble", "ms"], ["np", "m"], ["develo", "p"], ["to", "gether"], ["subscription", "s"], ["to", "ire"], ["me", "chan"], ["hyph", "en"], ["free", "ze"], ["addr", "s"], ["craw", "l"], ["s", "la"], ["c", "v"], ["le", "st"], ["dash", "board"], ["per", "ms"], ["le", "ment"], ["di", "vision"], ["20", "15"], ["sp", "line"], ["one", "y"], ["vic", "toire"], ["ct", "able"], ["environ", "ments"], ["al", "locate"], ["synchron", "ous"], ["x", "r"], ["se", "m"], ["do", "ing"], ["execut", "ing"], ["configur", "ator"], ["co", "variance"], ["re", "ally"], ["copi", "es"], ["appro", "x"], ["un", "safe"], ["s", "po"], ["h", "rf"], ["cr", "f"], ["af", "ka"], ["co", "res"], ["mix", "in"], ["3", "7"], ["focu", "sed"], ["n", "n"], ["wa", "f"], ["wh", "y"], ["pre", "p"], ["no", "ise"], ["con", "side"], ["class", "ification"], ["deri", "v"], ["cl", "en"], ["ap", "is"], ["plan", "e"], ["3", "8"], ["p", "ic"], ["u", "sh"], ["a", "ti"], ["we", "e"], ["fit", "ting"], ["th", "ird"], ["defin", "ing"], ["pop", "bill"], ["gr", "ab"], ["sub", "tree"], ["cr", "c"], ["str", "ong"], ["signal", "s"], ["k", "afka"], ["conven", "tion"], ["to", "t"], ["interpol", "ation"], ["json", "rpc"], ["member", "of"], ["in", "sensitive"], ["experi", "mental"], ["temper", "ature"], ["s", "ke"], ["box", "es"], ["view", "port"], ["look", "ahead"], ["tre", "es"], ["se", "topt"], ["en", "force"], ["oauth", "2"], ["k", "o"], ["copy", "right"], ["sho", "ts"], ["authori", "ze"], ["patch", "es"], ["down", "loaded"], ["place", "holders"], ["valid", "ity"], ["ra", "ster"], ["yar", "pc"], ["punct", "u"], ["ex", "i"], ["integr", "ation"], ["pa", "int"], ["st", "amps"], ["n", "or"], ["amb", "ig"], ["ho", "od"], ["ordin", "al"], ["frag", "ments"], ["e", "tag"], ["t", "b"], ["token", "ize"], ["spect", "r"], ["local", "ized"], ["descri", "b"], ["y", "0"], ["sh", "op"], ["ar", "i"], ["scat", "ter"], ["o", "mit"], ["p", "ip"], ["develo", "per"], ["ni", "ce"], ["cre", "d"], ["imp", "licit"], ["ba", "g"], ["co", "routine"], ["probab", "ly"], ["ur", "len"], ["gr", "an"], ["si", "tes"], ["0", "4"], ["s", "na"], ["si", "c"], ["place", "ment"], ["f", "g"], ["bread", "cr"], ["unders", "core"], ["exact", "ly"], ["5", "12"],
[...]
