{"token2id": {"<pad>": 0, "<sos>": 1, "<eos>": 2, "<unk>": 3, "\n": 4, "!": 5, "\"": 6, "#": 7, "$": 8, "%": 9, "&": 10, "'": 11, "(": 12, ")": 13, "*": 14, "+": 15, ",": 16, "-": 17, ".": 18, "/": 19, "0": 20, "1": 21, "2": 22, "3": 23, "4": 24, "5": 25, "6": 26, "7": 27, "8": 28, "9": 29, ":": 30, ";": 31, "<": 32, "=": 33, ">": 34, "?": 35, "@": 36, "[": 37, "\\": 38, "]": 39, "^": 40, "`": 41, "a": 42, "b": 43, "c": 44, "d": 45, "e": 46, "f": 47, "g": 48, "h": 49, "i": 50, "j": 51, "k": 52, "l": 53, "m": 54, "n": 55, "o": 56, "p": 57, "q": 58, "r": 59, "s": 60, "t": 61, "u": 62, "v": 63, "w": 64, "x": 65, "y": 66, "z": 67, "{": 68, "|": 69, "}": 70, "~": 71, "": 72, "£": 73, "¦": 74, "§": 75, "¨": 76, "©": 77, "¬": 78, "®": 79, "¯": 80, "°": 81, "±": 82, "´": 83, "·": 84, "¸": 85, "»": 86, "×": 87, "ि": 88, "ी": 89, "्": 90, "়": 91, "া": 92, "ী": 93, "ி": 94, "ั": 95, "ี": 96, "่": 97, "้": 98, "​": 99, "‍": 100, "‒": 101, "–": 102, "—": 103, "‘": 104, "’": 105, "‛": 106, "“": 107, "”": 108, "„": 109, "•": 110, "‣": 111, "…": 112, "⁔": 113, "€": 114, "™": 115, "←": 116, "↑": 117, "→": 118, "↔": 119, "↦": 120, "⇒": 121, "∀": 122, "∂": 123, "∈": 124, "−": 125, "≠": 126, "≤": 127, "≥": 128, "⌟": 129, "⏳": 130, "─": 131, "│": 132, "┌": 133, "┐": 134, "└": 135, "┘": 136, "├": 137, "┴": 138, "┼": 139, "═": 140, "║": 141, "╔": 142, "╗": 143, "╘": 144, "╚": 145, "╛": 146, "╝": 147, "╟": 148, "╠": 149, "╢": 150, "╣": 151, "╤": 152, "▀": 153, "▄": 154, "█": 155, "▒": 156, "▬": 157, "☺": 158, "♀": 159, "⚠": 160, "✊": 161, "✓": 162, "✔": 163, "✖": 164, "✗": 165, "✘": 166, "❤": 167, "⬆": 168, "⬇": 169, "⸨": 170, "⸩": 171, "、": 172, "。": 173, "「": 174, "」": 175, "": 176, "": 177, "️": 178, "（": 179, "）": 180, "，": 181, "：": 182, "；": 183, "？": 184, "�": 185, "🇪": 186, "🇸": 187, "🌈": 188, "🍳": 189, "🎉": 190, "🏳": 191, "🏾": 192, "👍": 193, "👮": 194, "📖": 195, "😁": 196, "😭": 197, "🚀": 198, "🛫": 199, "re": 200, "on": 201, "in": 202, "er": 203, "en": 204, "at": 205, "th": 206, "st": 207, "se": 208, "co": 209, "ion": 210, "de": 211, "le": 212, "or": 213, "ct": 214, "al": 215, "ar": 216, "ent": 217, "an": 218, "me": 219, "ur": 220, "un": 221, "if": 222, "pe": 223, "ty": 224, "is": 225, "ce": 226, "ge": 227, "ro": 228, "the": 229, "it": 230, "ction": 231, "ment": 232, "ut": 233, "type": 234, "com": 235, "ue": 236, "ch": 237, "ing": 238, "fi": 239, "con": 240, "fun": 241, "lo": 242, "res": 243, "ame": 244, "ret": 245, "ex": 246, "ate": 247, "to": 248, "id": 249, "as": 250, "function": 251, "urn": 252, "return": 253, "code": 254, "li": 255, "ad": 256, "val": 257, "get": 258, "comment": 259, "ul": 260, "name": 261, "for": 262, "el": 263, "pt": 264, "tr": 265, "no": 266, "ed": 267, "this": 268, "il": 269, "ne": 270, "str": 271, "ap": 272, "and": 273, "par": 274, "err": 275, "set": 276, "value": 277, "end": 278, "pro": 279, "ck": 280, "of": 281, "ab": 282, "ation": 283, "int": 284, "ption": 285, "up": 286, "ke": 287, "ser": 288, "am": 289, "es": 290, "sel": 291, "req": 292, "cont": 293, "em": 294, "pat": 295, "self": 296, "def": 297, "new": 298, "put": 299, "mo": 300, "ic": 301, "po": 302, "ers": 303, "ss": 304, "ra": 305, "ext": 306, "file": 307, "ata": 308, "ult": 309, "pa": 310, "do": 311, "cl": 312, "string": 313, "di": 314, "key": 315, "ub": 316, "ob": 317, "path": 318, "ect": 319, "error": 320, "our": 321, "data": 322, "vi": 323, "ma": 324, "all": 325, "per": 326, "um": 327, "ource": 328, "out": 329, "be": 330, "ase": 331, "var": 332, "able": 333, "ri": 334, "ver": 335, "ass": 336, "list": 337, "pl": 338, "obj": 339, "ren": 340, "ti": 341, "ve": 342, "mat": 343, "log": 344, "add": 345, "uest": 346, "ter": 347, "col": 348, "fo": 349, "len": 350, "not": 351, "request": 352, "option": 353, "lic": 354, "he": 355, "bo": 356, "si": 357, "ull": 358, "wi": 359, "ag": 360, "param": 361, "resource": 362, "pon": 363, "else": 364, "ray": 365, "result": 366, "array": 367, "us": 368, "qu": 369, "sc": 370, "with": 371, "arg": 372, "age": 373, "date": 374, "null": 375, "nil": 376, "node": 377, "ht": 378, "one": 379, "object": 380, "input": 381, "ol": 382, "valid": 383, "ort": 384, "time": 385, "ach": 386, "ple": 387, "bu": 388, "lin": 389, "eld": 390, "ition": 391, "class": 392, "te": 393, "respon": 394, "options": 395, "row": 396, "ig": 397, "app": 398, "fig": 399, "inst": 400, "cre": 401, "ance": 402, "fro": 403, "config": 404, "from": 405, "op": 406, "rent": 407, "field": 408, "exce": 409, "sh": 410, "response": 411, "stat": 412, "by": 413, "ust": 414, "cur": 415, "inde": 416, "pub": 417, "ack": 418, "index": 419, "ind": 420, "use": 421, "pre": 422, "true": 423, "act": 424, "gi": 425, "ze": 426, "public": 427, "head": 428, "wor": 429, "art": 430, "fal": 431, "attr": 432, "create": 433, "false": 434, "ib": 435, "port": 436, "vice": 437, "ele": 438, "read": 439, "exception": 440, "gth": 441, "red": 442, "iter": 443, "od": 444, "mode": 445, "length": 446, "item": 447, "url": 448, "that": 449, "fe": 450, "ild": 451, "lect": 452, "call": 453, "has": 454, "base": 455, "gro": 456, "wh": 457, "we": 458, "map": 459, "ev": 460, "sub": 461, "im": 462, "user": 463, "output": 464, "num": 465, "update": 466, "meth": 467, "context": 468, "ace": 469, "om": 470, "instance": 471, "ac": 472, "ip": 473, "element": 474, "func": 475, "unt": 476, "wr": 477, "ay": 478, "params": 479, "group": 480, "method": 481, "und": 482, "scri": 483, "match": 484, "ange": 485, "hand": 486, "service": 487, "ument": 488, "sy": 489, "start": 490, "che": 491, "cess": 492, "state": 493, "event": 494, "spe": 495, "case": 496, "mess": 497, "none": 498, "ault": 499, "lection": 500, "comple": 501, "info": 502, "ute": 503, "ule": 504, "back": 505, "fil": 506, "message": 507, "pos": 508, "args": 509, "proper": 510, "ans": 511, "ken": 512, "logic": 513, "ain": 514, "ory": 515, "inter": 516, "parame": 517, "line": 518, "check": 519, "tag": 520, "model": 521, "min": 522, "cli": 523, "load": 524, "default": 525, "token": 526, "cond": 527, "loc": 528, "ure": 529, "text": 530, "format": 531, "form": 532, "js": 533, "count": 534, "ali": 535, "attrib": 536, "der": 537, "size": 538, "are": 539, "ite": 540, "throw": 541, "ist": 542, "quer": 543, "comm": 544, "ise": 545, "ifi": 546, "ec": 547, "ator": 548, "select": 549, "resources": 550, "ta": 551, "content": 552, "ly": 553, "lock": 554, "ast": 555, "ity": 556, "ven": 557, "mod": 558, "vers": 559, "query": 560, "so": 561, "current": 562, "values": 563, "complex": 564, "ates": 565, "tp": 566, "ho": 567, "ger": 568, "cust": 569, "headers": 570, "ber": 571, "doc": 572, "pr": 573, "custom": 574, "given": 575, "spec": 576, "client": 577, "au": 578, "sion": 579, "cor": 580, "trans": 581, "ler": 582, "rect": 583, "vari": 584, "ener": 585, "exec": 586, "http": 587, "dele": 588, "invalid": 589, "max": 590, "tem": 591, "descri": 592, "low": 593, "api": 594, "version": 595, "json": 596, "ml": 597, "remo": 598, "returns": 599, "rol": 600, "ters": 601, "page": 602, "ot": 603, "condition": 604, "pi": 605, "ok": 606, "work": 607, "table": 608, "pres": 609, "ill": 610, "pri": 611, "ive": 612, "collection": 613, "ry": 614, "ts": 615, "dis": 616, "ded": 617, "dir": 618, "action": 619, "contain": 620, "ary": 621, "ms": 622, "py": 623, "point": 624, "parse": 625, "variable": 626, "wn": 627, "run": 628, "conne": 629, "filter": 630, "property": 631, "tar": 632, "next": 633, "raise": 634, "colum": 635, "ies": 636, "column": 637, "ject": 638, "defin": 639, "ui": 640, "ask": 641, "static": 642, "fix": 643, "ces": 644, "append": 645, "each": 646, "try": 647, "argument": 648, "build": 649, "oper": 650, "names": 651, "source": 652, "target": 653, "fin": 654, "parent": 655, "whi": 656, "man": 657, "ds": 658, "gin": 659, "ther": 660, "auth": 661, "number": 662, "delete": 663, "gr": 664, "00": 665, "av": 666, "range": 667, "opt": 668, "based": 669, "ail": 670, "ref": 671, "ution": 672, "fl": 673, "block": 674, "et": 675, "status": 676, "cach": 677, "parameters": 678, "gener": 679, "fir": 680, "fore": 681, "server": 682, "direct": 683, "off": 684, "dy": 685, "ated": 686, "exist": 687, "control": 688, "child": 689, "can": 690, "sing": 691, "ff": 692, "const": 693, "ave": 694, "ak": 695, "lab": 696, "vie": 697, "find": 698, "send": 699, "print": 700, "view": 701, "write": 702, "command": 703, "attribute": 704, "atch": 705, "over": 706, "net": 707, "emp": 708, "first": 709, "place": 710, "ang": 711, "clo": 712, "empty": 713, "char": 714, "ima": 715, "label": 716, "stre": 717, "hash": 718, "module": 719, "ations": 720, "arch": 721, "led": 722, "items": 723, "image": 724, "mis": 725, "cr": 726, "stream": 727, "will": 728, "cache": 729, "wid": 730, "bre": 731, "word": 732, "ified": 733, "bind": 734, "entity": 735, "db": 736, "last": 737, "cal": 738, "change": 739, "uct": 740, "break": 741, "body": 742, "loop": 743, "ph": 744, "sig": 745, "its": 746, "dep": 747, "sup": 748, "process": 749, "handler": 750, "requi": 751, "execution": 752, "vel": 753, "callback": 754, "remove": 755, "uration": 756, "keys": 757, "ep": 758, "sto": 759, "ings": 760, "offset": 761, "nc": 762, "utes": 763, "entry": 764, "handle": 765, "rel": 766, "used": 767, "init": 768, "pass": 769, "link": 770, "logger": 771, "connection": 772, "su": 773, "operation": 774, "lean": 775, "jo": 776, "pace": 777, "sho": 778, "feren": 779, "vo": 780, "files": 781, "clu": 782, "ca": 783, "uld": 784, "regi": 785, "root": 786, "opts": 787, "ific": 788, "document": 789, "bug": 790, "task": 791, "post": 792, "host": 793, "templ": 794, "np": 795, "final": 796, "ree": 797, "replace": 798, "met": 799, "polic": 800, "rule": 801, "que": 802, "mar": 803, "io": 804, "fields": 805, "face": 806, "ress": 807, "ial": 808, "br": 809, "main": 810, "ush": 811, "join": 812, "debug": 813, "pack": 814, "ale": 815, "ight": 816, "part": 817, "util": 818, "found": 819, "selects": 820, "sign": 821, "parameter": 822, "ssion": 823, "sets": 824, "dict": 825, "when": 826, "header": 827, "level": 828, "whe": 829, "search": 830, "prefix": 831, "policy": 832, "lay": 833, "position": 834, "only": 835, "uri": 836, "sty": 837, "access": 838, "less": 839, "vate": 840, "width": 841, "equ": 842, "vis": 843, "war": 844, "ses": 845, "spl": 846, "sco": 847, "af": 848, "ia": 849, "os": 850, "ws": 851, "results": 852, "html": 853, "sed": 854, "ctx": 855, "referen": 856, "iali": 857, "tern": 858, "session": 859, "private": 860, "other": 861, "stem": 862, "ci": 863, "order": 864, "recor": 865, "template": 866, "resol": 867, "ify": 868, "ong": 869, "old": 870, "filen": 871, "mp": 872, "iz": 873, "vert": 874, "open": 875, "metad": 876, "attributes": 877, "any": 878, "ant": 879, "filename": 880, "dat": 881, "mer": 882, "raw": 883, "metadata": 884, "store": 885, "style": 886, "ron": 887, "md": 888, "configuration": 889, "errors": 890, "defined": 891, "mem": 892, "criter": 893, "asy": 894, "sett": 895, "reg": 896, "while": 897, "specified": 898, "directory": 899, "timeout": 900, "lang": 901, "xml": 902, "container": 903, "system": 904, "ension": 905, "mit": 906, "buff": 907, "ply": 908, "criteria": 909, "struct": 910, "ence": 911, "sert": 912, "comput": 913, "ding": 914, "sort": 915, "flo": 916, "boo": 917, "binding": 918, "make": 919, "push": 920, "top": 921, "split": 922, "clude": 923, "sr": 924, "describe": 925, "validate": 926, "arguments": 927, "let": 928, "ponent": 929, "flag": 930, "exists": 931, "pattern": 932, "boolean": 933, "ign": 934, "sch": 935, "tree": 936, "ident": 937, "interface": 938, "project": 939, "sha": 940, "als": 941, "msg": 942, "ved": 943, "enc": 944, "buffer": 945, "contin": 946, "ifier": 947, "unk": 948, "down": 949, "ir": 950, "lob": 951, "regist": 952, "lication": 953, "unless": 954, "types": 955, "sequ": 956, "ties": 957, "tch": 958, "but": 959, "into": 960, "required": 961, "sum": 962, "very": 963, "async": 964, "tect": 965, "properties": 966, "exp": 967, "ning": 968, "ids": 969, "fetch": 970, "tes": 971, "ample": 972, "component": 973, "ager": 974, "ll": 975, "vid": 976, "address": 977, "which": 978, "fact": 979, "inte": 980, "iterates": 981, "win": 982, "float": 983, "collect": 984, "ann": 985, "local": 986, "mult": 987, "manager": 988, "color": 989, "ard": 990, "orig": 991, "ght": 992, "hel": 993, "have": 994, "prop": 995, "tags": 996, "should": 997, "fn": 998, "throws": 999, "medi": 1000, "ft": 1001, "continue": 1002, "fr": 1003, "tit": 1004, "allow": 1005, "fol": 1006, "sym": 1007, "copy": 1008, "then": 1009, "ual": 1010, "reference": 1011, "job": 1012, "foreach": 1013, "cer": 1014, "kw": 1015, "must": 1016, "network": 1017, "extr": 1018, "description": 1019, "sq": 1020, "byte": 1021, "void": 1022, "sk": 1023, "selection": 1024, "title": 1025, "bool": 1026, "orm": 1027, "dest": 1028, "present": 1029, "scope": 1030, "ature": 1031, "pect": 1032, "ally": 1033, "wa": 1034, "ine": 1035, "att": 1036, "close": 1037, "catch": 1038, "sp": 1039, "stack": 1040, "utils": 1041, "import": 1042, "ments": 1043, "missing": 1044, "application": 1045, "ax": 1046, "aut": 1047, "pression": 1048, "full": 1049, "controller": 1050, "meta": 1051, "play": 1052, "provid": 1053, "queue": 1054, "using": 1055, "mark": 1056, "record": 1057, "aph": 1058, "glob": 1059, "wrap": 1060, "frame": 1061, "prom": 1062, "windo": 1063, "merge": 1064, "cle": 1065, "annot": 1066, "height": 1067, "aws": 1068, "tal": 1069, "pay": 1070, "include": 1071, "go": 1072, "day": 1073, "kwargs": 1074, "mt": 1075, "igno": 1076, "ns": 1077, "extension": 1078, "plu": 1079, "fa": 1080, "after": 1081, "patch": 1082, "elements": 1083, "left": 1084, "settings": 1085, "builder": 1086, "support": 1087, "same": 1088, "bytes": 1089, "bin": 1090, "ili": 1091, "apply": 1092, "sw": 1093, "elif": 1094, "before": 1095, "limit": 1096, "where": 1097, "stop": 1098, "idx": 1099, "multi": 1100, "norm": 1101, "device": 1102, "expression": 1103, "integer": 1104, "uble": 1105, "schem": 1106, "plugin": 1107, "tected": 1108, "proto": 1109, "anch": 1110, "wait": 1111, "role": 1112, "location": 1113, "double": 1114, "enable": 1115, "temp": 1116, "convert": 1117, "nodes": 1118, "origin": 1119, "64": 1120, "10": 1121, "cket": 1122, "ready": 1123, "trace": 1124, "expect": 1125, "graph": 1126, "uage": 1127, "uni": 1128, "itor": 1129, "clust": 1130, "language": 1131, "ility": 1132, "box": 1133, "ative": 1134, "total": 1135, "connect": 1136, "asso": 1137, "stor": 1138, "ible": 1139, "datab": 1140, "ish": 1141, "isset": 1142, "endpoint": 1143, "database": 1144, "sec": 1145, "enco": 1146, "mon": 1147, "author": 1148, "termin": 1149, "namespace": 1150, "depend": 1151, "identifier": 1152, "parser": 1153, "script": 1154, "test": 1155, "auto": 1156, "annel": 1157, "ous": 1158, "dif": 1159, "domain": 1160, "begin": 1161, "does": 1162, "protected": 1163, "src": 1164, "sim": 1165, "except": 1166, "schema": 1167, "ted": 1168, "channel": 1169, "right": 1170, "provider": 1171, "addition": 1172, "reco": 1173, "objects": 1174, "prod": 1175, "alias": 1176, "envi": 1177, "math": 1178, "non": 1179, "transform": 1180, "register": 1181, "step": 1182, "lines": 1183, "pop": 1184, "environ": 1185, "bound": 1186, "window": 1187, "events": 1188, "ateg": 1189, "save": 1190, "active": 1191, "chunk": 1192, "encode": 1193, "undefined": 1194, "bl": 1195, "associ": 1196, "conditions": 1197, "cluster": 1198, "ped": 1199, "promise": 1200, "ializ": 1201, "tail": 1202, "route": 1203, "ignore": 1204, "definition": 1205, "sl": 1206, "columns": 1207, "rt": 1208, "branch": 1209, "long": 1210, "ou": 1211, "package": 1212, "ide": 1213, "uid": 1214, "pers": 1215, "mission": 1216, "now": 1217, "env": 1218, "children": 1219, "need": 1220, "abs": 1221, "sure": 1222, "profile": 1223, "cert": 1224, "instanceof": 1225, "generate": 1226, "site": 1227, "password": 1228, "tmp": 1229, "seg": 1230, "factory": 1231, "web": 1232, "cent": 1233, "nal": 1234, "account": 1235, "locale": 1236, "iled": 1237, "sv": 1238, "gex": 1239, "report": 1240, "og": 1241, "sql": 1242, "see": 1243, "fail": 1244, "regex": 1245, "was": 1246, "core": 1247, "resolve": 1248, "coun": 1249, "dist": 1250, "second": 1251, "avail": 1252, "single": 1253, "global": 1254, "bol": 1255, "equals": 1256, "contains": 1257, "transl": 1258, "way": 1259, "represent": 1260, "reject": 1261, "nit": 1262, "assign": 1263, "ptor": 1264, "resh": 1265, "pool": 1266, "matches": 1267, "isinstance": 1268, "mask": 1269, "own": 1270, "already": 1271, "failed": 1272, "listener": 1273, "look": 1274, "shape": 1275, "provi": 1276, "sample": 1277, "creates": 1278, "lower": 1279, "cat": 1280, "collects": 1281, "ume": 1282, "buf": 1283, "like": 1284, "ker": 1285, "there": 1286, "attach": 1287, "bund": 1288, "thing": 1289, "categ": 1290, "render": 1291, "nb": 1292, "wo": 1293, "payload": 1294, "ov": 1295, "parts": 1296, "member": 1297, "expected": 1298, "ord": 1299, "scale": 1300, "helper": 1301, "decl": 1302, "mi": 1303, "storage": 1304, "handles": 1305, "df": 1306, "permission": 1307, "section": 1308, "suc": 1309, "insert": 1310, "typeof": 1311, "bundle": 1312, "space": 1313, "returned": 1314, "itch": 1315, "stats": 1316, "emit": 1317, "sn": 1318, "lot": 1319, "sli": 1320, "yi": 1321, "az": 1322, "recovery": 1323, "available": 1324, "cell": 1325, "ug": 1326, "symbol": 1327, "roll": 1328, "export": 1329, "statement": 1330, "detail": 1331, "gu": 1332, "aga": 1333, "ics": 1334, "against": 1335, "pare": 1336, "sin": 1337, "syn": 1338, "email": 1339, "lib": 1340, "calc": 1341, "paths": 1342, "charact": 1343, "amp": 1344, "edge": 1345, "strings": 1346, "retri": 1347, "environment": 1348, "batch": 1349, "construct": 1350, "optional": 1351, "zer": 1352, "cf": 1353, "relation": 1354, "unit": 1355, "prev": 1356, "encoding": 1357, "descriptor": 1358, "specific": 1359, "thread": 1360, "tokens": 1361, "skip": 1362, "vol": 1363, "ards": 1364, "proces": 1365, "reader": 1366, "extract": 1367, "tup": 1368, "xy": 1369, "you": 1370, "determin": 1371, "ash": 1372, "dependenc": 1373, "ud": 1374, "matri": 1375, "sent": 1376, "sequence": 1377, "execute": 1378, "ize": 1379, "rows": 1380, "mary": 1381, "posit": 1382, "product": 1383, "ialize": 1384, "rules": 1385, "switch": 1386, "ors": 1387, "spect": 1388, "ures": 1389, "gets": 1390, "constr": 1391, "success": 1392, "iterator": 1393, "assert": 1394, "points": 1395, "original": 1396, "rand": 1397, "arr": 1398, "bit": 1399, "normali": 1400, "commit": 1401, "kind": 1402, "side": 1403, "rece": 1404, "yield": 1405, "pix": 1406, "tuple": 1407, "groups": 1408, "32": 1409, "nitro": 1410, "overr": 1411, "inform": 1412, "writer": 1413, "ular": 1414, "track": 1415, "mach": 1416, "mapp": 1417, "separ": 1418, "gen": 1419, "controls": 1420, "just": 1421, "nown": 1422, "matrix": 1423, "na": 1424, "css": 1425, "annotation": 1426, "note": 1427, "admin": 1428, "contents": 1429, "aint": 1430, "ves": 1431, "feature": 1432, "entic": 1433, "don": 1434, "fmt": 1435, "vect": 1436, "pair": 1437, "disable": 1438, "authentic": 1439, "decode": 1440, "writ": 1441, "rout": 1442, "dr": 1443, "asses": 1444, "strip": 1445, "clear": 1446, "php": 1447, "warn": 1448, "men": 1449, "more": 1450, "running": 1451, "idd": 1452, "printf": 1453, "diction": 1454, "enum": 1455, "cy": 1456, "dom": 1457, "done": 1458, "ging": 1459, "her": 1460, "slice": 1461, "ear": 1462, "stamp": 1463, "information": 1464, "remote": 1465, "messages": 1466, "bar": 1467, "layer": 1468, "pages": 1469, "del": 1470, "anal": 1471, "socket": 1472, "ating": 1473, "secret": 1474, "show": 1475, "sor": 1476, "force": 1477, "constraint": 1478, "fs": 1479, "cmd": 1480, "ical": 1481, "100": 1482, "dispatch": 1483, "cept": 1484, "ants": 1485, "sync": 1486, "ie": 1487, "bers": 1488, "12": 1489, "lat": 1490, "category": 1491, "internal": 1492, "bas": 1493, "mediate": 1494, "els": 1495, "pipe": 1496, "dec": 1497, "than": 1498, "calcul": 1499, "calend": 1500, "methods": 1501, "parsed": 1502, "enabled": 1503, "da": 1504, "interval": 1505, "transaction": 1506, "est": 1507, "added": 1508, "extend": 1509, "dri": 1510, "correct": 1511, "vious": 1512, "dim": 1513, "additional": 1514, "display": 1515, "folder": 1516, "calendar": 1517, "guards": 1518, "acti": 1519, "analy": 1520, "existing": 1521, "cls": 1522, "override": 1523, "menu": 1524, "flow": 1525, "ities": 1526, "vision": 1527, "sa": 1528, "20": 1529, "protocol": 1530, "provided": 1531, "subscri": 1532, "previous": 1533, "cfg": 1534, "cho": 1535, "jav": 1536, "addresources": 1537, "metr": 1538, "bet": 1539, "clean": 1540, "classes": 1541, "some": 1542, "selector": 1543, "updateresources": 1544, "pn": 1545, "cause": 1546, "ability": 1547, "ump": 1548, "aa": 1549, "ssl": 1550, "machine": 1551, "pas": 1552, "whether": 1553, "cook": 1554, "registr": 1555, "pan": 1556, "sequent": 1557, "cases": 1558, "tx": 1559, "words": 1560, "proxy": 1561, "alog": 1562, "org": 1563, "cp": 1564, "trig": 1565, "ner": 1566, "may": 1567, "called": 1568, "vector": 1569, "term": 1570, "rag": 1571, "trim": 1572, "reposit": 1573, "require": 1574, "zip": 1575, "repository": 1576, "duration": 1577, "hook": 1578, "indi": 1579, "ift": 1580, "imple": 1581, "sprintf": 1582, "caller": 1583, "props": 1584, "layout": 1585, "handl": 1586, "region": 1587, "month": 1588, "series": 1589, "agent": 1590, "aded": 1591, "been": 1592, "runtime": 1593, "username": 1594, "timestamp": 1595, "accept": 1596, "esca": 1597, "year": 1598, "leg": 1599, "inspect": 1600, "unset": 1601, "editor": 1602, "declar": 1603, "sole": 1604, "checks": 1605, "filters": 1606, "changed": 1607, "ization": 1608, "selected": 1609, "backup": 1610, "conn": 1611, "conf": 1612, "hist": 1613, "two": 1614, "bro": 1615, "ton": 1616, "passed": 1617, "amb": 1618, "simple": 1619, "rad": 1620, "supported": 1621, "validation": 1622, "16": 1623, "subsequent": 1624, "defer": 1625, "segment": 1626, "desc": 1627, "created": 1628, "upload": 1629, "cannot": 1630, "uint": 1631, "reset": 1632, "generates": 1633, "mapping": 1634, "indent": 1635, "tab": 1636, "cred": 1637, "mock": 1638, "real": 1639, "igh": 1640, "counter": 1641, "cb": 1642, "diff": 1643, "persist": 1644, "wrapper": 1645, "bot": 1646, "super": 1647, "recei": 1648, "ln": 1649, "they": 1650, "pc": 1651, "common": 1652, "listen": 1653, "example": 1654, "loaded": 1655, "since": 1656, "hy": 1657, "thon": 1658, "perform": 1659, "volume": 1660, "rele": 1661, "cip": 1662, "computed": 1663, "random": 1664, "lish": 1665, "console": 1666, "cs": 1667, "resp": 1668, "mut": 1669, "button": 1670, "coord": 1671, "processes": 1672, "determine": 1673, "defaults": 1674, "peri": 1675, "verse": 1676, "validates": 1677, "adds": 1678, "scroll": 1679, "flags": 1680, "rop": 1681, "gest": 1682, "uuid": 1683, "tered": 1684, "axis": 1685, "comp": 1686, "git": 1687, "my": 1688, "distance": 1689, "virt": 1690, "ential": 1691, "book": 1692, "eval": 1693, "ank": 1694, "pend": 1695, "tl": 1696, "ween": 1697, "ries": 1698, "multiple": 1699, "warning": 1700, "wise": 1701, "prob": 1702, "watch": 1703, "between": 1704, "take": 1705, "card": 1706, "recur": 1707, "imum": 1708, "labels": 1709, "install": 1710, "variables": 1711, "prior": 1712, "details": 1713, "packet": 1714, "redirect": 1715, "dictionary": 1716, "bean": 1717, "virtual": 1718, "entries": 1719, "coll": 1720, "weight": 1721, "starts": 1722, "driver": 1723, "25": 1724, "updateresource": 1725, "zone": 1726, "expi": 1727, "ification": 1728, "signature": 1729, "instances": 1730, "brow": 1731, "could": 1732, "logging": 1733, "gram": 1734, "python": 1735, "intermediate": 1736, "media": 1737, "pk": 1738, "cms": 1739, "oc": 1740, "prog": 1741, "gre": 1742, "depth": 1743, "manage": 1744, "identity": 1745, "computation": 1746, "div": 1747, "cn": 1748, "curren": 1749, "tool": 1750, "feat": 1751, "actions": 1752, "rection": 1753, "without": 1754, "allowed": 1755, "attem": 1756, "attempt": 1757, "branching": 1758, "generator": 1759, "sm": 1760, "partition": 1761, "acc": 1762, "seq": 1763, "models": 1764, "validator": 1765, "modules": 1766, "shift": 1767, "cursor": 1768, "geo": 1769, "actual": 1770, "img": 1771, "ori": 1772, "ell": 1773, "character": 1774, "constructor": 1775, "move": 1776, "iss": 1777, "short": 1778, "ting": 1779, "widget": 1780, "dump": 1781, "relative": 1782, "spa": 1783, "adding": 1784, "unique": 1785, "std": 1786, "conver": 1787, "chain": 1788, "ha": 1789, "unknown": 1790, "ten": 1791, "slot": 1792, "span": 1793, "separator": 1794, "edit": 1795, "lif": 1796, "99": 1797, "sol": 1798, "rate": 1799, "credential": 1800, "ized": 1801, "serializ": 1802, "initial": 1803, "attrs": 1804, "utf": 1805, "them": 1806, "complete": 1807, "todo": 1808, "ories": 1809, "filtered": 1810, "stand": 1811, "elem": 1812, "download": 1813, "representing": 1814, "modified": 1815, "certific": 1816, "rest": 1817, "engin": 1818, "zed": 1819, "area": 1820, "thro": 1821, "issue": 1822, "cance": 1823, "prec": 1824, "follow": 1825, "extra": 1826, "changes": 1827, "poss": 1828, "binary": 1829, "indic": 1830, "ek": 1831, "ugh": 1832, "destin": 1833, "deli": 1834, "ada": 1835, "rep": 1836, "here": 1837, "browser": 1838, "fill": 1839, "updates": 1840, "ured": 1841, "18": 1842, "compar": 1843, "addr": 1844, "sorted": 1845, "release": 1846, "icon": 1847, "ensure": 1848, "escape": 1849, "worker": 1850, "upper": 1851, "zero": 1852, "bits": 1853, "amo": 1854, "rejects": 1855, "equal": 1856, "uch": 1857, "handlers": 1858, "nest": 1859, "trigger": 1860, "seconds": 1861, "sys": 1862, "angle": 1863, "setting": 1864, "loy": 1865, "topic": 1866, "sap": 1867, "implement": 1868, "lan": 1869, "dup": 1870, "lookup": 1871, "requests": 1872, "decor": 1873, "secur": 1874, "ctr": 1875, "substr": 1876, "exit": 1877, "progress": 1878, "gra": 1879, "gate": 1880, "mx": 1881, "security": 1882, "ster": 1883, "compare": 1884, "destination": 1885, "suf": 1886, "engine": 1887, "ifact": 1888, "artifact": 1889, "addresource": 1890, "dependency": 1891, "login": 1892, "stri": 1893, "clone": 1894, "transport": 1895, "compi": 1896, "authentication": 1897, "constants": 1898, "finish": 1899, "also": 1900, "otherwise": 1901, "java": 1902, "errorf": 1903, "plan": 1904, "safe": 1905, "declaration": 1906, "setup": 1907, "period": 1908, "compute": 1909, "absol": 1910, "chron": 1911, "serialize": 1912, "through": 1913, "asset": 1914, "primary": 1915, "operator": 1916, "publish": 1917, "fer": 1918, "deploy": 1919, "owner": 1920, "ered": 1921, "eve": 1922, "tax": 1923, "absolute": 1924, "marsh": 1925, "oid": 1926, "dtype": 1927, "lex": 1928, "cue": 1929, "priority": 1930, "initializ": 1931, "coordin": 1932, "plat": 1933, "bounds": 1934, "references": 1935, "execut": 1936, "vity": 1937, "pho": 1938, "cloud": 1939, "dn": 1940, "platform": 1941, "cap": 1942, "scan": 1943, "ites": 1944, "score": 1945, "sive": 1946, "numer": 1947, "ground": 1948, "direction": 1949, "because": 1950, "cancel": 1951, "until": 1952, "fon": 1953, "registry": 1954, "resolved": 1955, "https": 1956, "fit": 1957, "cookie": 1958, "visible": 1959, "alt": 1960, "suffix": 1961, "eded": 1962, "refresh": 1963, "rypt": 1964, "dimension": 1965, "loader": 1966, "med": 1967, "bed": 1968, "legal": 1969, "verify": 1970, "aml": 1971, "commands": 1972, "adapt": 1973, "marshal": 1974, "grid": 1975, "ld": 1976, "keep": 1977, "retrieve": 1978, "lode": 1979, "repo": 1980, "libr": 1981, "certificate": 1982, "tra": 1983, "atom": 1984, "permissions": 1985, "expand": 1986, "indices": 1987, "round": 1988, "ename": 1989, "ration": 1990, "delta": 1991, "agg": 1992, "hol": 1993, "structure": 1994, "println": 1995, "containing": 1996, "press": 1997, "nd": 1998, "calculate": 1999, "lamb": 2000, "cached": 2001, "ason": 2002, "uses": 2003, "ither": 2004, "elseif": 2005, "cla": 2006, "invo": 2007, "rescue": 2008, "possible": 2009, "pointer": 2010, "hex": 2011, "frag": 2012, "nested": 2013, "unicode": 2014, "ipv": 2015, "times": 2016, "ps": 2017, "concat": 2018, "ioexception": 2019, "ets": 2020, "retry": 2021, "lists": 2022, "dns": 2023, "services": 2024, "photo": 2025, "illegal": 2026, "ffect": 2027, "comments": 2028, "define": 2029, "pending": 2030, "cast": 2031, "lambda": 2032, "records": 2033, "thresh": 2034, "components": 2035, "high": 2036, "prepare": 2037, "inclu": 2038, "amount": 2039, "ping": 2040, "ww": 2041, "60": 2042, "imp": 2043, "every": 2044, "subscription": 2045, "matching": 2046, "td": 2047, "inner": 2048, "verbo": 2049, "subject": 2050, "gb": 2051, "drop": 2052, "mime": 2053, "features": 2054, "exclude": 2055, "vpn": 2056, "enumer": 2057, "draw": 2058, "provision": 2059, "related": 2060, "acl": 2061, "ater": 2062, "zz": 2063, "vide": 2064, "updated": 2065, "pixel": 2066, "fast": 2067, "ced": 2068, "idden": 2069, "either": 2070, "sched": 2071, "delay": 2072, "under": 2073, "broker": 2074, "tom": 2075, "alph": 2076, "background": 2077, "association": 2078, "parti": 2079, "httpmethod": 2080, "click": 2081, "incre": 2082, "shot": 2083, "fire": 2084, "theme": 2085, "40": 2086, "listeners": 2087, "cand": 2088, "scal": 2089, "within": 2090, "dataset": 2091, "mac": 2092, "icle": 2093, "11": 2094, "ward": 2095, "registered": 2096, "redu": 2097, "substring": 2098, "alg": 2099, "ways": 2100, "history": 2101, "responses": 2102, "named": 2103, "obser": 2104, "rc": 2105, "vars": 2106, "mean": 2107, "snap": 2108, "want": 2109, "ware": 2110, "foc": 2111, "sb": 2112, "members": 2113, "ctrl": 2114, "csv": 2115, "ful": 2116, "ines": 2117, "touch": 2118, "httppath": 2119, "anti": 2120, "datetime": 2121, "dot": 2122, "links": 2123, "tasks": 2124, "about": 2125, "peer": 2126, "processing": 2127, "ude": 2128, "wer": 2129, "closed": 2130, "signal": 2131, "dependencies": 2132, "quo": 2133, "images": 2134, "la": 2135, "radi": 2136, "capt": 2137, "velo": 2138, "ense": 2139, "many": 2140, "master": 2141, "ice": 2142, "ens": 2143, "she": 2144, "ose": 2145, "rot": 2146, "nel": 2147, "alle": 2148, "cd": 2149, "200": 2150, "normalize": 2151, "versions": 2152, "chars": 2153, "boot": 2154, "summary": 2155, "basic": 2156, "doesn": 2157, "ype": 2158, "activity": 2159, "elsif": 2160, "candid": 2161, "reverse": 2162, "callable": 2163, "bra": 2164, "needed": 2165, "standard": 2166, "aggreg": 2167, "evalu": 2168, "sav": 2169, "removed": 2170, "factor": 2171, "usage": 2172, "izer": 2173, "arrays": 2174, "rat": 2175, "inv": 2176, "hint": 2177, "cker": 2178, "extensions": 2179, "manif": 2180, "preg": 2181, "dout": 2182, "numpy": 2183, "fall": 2184, "best": 2185, "pipeline": 2186, "functions": 2187, "padding": 2188, "bus": 2189, "liter": 2190, "respond": 2191, "lb": 2192, "umul": 2193, "visit": 2194, "font": 2195, "rer": 2196, "raises": 2197, "failure": 2198, "credentials": 2199, "astic": 2200, "special": 2201, "bucket": 2202, "midd": 2203, "middle": 2204, "ient": 2205, "users": 2206, "metric": 2207, "exter": 2208, "inten": 2209, "verbose": 2210, "initialize": 2211, "percent": 2212, "15": 2213, "lied": 2214, "maximum": 2215, "flush": 2216, "units": 2217, "plot": 2218, "stdout": 2219, "snapshot": 2220, "havi": 2221, "pagin": 2222, "behavi": 2223, "synchron": 2224, "heal": 2225, "ship": 2226, "characters": 2227, "partial": 2228, "hit": 2229, "bs": 2230, "rende": 2231, "associated": 2232, "pid": 2233, "v1": 2234, "numeric": 2235, "memory": 2236, "hydr": 2237, "week": 2238, "bad": 2239, "timer": 2240, "reason": 2241, "once": 2242, "lem": 2243, "roy": 2244, "vm": 2245, "assignment": 2246, "rec": 2247, "exceptions": 2248, "ends": 2249, "elastic": 2250, "destroy": 2251, "configured": 2252, "iterable": 2253, "puts": 2254, "attachment": 2255, "reflect": 2256, "contr": 2257, "unmarshal": 2258, "abu": 2259, "vserver": 2260, "lint": 2261, "threshold": 2262, "article": 2263, "ead": 2264, "restore": 2265, "fixed": 2266, "repe": 2267, "country": 2268, "library": 2269, "checked": 2270, "always": 2271, "monitor": 2272, "grade": 2273, "catalog": 2274, "calls": 2275, "appro": 2276, "translation": 2277, "strict": 2278, "ison": 2279, "cm": 2280, "href": 2281, "tile": 2282, "dialog": 2283, "mb": 2284, "instead": 2285, "ferent": 2286, "router": 2287, "gp": 2288, "targets": 2289, "pose": 2290, "encoded": 2291, "ops": 2292, "your": 2293, "slug": 2294, "schedule": 2295, "keyword": 2296, "both": 2297, "rf": 2298, "lon": 2299, "big": 2300, "modify": 2301, "duplic": 2302, "detect": 2303, "plugins": 2304, "comparison": 2305, "proc": 2306, "alk": 2307, "ins": 2308, "spaces": 2309, "mig": 2310, "accumul": 2311, "docs": 2312, "deleted": 2313, "annotations": 2314, "their": 2315, "vec": 2316, "dt": 2317, "prototype": 2318, "requested": 2319, "ving": 2320, "asc": 2321, "compile": 2322, "train": 2323, "sentence": 2324, "bul": 2325, "currency": 2326, "edges": 2327, "ick": 2328, "tion": 2329, "rtype": 2330, "adapter": 2331, "align": 2332, "working": 2333, "health": 2334, "video": 2335, "mapper": 2336, "manifest": 2337, "24": 2338, "xx": 2339, "algori": 2340, "s3": 2341, "dyn": 2342, "marker": 2343, "reser": 2344, "algorith": 2345, "yaml": 2346, "most": 2347, "notify": 2348, "routes": 2349, "stored": 2350, "ged": 2351, "another": 2352, "vlan": 2353, "external": 2354, "deferred": 2355, "ba": 2356, "reply": 2357, "help": 2358, "collections": 2359, "meas": 2360, "different": 2361, "embed": 2362, "life": 2363, "kl": 2364, "effect": 2365, "focus": 2366, "received": 2367, "generic": 2368, "hidden": 2369, "pred": 2370, "center": 2371, "aud": 2372, "verage": 2373, "ually": 2374, "literal": 2375, "chart": 2376, "hi": 2377, "light": 2378, "popul": 2379, "takes": 2380, "holder": 2381, "following": 2382, "consum": 2383, "converts": 2384, "quote": 2385, "audi": 2386, "fragment": 2387, "mag": 2388, "remain": 2389, "abstr": 2390, "compat": 2391, "vation": 2392, "bottom": 2393, "ibility": 2394, "jobs": 2395, "wd": 2396, "px": 2397, "neg": 2398, "feed": 2399, "tick": 2400, "matcher": 2401, "anim": 2402, "compa": 2403, "alpha": 2404, "blocks": 2405, "segments": 2406, "dispatches": 2407, "rgb": 2408, "cheme": 2409, "ian": 2410, "what": 2411, "urls": 2412, "laz": 2413, "reflection": 2414, "operations": 2415, "got": 2416, "formatter": 2417, "entities": 2418, "hour": 2419, "atten": 2420, "processor": 2421, "vertex": 2422, "inject": 2423, "30": 2424, "coordinates": 2425, "templates": 2426, "generated": 2427, "cols": 2428, "decorator": 2429, "transition": 2430, "tempor": 2431, "digest": 2432, "inline": 2433, "ire": 2434, "matched": 2435, "blank": 2436, "scheme": 2437, "sheet": 2438, "customer": 2439, "numbers": 2440, "days": 2441, "authorization": 2442, "sender": 2443, "75": 2444, "shared": 2445, "algorithm": 2446, "ross": 2447, "rs": 2448, "roles": 2449, "archive": 2450, "equi": 2451, "tables": 2452, "ii": 2453, "sep": 2454, "sources": 2455, "imal": 2456, "how": 2457, "dirname": 2458, "deprec": 2459, "dst": 2460, "produ": 2461, "mix": 2462, "cut": 2463, "abstract": 2464, "iso": 2465, "ically": 2466, "foo": 2467, "cos": 2468, "skill": 2469, "ended": 2470, "rpc": 2471, "organ": 2472, "cc": 2473, "increment": 2474, "starting": 2475, "vault": 2476, "behavior": 2477, "indexes": 2478, "expr": 2479, "audio": 2480, "samples": 2481, "notification": 2482, "tcp": 2483, "dev": 2484, "cons": 2485, "pane": 2486, "being": 2487, "ow": 2488, "ux": 2489, "kernel": 2490, "14": 2491, "normalized": 2492, "reads": 2493, "sis": 2494, "pret": 2495, "provide": 2496, "player": 2497, "accumulates": 2498, "ality": 2499, "ilt": 2500, "contact": 2501, "foreign": 2502, "combin": 2503, "removes": 2504, "free": 2505, "needs": 2506, "lar": 2507, "via": 2508, "ency": 2509, "metry": 2510, "metrics": 2511, "shell": 2512, "disk": 2513, "codes": 2514, "gt": 2515, "mail": 2516, "inf": 2517, "squ": 2518, "poly": 2519, "warnings": 2520, "itude": 2521, "0000": 2522, "necess": 2523, "fw": 2524, "basename": 2525, "int64": 2526, "constraints": 2527, "vely": 2528, "distr": 2529, "collector": 2530, "v2": 2531, "whites": 2532, "states": 2533, "mainten": 2534, "scen": 2535, "maintenance": 2536, "these": 2537, "such": 2538, "known": 2539, "fallback": 2540, "mouse": 2541, "board": 2542, "finally": 2543, "ily": 2544, "licit": 2545, "filepath": 2546, "recursive": 2547, "instr": 2548, "correspon": 2549, "compil": 2550, "forward": 2551, "ipv6": 2552, "distrib": 2553, "positions": 2554, "await": 2555, "too": 2556, "quot": 2557, "hostname": 2558, "continues": 2559, "flatten": 2560, "audit": 2561, "currently": 2562, "configure": 2563, "bindings": 2564, "mater": 2565, "inputs": 2566, "hs": 2567, "enumerate": 2568, "disc": 2569, "iv": 2570, "encrypt": 2571, "configur": 2572, "constant": 2573, "pad": 2574, "maj": 2575, "radius": 2576, "fully": 2577, "prompt": 2578, "blob": 2579, "extends": 2580, "klass": 2581, "counts": 2582, "built": 2583, "unable": 2584, "measure": 2585, "connected": 2586, "phase": 2587, "formed": 2588, "callbacks": 2589, "retriev": 2590, "ifiers": 2591, "50": 2592, "patterns": 2593, "signed": 2594, "processed": 2595, "33": 2596, "syntax": 2597, "translate": 2598, "steps": 2599, "necessary": 2600, "remaining": 2601, "whitespace": 2602, "delim": 2603, "formatted": 2604, "pull": 2605, "management": 2606, "je": 2607, "vr": 2608, "native": 2609, "swap": 2610, "backend": 2611, "refs": 2612, "tools": 2613, "calling": 2614, "bulk": 2615, "svc": 2616, "cost": 2617, "strlen": 2618, "representation": 2619, "01": 2620, "goog": 2621, "tri": 2622, "pb": 2623, "upgrade": 2624, "exc": 2625, "ences": 2626, "pur": 2627, "chunks": 2628, "locator": 2629, "windows": 2630, "shad": 2631, "late": 2632, "nothing": 2633, "curl": 2634, "i18": 2635, "formats": 2636, "scre": 2637, "cipher": 2638, "chan": 2639, "ision": 2640, "quest": 2641, "inher": 2642, "inside": 2643, "deep": 2644, "invoke": 2645, "normal": 2646, "definitions": 2647, "gg": 2648, "dynam": 2649, "filesystem": 2650, "sd": 2651, "ranges": 2652, "sur": 2653, "aliase": 2654, "canv": 2655, "bal": 2656, "lazy": 2657, "ade": 2658, "explode": 2659, "pie": 2660, "ndarray": 2661, "automat": 2662, "team": 2663, "canvas": 2664, "stderr": 2665, "includes": 2666, "specify": 2667, "loading": 2668, "candidate": 2669, "dra": 2670, "routing": 2671, "license": 2672, "bi": 2673, "wild": 2674, "resses": 2675, "svg": 2676, "question": 2677, "mong": 2678, "ference": 2679, "outer": 2680, "fac": 2681, "prevent": 2682, "inspects": 2683, "den": 2684, "would": 2685, "deployment": 2686, "partic": 2687, "readable": 2688, "curr": 2689, "minimum": 2690, "conv": 2691, "dur": 2692, "arn": 2693, "analysis": 2694, "nx": 2695, "relationship": 2696, "corresponding": 2697, "envelo": 2698, "lead": 2699, "dirs": 2700, "slash": 2701, "supp": 2702, "54": 2703, "xpath": 2704, "consumer": 2705, "echo": 2706, "tm": 2707, "geometry": 2708, "accor": 2709, "startswith": 2710, "even": 2711, "repeat": 2712, "13": 2713, "ttl": 2714, "resolver": 2715, "statist": 2716, "walk": 2717, "screen": 2718, "assume": 2719, "appfw": 2720, "revision": 2721, "1000": 2722, "pot": 2723, "submit": 2724, "unc": 2725, "cam": 2726, "navi": 2727, "requires": 2728, "aro": 2729, "home": 2730, "x1": 2731, "ones": 2732, "watcher": 2733, "connections": 2734, "reduce": 2735, "saved": 2736, "renderer": 2737, "base64": 2738, "styles": 2739, "greater": 2740, "strto": 2741, "predic": 2742, "jection": 2743, "stage": 2744, "envelope": 2745, "redis": 2746, "according": 2747, "abort": 2748, "dates": 2749, "loads": 2750, "tran": 2751, "hip": 2752, "google": 2753, "fut": 2754, "cid": 2755, "qual": 2756, "gn": 2757, "txt": 2758, "bill": 2759, "idge": 2760, "disabled": 2761, "directories": 2762, "tun": 2763, "encoder": 2764, "pixels": 2765, "issues": 2766, "distribution": 2767, "did": 2768, "providers": 2769, "ric": 2770, "payment": 2771, "notes": 2772, "seed": 2773, "diag": 2774, "utc": 2775, "ratio": 2776, "ju": 2777, "affi": 2778, "deletes": 2779, "ptr": 2780, "replication": 2781, "float64": 2782, "dig": 2783, "program": 2784, "weights": 2785, "oauth": 2786, "flat": 2787, "gue": 2788, "clause": 2789, "views": 2790, "yy": 2791, "sound": 2792, "ared": 2793, "poll": 2794, "variant": 2795, "anner": 2796, "middleware": 2797, "avoid": 2798, "getattr": 2799, "started": 2800, "i18n": 2801, "freq": 2802, "amaz": 2803, "amazon": 2804, "aler": 2805, "mm": 2806, "maps": 2807, "lifec": 2808, "lifecy": 2809, "lifecycle": 2810, "attempts": 2811, "ignored": 2812, "plain": 2813, "reserved": 2814, "capture": 2815, "allows": 2816, "least": 2817, "gation": 2818, "subnet": 2819, "creating": 2820, "inherit": 2821, "jb": 2822, "era": 2823, "configs": 2824, "organization": 2825, "gh": 2826, "unlock": 2827, "waiting": 2828, "stmt": 2829, "written": 2830, "zes": 2831, "decimal": 2832, "intent": 2833, "ckets": 2834, "ng": 2835, "neigh": 2836, "regexp": 2837, "implementation": 2838, "ifications": 2839, "sibl": 2840, "foli": 2841, "ldap": 2842, "adjust": 2843, "deprecated": 2844, "paren": 2845, "mesh": 2846, "disco": 2847, "come": 2848, "bel": 2849, "receiver": 2850, "ural": 2851, "abo": 2852, "sil": 2853, "enter": 2854, "mid": 2855, "zo": 2856, "answer": 2857, "strpos": 2858, "mount": 2859, "confir": 2860, "categories": 2861, "ao": 2862, "hide": 2863, "png": 2864, "replacement": 2865, "registration": 2866, "border": 2867, "umb": 2868, "19": 2869, "pu": 2870, "cart": 2871, "terms": 2872, "included": 2873, "gl": 2874, "comma": 2875, "cld": 2876, "addresses": 2877, "managed": 2878, "bootstr": 2879, "works": 2880, "md5": 2881, "dash": 2882, "exclu": 2883, "wire": 2884, "means": 2885, "yet": 2886, "hr": 2887, "closing": 2888, "material": 2889, "levels": 2890, "price": 2891, "aliases": 2892, "supplied": 2893, "outputs": 2894, "det": 2895, "grad": 2896, "tt": 2897, "band": 2898, "rm": 2899, "pkg": 2900, "iness": 2901, "sity": 2902, "neighb": 2903, "portfoli": 2904, "aller": 2905, "san": 2906, "gateway": 2907, "colors": 2908, "indicator": 2909, "orde": 2910, "gith": 2911, "queries": 2912, "github": 2913, "alled": 2914, "implode": 2915, "sle": 2916, "ancestor": 2917, "ordered": 2918, "dynamic": 2919, "instanti": 2920, "pdf": 2921, "negative": 2922, "pw": 2923, "completed": 2924, "installed": 2925, "associate": 2926, "hold": 2927, "mongo": 2928, "www": 2929, "migration": 2930, "runs": 2931, "cells": 2932, "facade": 2933, "occurren": 2934, "prin": 2935, "drag": 2936, "wrapped": 2937, "delimiter": 2938, "applic": 2939, "aries": 2940, "documents": 2941, "angular": 2942, "bootstrap": 2943, "zeros": 2944, "frames": 2945, "leaf": 2946, "precision": 2947, "explicit": 2948, "gc": 2949, "person": 2950, "proced": 2951, "fold": 2952, "serial": 2953, "mk": 2954, "statements": 2955, "fron": 2956, "bon": 2957, "logs": 2958, "closure": 2959, "stringify": 2960, "car": 2961, "ifies": 2962, "unexpected": 2963, "helpers": 2964, "writes": 2965, "iteration": 2966, "cross": 2967, "actor": 2968, "trail": 2969, "statistics": 2970, "gers": 2971, "confirm": 2972, "were": 2973, "checking": 2974, "persistence": 2975, "pressed": 2976, "predicate": 2977, "ql": 2978, "sleep": 2979, "sever": 2980, "compact": 2981, "nan": 2982, "duplicate": 2983, "256": 2984, "parents": 2985, "vip": 2986, "tre": 2987, "fli": 2988, "optim": 2989, "ampl": 2990, "iterate": 2991, "princip": 2992, "slo": 2993, "tc": 2994, "cii": 2995, "rank": 2996, "digits": 2997, "framework": 2998, "desi": 2999, "agr": 3000, "tls": 3001, "du": 3002, "theta": 3003, "nat": 3004, "devices": 3005, "elasticsearch": 3006, "commun": 3007, "future": 3008, "hor": 3009, "compo": 3010, "cing": 3011, "finished": 3012, "phone": 3013, "lies": 3014, "les": 3015, "assets": 3016, "converted": 3017, "fd": 3018, "rub": 3019, "logical": 3020, "threads": 3021, "later": 3022, "business": 3023, "regular": 3024, "cleanup": 3025, "vot": 3026, "stype": 3027, "000": 3028, "recogn": 3029, "forms": 3030, "upt": 3031, "etc": 3032, "bg": 3033, "sist": 3034, "wave": 3035, "policylabel": 3036, "vals": 3037, "hours": 3038, "mr": 3039, "average": 3040, "twi": 3041, "still": 3042, "white": 3043, "fp": 3044, "parsing": 3045, "transfer": 3046, "who": 3047, "desired": 3048, "oth": 3049, "wp": 3050, "exact": 3051, "exports": 3052, "ascii": 3053, "might": 3054, "trunc": 3055, "detach": 3056, "scopes": 3057, "rotation": 3058, "aging": 3059, "reach": 3060, "scene": 3061, "lst": 3062, "sively": 3063, "ink": 3064, "front": 3065, "choice": 3066, "dispatcher": 3067, "resize": 3068, "symbols": 3069, "problem": 3070, "ef": 3071, "referenced": 3072, "deserialize": 3073, "azz": 3074, "mdl": 3075, "ssh": 3076, "mill": 3077, "fab": 3078, "gui": 3079, "placeholder": 3080, "clip": 3081, "hier": 3082, "cmp": 3083, "attachments": 3084, "charset": 3085, "portfolio": 3086, "retval": 3087, "ript": 3088, "ness": 3089, "languages": 3090, "cnabu": 3091, "creation": 3092, "dd": 3093, "pairs": 3094, "receive": 3095, "strateg": 3096, "strategy": 3097, "hal": 3098, "suppress": 3099, "shut": 3100, "workspace": 3101, "modifier": 3102, "pdo": 3103, "alloc": 3104, "leton": 3105, "itive": 3106, "mutable": 3107, "converter": 3108, "initialized": 3109, "general": 3110, "consist": 3111, "arrow": 3112, "aggregation": 3113, "above": 3114, "merged": 3115, "relations": 3116, "major": 3117, "tries": 3118, "channels": 3119, "share": 3120, "appropri": 3121, "gsub": 3122, "clazz": 3123, "alize": 3124, "ojb": 3125, "impl": 3126, "basel": 3127, "eol": 3128, "visibility": 3129, "cycle": 3130, "minutes": 3131, "deco": 3132, "came": 3133, "appropriate": 3134, "pathname": 3135, "guess": 3136, "packages": 3137, "fra": 3138, "directly": 3139, "city": 3140, "endpoints": 3141, "rename": 3142, "rev": 3143, "x2": 3144, "sizes": 3145, "rds": 3146, "scanner": 3147, "bridge": 3148, "reload": 3149, "ions": 3150, "overwrite": 3151, "recursively": 3152, "expires": 3153, "ferences": 3154, "consu": 3155, "layers": 3156, "trailing": 3157, "oct": 3158, "x0": 3159, "uction": 3160, "uint32": 3161, "hub": 3162, "17": 3163, "offsets": 3164, "subst": 3165, "apsed": 3166, "allel": 3167, "finder": 3168, "80": 3169, "mic": 3170, "pin": 3171, "255": 3172, "aj": 3173, "please": 3174, "lap": 3175, "during": 3176, "sect": 3177, "verti": 3178, "prepa": 3179, "pol": 3180, "ely": 3181, "highlight": 3182, "clock": 3183, "reading": 3184, "pagination": 3185, "22": 3186, "dimensions": 3187, "lice": 3188, "unsupported": 3189, "rewrite": 3190, "7554": 3191, "cpy": 3192, "mir": 3193, "preview": 3194, "ending": 3195, "evt": 3196, "lict": 3197, "linked": 3198, "downstream": 3199, "vend": 3200, "handling": 3201, "equipa": 3202, "hum": 3203, "ring": 3204, "docker": 3205, "simil": 3206, "ception": 3207, "game": 3208, "equipament": 3209, "examples": 3210, "six": 3211, "marked": 3212, "seen": 3213, "serialized": 3214, "below": 3215, "design": 3216, "h5": 3217, "xhr": 3218, "baseline": 3219, "chro": 3220, "coor": 3221, "unch": 3222, "fered": 3223, "around": 3224, "parses": 3225, "servers": 3226, "sqrt": 3227, "grant": 3228, "dbc": 3229, "sat": 3230, "hydrated": 3231, "compiled": 3232, "immediate": 3233, "similar": 3234, "ports": 3235, "corp": 3236, "conflict": 3237, "sof": 3238, "rhs": 3239, "fat": 3240, "anded": 3241, "aria": 3242, "adv": 3243, "ror": 3244, "za": 3245, "stores": 3246, "colo": 3247, "returning": 3248, "updat": 3249, "retrieves": 3250, "fabric": 3251, "prefer": 3252, "positive": 3253, "cookies": 3254, "charm": 3255, "marks": 3256, "hosts": 3257, "wildcard": 3258, "typed": 3259, "executor": 3260, "maybe": 3261, "copi": 3262, "transformer": 3263, "jdbc": 3264, "happ": 3265, "digit": 3266, "hooks": 3267, "trust": 3268, "dbcluster": 3269, "seek": 3270, "someth": 3271, "orient": 3272, "contract": 3273, "posite": 3274, "compatible": 3275, "discard": 3276, "ilities": 3277, "idle": 3278, "makes": 3279, "something": 3280, "paces": 3281, "coords": 3282, "checksum": 3283, "speed": 3284, "workflow": 3285, "tok": 3286, "occur": 3287, "hasattr": 3288, "solution": 3289, "sanit": 3290, "beat": 3291, "continu": 3292, "hierarch": 3293, "again": 3294, "blue": 3295, "know": 3296, "gvr": 3297, "orter": 3298, "camera": 3299, "dead": 3300, "ube": 3301, "utf8": 3302, "ascript": 3303, "annotate": 3304, "exchange": 3305, "containers": 3306, "buffered": 3307, "large": 3308, "nn": 3309, "specification": 3310, "procedure": 3311, "comb": 3312, "9999": 3313, "those": 3314, "turn": 3315, "vendor": 3316, "coming": 3317, "scaler": 3318, "mappings": 3319, "dc": 3320, "picker": 3321, "soft": 3322, "claim": 3323, "conversion": 3324, "sibling": 3325, "provisioning": 3326, "mtas": 3327, "dj": 3328, "hig": 3329, "rfc": 3330, "secure": 3331, "discu": 3332, "pretty": 3333, "tip": 3334, "routine": 3335, "stan": 3336, "perm": 3337, "mel": 3338, "tpl": 3339, "fici": 3340, "cnt": 3341, "tor": 3342, "resolution": 3343, "zoom": 3344, "eof": 3345, "coordinate": 3346, "temporary": 3347, "compiler": 3348, "opa": 3349, "facet": 3350, "discussion": 3351, "javascript": 3352, "escaped": 3353, "ough": 3354, "square": 3355, "tain": 3356, "fur": 3357, "delivery": 3358, "belong": 3359, "cpe": 3360, "deg": 3361, "66": 3362, "ives": 3363, "eg": 3364, "builds": 3365, "runner": 3366, "panel": 3367, "ider": 3368, "ls": 3369, "plus": 3370, "particular": 3371, "crit": 3372, "pd": 3373, "floor": 3374, "micro": 3375, "upon": 3376, "interfaces": 3377, "ki": 3378, "millis": 3379, "ys": 3380, "writable": 3381, "pick": 3382, "azure": 3383, "pen": 3384, "automatically": 3385, "writing": 3386, "nt": 3387, "p1": 3388, "pref": 3389, "mapped": 3390, "land": 3391, "evaluate": 3392, "ipv4": 3393, "serializer": 3394, "splice": 3395, "live": 3396, "well": 3397, "observ": 3398, "crop": 3399, "nu": 3400, "determines": 3401, "individ": 3402, "finds": 3403, "ices": 3404, "horiz": 3405, "delegate": 3406, "navigation": 3407, "verb": 3408, "mole": 3409, "ime": 3410, "enfor": 3411, "latest": 3412, "ste": 3413, "bc": 3414, "p2": 3415, "ruby": 3416, "persistent": 3417, "mirror": 3418, "togg": 3419, "58": 3420, "asse": 3421, "altern": 3422, "maker": 3423, "frequ": 3424, "imports": 3425, "isn": 3426, "shadow": 3427, "animation": 3428, "gs": 3429, "unpack": 3430, "rdf": 3431, "translator": 3432, "including": 3433, "datas": 3434, "equipamento": 3435, "balance": 3436, "estim": 3437, "fam": 3438, "stro": 3439, "obtain": 3440, "further": 3441, "strtolower": 3442, "anchor": 3443, "repos": 3444, "retries": 3445, "encrypted": 3446, "cwd": 3447, "zap": 3448, "affic": 3449, "ables": 3450, "tim": 3451, "molec": 3452, "curve": 3453, "rv": 3454, "implements": 3455, "rb": 3456, "tabs": 3457, "prefixes": 3458, "ensitive": 3459, "replic": 3460, "pet": 3461, "star": 3462, "cour": 3463, "principal": 3464, "zation": 3465, "rx": 3466, "actually": 3467, "simul": 3468, "namespaces": 3469, "synchronized": 3470, "erce": 3471, "wrong": 3472, "solr": 3473, "ango": 3474, "severity": 3475, "getting": 3476, "black": 3477, "fid": 3478, "acy": 3479, "shutdown": 3480, "tracker": 3481, "embedded": 3482, "throwable": 3483, "vertical": 3484, "expressions": 3485, "ssm": 3486, "gene": 3487, "responder": 3488, "initi": 3489, "ble": 3490, "ficient": 3491, "autom": 3492, "horizon": 3493, "fname": 3494, "translations": 3495, "timezone": 3496, "jid": 3497, "analysi": 3498, "analysistype": 3499, "interr": 3500, "develo": 3501, "applications": 3502, "mil": 3503, "scripts": 3504, "consume": 3505, "inverse": 3506, "visitor": 3507, "servicegroup": 3508, "small": 3509, "handled": 3510, "hashes": 3511, "analyt": 3512, "argv": 3513, "abilities": 3514, "preser": 3515, "transformation": 3516, "draft": 3517, "newline": 3518, "aaa": 3519, "plural": 3520, "linear": 3521, "policies": 3522, "ajax": 3523, "rd": 3524, "ini": 3525, "activ": 3526, "deps": 3527, "spans": 3528, "choices": 3529, "removing": 3530, "dum": 3531, "scheduled": 3532, "aux": 3533, "sip": 3534, "launch": 3535, "quanti": 3536, "successful": 3537, "parallel": 3538, "reports": 3539, "uc": 3540, "contrib": 3541, "marg": 3542, "netscaler": 3543, "interrupt": 3544, "attached": 3545, "separated": 3546, "applied": 3547, "three": 3548, "traject": 3549, "configurations": 3550, "sequences": 3551, "notebook": 3552, "subset": 3553, "never": 3554, "lim": 3555, "popup": 3556, "hits": 3557, "authors": 3558, "candidates": 3559, "pear": 3560, "interest": 3561, "codec": 3562, "variance": 3563, "mf": 3564, "composite": 3565, "implemented": 3566, "individual": 3567, "hydrate": 3568, "recent": 3569, "36": 3570, "sends": 3571, "lt": 3572, "expanded": 3573, "txn": 3574, "classname": 3575, "extent": 3576, "02": 3577, "published": 3578, "tenant": 3579, "dependent": 3580, "gau": 3581, "salt": 3582, "colour": 3583, "keywords": 3584, "equip": 3585, "pod": 3586, "expired": 3587, "vertices": 3588, "substit": 3589, "beta": 3590, "intersection": 3591, "rollback": 3592, "eng": 3593, "hyper": 3594, "dl": 3595, "accessor": 3596, "nav": 3597, "deleteresources": 3598, "bb": 3599, "subscribe": 3600, "scalar": 3601, "training": 3602, "minor": 3603, "des": 3604, "successfully": 3605, "alive": 3606, "billing": 3607, "prf": 3608, "locales": 3609, "agraph": 3610, "comparator": 3611, "bson": 3612, "dbinstance": 3613, "uint64": 3614, "n1": 3615, "prepared": 3616, "locali": 3617, "utility": 3618, "terminal": 3619, "ctype": 3620, "srv": 3621, "secrets": 3622, "cas": 3623, "mor": 3624, "sending": 3625, "cog": 3626, "piece": 3627, "canon": 3628, "leading": 3629, "ka": 3630, "globals": 3631, "wt": 3632, "prediction": 3633, "backtrace": 3634, "overlap": 3635, "2d": 3636, "axes": 3637, "difference": 3638, "fk": 3639, "stanza": 3640, "itself": 3641, "dirty": 3642, "sock": 3643, "wk": 3644, "streams": 3645, "paragraph": 3646, "notifications": 3647, "singleton": 3648, "kill": 3649, "power": 3650, "udp": 3651, "checker": 3652, "things": 3653, "toggle": 3654, "wards": 3655, "registers": 3656, "broad": 3657, "coverage": 3658, "uploaded": 3659, "39": 3660, "gem": 3661, "flash": 3662, "apps": 3663, "eno": 3664, "half": 3665, "paginator": 3666, "combine": 3667, "decrypt": 3668, "invoc": 3669, "xp": 3670, "cha": 3671, "anno": 3672, "alert": 3673, "mental": 3674, "ils": 3675, "beam": 3676, "indicates": 3677, "due": 3678, "useful": 3679, "ga": 3680, "percentage": 3681, "nr": 3682, "boundary": 3683, "pq": 3684, "serialization": 3685, "vs": 3686, "expiration": 3687, "atype": 3688, "tw": 3689, "integr": 3690, "contexts": 3691, "explan": 3692, "snmp": 3693, "ention": 3694, "king": 3695, "classifier": 3696, "family": 3697, "sampl": 3698, "provisioned": 3699, "instruction": 3700, "uint8": 3701, "partitions": 3702, "populate": 3703, "mand": 3704, "scores": 3705, "dx": 3706, "directive": 3707, "conditional": 3708, "qualified": 3709, "doi": 3710, "sso": 3711, "syll": 3712, "wl": 3713, "deletion": 3714, "tap": 3715, "latitude": 3716, "texture": 3717, "hdr": 3718, "wb": 3719, "mpx": 3720, "anon": 3721, "green": 3722, "mkdir": 3723, "orth": 3724, "eq": 3725, "compression": 3726, "networkapi": 3727, "rendered": 3728, "craw": 3729, "thumb": 3730, "going": 3731, "qp": 3732, "certain": 3733, "compressed": 3734, "circ": 3735, "extended": 3736, "incoming": 3737, "connector": 3738, "overflow": 3739, "experi": 3740, "anything": 3741, "observer": 3742, "longitude": 3743, "smo": 3744, "gsl": 3745, "sigma": 3746, "preferences": 3747, "triggers": 3748, "gzip": 3749, "ix": 3750, "accessible": 3751, "48": 3752, "projects": 3753, "completion": 3754, "disconnect": 3755, "good": 3756, "opacity": 3757, "fatal": 3758, "lc": 3759, "preferred": 3760, "inc": 3761, "quotes": 3762, "authorized": 3763, "atomic": 3764, "mpp": 3765, "quad": 3766, "decoder": 3767, "404": 3768, "tuples": 3769, "uff": 3770, "sca": 3771, "stroke": 3772, "assigned": 3773, "gap": 3774, "infin": 3775, "compress": 3776, "declarations": 3777, "propa": 3778, "fraction": 3779, "eslint": 3780, "declared": 3781, "qui": 3782, "cognit": 3783, "far": 3784, "odata": 3785, "water": 3786, "deri": 3787, "mixed": 3788, "endswith": 3789, "phi": 3790, "colon": 3791, "mv": 3792, "gy": 3793, "y1": 3794, "temporal": 3795, "pg": 3796, "memo": 3797, "gon": 3798, "human": 3799, "margin": 3800, "intersect": 3801, "recorder": 3802, "letter": 3803, "ryption": 3804, "pm": 3805, "whole": 3806, "activation": 3807, "conc": 3808, "hints": 3809, "ffff": 3810, "gauss": 3811, "90": 3812, "locations": 3813, "flux": 3814, "torrent": 3815, "fri": 3816, "cto": 3817, "qt": 3818, "tection": 3819, "har": 3820, "wall": 3821, "branches": 3822, "typ": 3823, "magic": 3824, "gpf": 3825, "tagged": 3826, "quality": 3827, "beginning": 3828, "optionally": 3829, "locals": 3830, "supports": 3831, "frequency": 3832, "cipient": 3833, "union": 3834, "unsetresources": 3835, "clients": 3836, "recipient": 3837, "bundles": 3838, "cognito": 3839, "authenticated": 3840, "getter": 3841, "intern": 3842, "variants": 3843, "coupon": 3844, "grees": 3845, "submission": 3846, "molecule": 3847, "ipaddress": 3848, "serv": 3849, "performs": 3850, "immutable": 3851, "review": 3852, "accepted": 3853, "valent": 3854, "shard": 3855, "tice": 3856, "adj": 3857, "markdown": 3858, "appear": 3859, "logged": 3860, "separate": 3861, "gslb": 3862, "grou": 3863, "associations": 3864, "degrees": 3865, "nw": 3866, "singular": 3867, "excluded": 3868, "orientation": 3869, "loss": 3870, "sid": 3871, "float32": 3872, "django": 3873, "provides": 3874, "caption": 3875, "overlay": 3876, "milli": 3877, "mutex": 3878, "defs": 3879, "trajectory": 3880, "primit": 3881, "mpxj": 3882, "applies": 3883, "everything": 3884, "enh": 3885, "nick": 3886, "horizontal": 3887, "kit": 3888, "queues": 3889, "silent": 3890, "capac": 3891, "executable": 3892, "panic": 3893, "serts": 3894, "iom": 3895, "sug": 3896, "gam": 3897, "polygon": 3898, "sections": 3899, "depending": 3900, "appoint": 3901, "rtl": 3902, "rendering": 3903, "csr": 3904, "acer": 3905, "taken": 3906, "mg": 3907, "spection": 3908, "pp": 3909, "initializes": 3910, "int32": 3911, "exponent": 3912, "aspect": 3913, "ism": 3914, "pand": 3915, "hierarchy": 3916, "communic": 3917, "dh": 3918, "35": 3919, "efficient": 3920, "phra": 3921, "lemma": 3922, "lying": 3923, "lexception": 3924, "wind": 3925, "interpol": 3926, "elems": 3927, "xmpp": 3928, "s1": 3929, "shr": 3930, "opened": 3931, "brackets": 3932, "inspector": 3933, "combined": 3934, "canonical": 3935, "axiom": 3936, "rotate": 3937, "machines": 3938, "jar": 3939, "elapsed": 3940, "affect": 3941, "sures": 3942, "pse": 3943, "camel": 3944, "bt": 3945, "reconnect": 3946, "chr": 3947, "asyn": 3948, "resume": 3949, "funcs": 3950, "spawn": 3951, "posts": 3952, "creator": 3953, "lgc": 3954, "predict": 3955, "500": 3956, "sky": 3957, "concaten": 3958, "viol": 3959, "ome": 3960, "occ": 3961, "iq": 3962, "bins": 3963, "occurrence": 3964, "lover": 3965, "give": 3966, "para": 3967, "stopped": 3968, "spr": 3969, "sf": 3970, "broadcast": 3971, "subclass": 3972, "assemb": 3973, "transformed": 3974, "advance": 3975, "cover": 3976, "peak": 3977, "expire": 3978, "assertion": 3979, "lier": 3980, "defines": 3981, "enabu": 3982, "suggest": 3983, "yes": 3984, "sen": 3985, "ram": 3986, "ird": 3987, "accepts": 3988, "buttons": 3989, "operand": 3990, "bond": 3991, "oe": 3992, "nii": 3993, "encryption": 3994, "wiki": 3995, "pause": 3996, "tokenizer": 3997, "hot": 3998, "underlying": 3999, "executed": 4000, "exported": 4001, "melis": 4002, "calculates": 4003, "leave": 4004, "symbo": 4005, "equivalent": 4006, "intro": 4007, "ously": 4008, "scaling": 4009, "gradient": 4010, "emon": 4011, "peek": 4012, "bracket": 4013, "rame": 4014, "traffic": 4015, "represents": 4016, "apo": 4017, "detected": 4018, "rails": 4019, "infos": 4020, "asynchron": 4021, "accounts": 4022, "news": 4023, "pow": 4024, "authorizer": 4025, "quick": 4026, "restrict": 4027, "authenticate": 4028, "invent": 4029, "quantity": 4030, "systems": 4031, "guid": 4032, "vectors": 4033, "identifiers": 4034, "ipa": 4035, "messaging": 4036, "stub": 4037, "clusters": 4038, "outbound": 4039, "slots": 4040, "sx": 4041, "opening": 4042, "visited": 4043, "pup": 4044, "automation": 4045, "ambient": 4046, "discovery": 4047, "histo": 4048, "replica": 4049, "bread": 4050, "profiles": 4051, "cud": 4052, "commits": 4053, "aving": 4054, "workers": 4055, "fing": 4056, "executes": 4057, "mutation": 4058, "fails": 4059, "mu": 4060, "quoted": 4061, "ahead": 4062, "guest": 4063, "tot": 4064, "analytics": 4065, "unders": 4066, "ario": 4067, "23": 4068, "pivot": 4069, "ticks": 4070, "closest": 4071, "bounding": 4072, "promises": 4073, "sampling": 4074, "sage": 4075, "locked": 4076, "ceptor": 4077, "made": 4078, "lopt": 4079, "lik": 4080, "population": 4081, "schemas": 4082, "prepend": 4083, "ordin": 4084, "pread": 4085, "scaled": 4086, "trying": 4087, "sorting": 4088, "daemon": 4089, "markup": 4090, "documentation": 4091, "modifiers": 4092, "phing": 4093, "lbvserver": 4094, "closer": 4095, "44": 4096, "raised": 4097, "dna": 4098, "datatype": 4099, "membership": 4100, "neighbors": 4101, "jump": 4102, "generation": 4103, "cab": 4104, "figure": 4105, "belongs": 4106, "overrides": 4107, "controll": 4108, "kv": 4109, "preserve": 4110, "tooltip": 4111, "addon": 4112, "crl": 4113, "building": 4114, "capacity": 4115, "appflow": 4116, "arc": 4117, "visor": 4118, "computes": 4119, "invocation": 4120, "instantiate": 4121, "qb": 4122, "uler": 4123, "indexed": 4124, "ui5": 4125, "lng": 4126, "histogram": 4127, "replaced": 4128, "products": 4129, "unused": 4130, "edb": 4131, "tz": 4132, "inventory": 4133, "unix": 4134, "selectors": 4135, "vl": 4136, "endian": 4137, "pieces": 4138, "nullable": 4139, "validated": 4140, "logy": 4141, "primitive": 4142, "collap": 4143, "rack": 4144, "folders": 4145, "syllable": 4146, "requirements": 4147, "domains": 4148, "atoms": 4149, "west": 4150, "indicate": 4151, "happen": 4152, "presence": 4153, "gz": 4154, "across": 4155, "effective": 4156, "libs": 4157, "along": 4158, "chat": 4159, "bum": 4160, "decorated": 4161, "tic": 4162, "ders": 4163, "tracks": 4164, "repr": 4165, "aio": 4166, "unce": 4167, "radio": 4168, "inet": 4169, "whose": 4170, "composer": 4171, "datum": 4172, "grouped": 4173, "sdk": 4174, "dumps": 4175, "transforms": 4176, "holders": 4177, "timing": 4178, "terminate": 4179, "previously": 4180, "refer": 4181, "entire": 4182, "iframe": 4183, "ensures": 4184, "astype": 4185, "77": 4186, "stock": 4187, "multip": 4188, "wsgi": 4189, "recv": 4190, "modal": 4191, "touches": 4192, "lane": 4193, "derived": 4194, "spread": 4195, "spacing": 4196, "genus": 4197, "flick": 4198, "z0": 4199, "hmm": 4200, "forwar": 4201, "looks": 4202, "filenames": 4203, "infer": 4204, "ral": 4205, "explanation": 4206, "assoc": 4207, "taxon": 4208, "peg": 4209, "apic": 4210, "ape": 4211, "occurrences": 4212, "ipy": 4213, "plt": 4214, "bank": 4215, "promo": 4216, "album": 4217, "pandas": 4218, "aaaa": 4219, "invok": 4220, "injection": 4221, "urnal": 4222, "setter": 4223, "flex": 4224, "lu": 4225, "regexes": 4226, "outside": 4227, "bold": 4228, "sentences": 4229, "updating": 4230, "sanitize": 4231, "palet": 4232, "fixer": 4233, "gamma": 4234, "compilation": 4235, "ami": 4236, "lineno": 4237, "dry": 4238, "vpnglobal": 4239, "itories": 4240, "apping": 4241, "correlation": 4242, "thr": 4243, "controllers": 4244, "ied": 4245, "masked": 4246, "phrase": 4247, "calib": 4248, "anony": 4249, "months": 4250, "fake": 4251, "restart": 4252, "tell": 4253, "explicitly": 4254, "copied": 4255, "34": 4256, "atar": 4257, "rating": 4258, "better": 4259, "dummy": 4260, "deleteresource": 4261, "v4": 4262, "prints": 4263, "galler": 4264, "enough": 4265, "unct": 4266, "1024": 4267, "checkbox": 4268, "wheel": 4269, "stdin": 4270, "iterations": 4271, "photos": 4272, "availability": 4273, "aggregate": 4274, "interaction": 4275, "lag": 4276, "sqlexception": 4277, "posed": 4278, "unsetresource": 4279, "performance": 4280, "world": 4281, "cards": 4282, "cudnn": 4283, "ambiente": 4284, "immediately": 4285, "allele": 4286, "cx": 4287, "zwave": 4288, "intf": 4289, "busy": 4290, "volumes": 4291, "lengths": 4292, "modification": 4293, "interpret": 4294, "yin": 4295, "emitter": 4296, "passing": 4297, "nonce": 4298, "popo": 4299, "ny": 4300, "mous": 4301, "por": 4302, "vote": 4303, "traverse": 4304, "ctor": 4305, "ips": 4306, "rti": 4307, "certificates": 4308, "inbound": 4309, "errs": 4310, "interceptor": 4311, "nl": 4312, "nome": 4313, "abol": 4314, "ier": 4315, "27": 4316, "others": 4317, "shader": 4318, "fle": 4319, "probability": 4320, "blocking": 4321, "metabol": 4322, "logpolicy": 4323, "critical": 4324, "temper": 4325, "tests": 4326, "anonymous": 4327, "simulated": 4328, "legacy": 4329, "checkout": 4330, "insn": 4331, "resse": 4332, "chn": 4333, "31": 4334, "smooth": 4335, "aes": 4336, "grow": 4337, "deriv": 4338, "codon": 4339, "sale": 4340, "moved": 4341, "getfiltered": 4342, "suite": 4343, "decoded": 4344, "ec2": 4345, "quiet": 4346, "widgets": 4347, "igu": 4348, "cir": 4349, "phased": 4350, "128": 4351, "flip": 4352, "consider": 4353, "scr": 4354, "decre": 4355, "choose": 4356, "relev": 4357, "libraries": 4358, "song": 4359, "easy": 4360, "scenario": 4361, "67": 4362, "utter": 4363, "curlopt": 4364, "puppet": 4365, "ably": 4366, "lize": 4367, "splits": 4368, "dial": 4369, "extracted": 4370, "obs": 4371, "specs": 4372, "proble": 4373, "subprocess": 4374, "juju": 4375, "fetched": 4376, "listing": 4377, "conven": 4378, "repositories": 4379, "verification": 4380, "vered": 4381, "processors": 4382, "compatibility": 4383, "gaussian": 4384, "provisioner": 4385, "inserts": 4386, "compose": 4387, "ively": 4388, "mgt": 4389, "hello": 4390, "ee": 4391, "properly": 4392, "veloc": 4393, "pict": 4394, "increase": 4395, "ioc": 4396, "searches": 4397, "skipped": 4398, "nost": 4399, "firewall": 4400, "algo": 4401, "replaces": 4402, "sessions": 4403, "coefficient": 4404, "surface": 4405, "owl": 4406, "grup": 4407, "uniq": 4408, "identify": 4409, "activate": 4410, "calculated": 4411, "having": 4412, "nv": 4413, "adresse": 4414, "say": 4415, "lig": 4416, "ben": 4417, "aioxmpp": 4418, "mimetype": 4419, "topt": 4420, "descriptions": 4421, "notice": 4422, "interrupted": 4423, "comes": 4424, "medium": 4425, "friend": 4426, "topics": 4427, "ceil": 4428, "skills": 4429, "transcript": 4430, "r2": 4431, "ado": 4432, "roid": 4433, "propos": 4434, "sport": 4435, "composition": 4436, "saves": 4437, "tle": 4438, "observed": 4439, "circle": 4440, "reshape": 4441, "neare": 4442, "versal": 4443, "footer": 4444, "tuning": 4445, "morph": 4446, "fif": 4447, "jsonobject": 4448, "installation": 4449, "imported": 4450, "hmac": 4451, "clus": 4452, "demo": 4453, "xs": 4454, "grupo": 4455, "flickr": 4456, "y2": 4457, "lit": 4458, "hap": 4459, "english": 4460, "assignments": 4461, "hest": 4462, "roots": 4463, "hard": 4464, "vocab": 4465, "icontact": 4466, "equipment": 4467, "react": 4468, "uth": 4469, "intervals": 4470, "ience": 4471, "holds": 4472, "devi": 4473, "alphab": 4474, "ipt": 4475, "blog": 4476, "s2": 4477, "lee": 4478, "longer": 4479, "remember": 4480, "projection": 4481, "gallery": 4482, "finger": 4483, "season": 4484, "recomm": 4485, "highest": 4486, "palette": 4487, "island": 4488, "appointment": 4489, "summar": 4490, "88": 4491, "won": 4492, "sha1": 4493, "journal": 4494, "vx": 4495, "station": 4496, "dbsnapshot": 4497, "inspection": 4498, "claims": 4499, "rectangle": 4500, "renders": 4501, "orders": 4502, "gd": 4503, "sha256": 4504, "diagnost": 4505, "triple": 4506, "limits": 4507, "asn1": 4508, "correctly": 4509, "queued": 4510, "vpnvserver": 4511, "yields": 4512, "peers": 4513, "seeds": 4514, "liance": 4515, "balan": 4516, "builtin": 4517, "relevant": 4518, "limited": 4519, "nearest": 4520, "vest": 4521, "inherited": 4522, "deregister": 4523, "59": 4524, "csrf": 4525, "yo": 4526, "e2": 4527, "sitem": 4528, "dicts": 4529, "vv": 4530, "chrome": 4531, "dropdown": 4532, "satis": 4533, "sparse": 4534, "care": 4535, "course": 4536, "preference": 4537, "graphic": 4538, "tk": 4539, "inserted": 4540, "ath": 4541, "lear": 4542, "xr": 4543, "resulting": 4544, "uation": 4545, "unary": 4546, "twig": 4547, "today": 4548, "nex": 4549, "jwt": 4550, "workteam": 4551, "looking": 4552, "density": 4553, "polling": 4554, "purge": 4555, "contained": 4556, "relationships": 4557, "stripped": 4558, "scat": 4559, "learning": 4560, "dp": 4561, "bbox": 4562, "unchecked": 4563, "announce": 4564, "declare": 4565, "succe": 4566, "magnit": 4567, "magnitude": 4568, "dmatrix": 4569, "arm": 4570, "filled": 4571, "unst": 4572, "fh": 4573, "offer": 4574, "400": 4575, "sitemap": 4576, "important": 4577, "encoun": 4578, "duplicates": 4579, "e1": 4580, "lifetime": 4581, "reached": 4582, "crawl": 4583, "nail": 4584, "bone": 4585, "fine": 4586, "rho": 4587, "suit": 4588, "migr": 4589, "gid": 4590, "istic": 4591, "errno": 4592, "community": 4593, "blockly": 4594, "keyboard": 4595, "mal": 4596, "aves": 4597, "preset": 4598, "initialization": 4599, "regions": 4600, "avg": 4601, "wraps": 4602, "locate": 4603, "punct": 4604, "networks": 4605, "widths": 4606, "pem": 4607, "descriptors": 4608, "confid": 4609, "strconv": 4610, "collapse": 4611, "descend": 4612, "sites": 4613, "estimate": 4614, "mass": 4615, "pars": 4616, "tracking": 4617, "translated": 4618, "feedback": 4619, "gas": 4620, "t1": 4621, "chem": 4622, "enforces": 4623, "grammar": 4624, "texts": 4625, "infof": 4626, "xyz": 4627, "captcha": 4628, "initializer": 4629, "certkey": 4630, "selections": 4631, "finite": 4632, "minim": 4633, "timephased": 4634, "loops": 4635, "subtree": 4636, "gesture": 4637, "reaction": 4638, "calendars": 4639, "rete": 4640, "anned": 4641, "uint16": 4642, "extractor": 4643, "phan": 4644, "epg": 4645, "atts": 4646, "publisher": 4647, "whitelist": 4648, "unshift": 4649, "illa": 4650, "fifo": 4651, "room": 4652, "solver": 4653, "yar": 4654, "problems": 4655, "utilities": 4656, "reactions": 4657, "downcase": 4658, "une": 4659, "debugf": 4660, "likely": 4661, "ravel": 4662, "evaluation": 4663, "dashboard": 4664, "c1": 4665, "appends": 4666, "dos": 4667, "playlist": 4668, "extracts": 4669, "dia": 4670, "fits": 4671, "acl6": 4672, "alignment": 4673, "commerce": 4674, "meter": 4675, "annotated": 4676, "supple": 4677, "allen": 4678, "genes": 4679, "serve": 4680, "suitable": 4681, "synthe": 4682, "respect": 4683, "really": 4684, "btn": 4685, "ioerror": 4686, "vox": 4687, "sts": 4688, "analyze": 4689, "imat": 4690, "alphabet": 4691, "affected": 4692, "dm": 4693, "unsafe": 4694, "abel": 4695, "trap": 4696, "avatar": 4697, "tracked": 4698, "swi": 4699, "plo": 4700, "knx": 4701, "ialized": 4702, "splash": 4703, "permit": 4704, "allocate": 4705, "ks": 4706, "ache": 4707, "trusted": 4708, "96": 4709, "gick": 4710, "xff": 4711, "runn": 4712, "higher": 4713, "npm": 4714, "radians": 4715, "expects": 4716, "loan": 4717, "archi": 4718, "detector": 4719, "transformers": 4720, "adjac": 4721, "ender": 4722, "combination": 4723, "dock": 4724, "neighbor": 4725, "webdriver": 4726, "gether": 4727, "temperature": 4728, "calibration": 4729, "substitution": 4730, "infinity": 4731, "hyph": 4732, "debugging": 4733, "ordering": 4734, "lhs": 4735, "noise": 4736, "smar": 4737, "crumb": 4738, "tau": 4739, "unregister": 4740, "repl": 4741, "stops": 4742, "stopping": 4743, "simply": 4744, "2015": 4745, "ae": 4746, "xso": 4747, "ovs": 4748, "lookahead": 4749, "milliseconds": 4750, "mobi": 4751, "eas": 4752, "04": 4753, "ane": 4754, "observations": 4755, "tf": 4756, "ros": 4757, "requirement": 4758, "howe": 4759, "however": 4760, "pitch": 4761, "sampled": 4762, "convenience": 4763, "together": 4764, "deliver": 4765, "y0": 4766, "focused": 4767, "counters": 4768, "placement": 4769, "plane": 4770, "mq": 4771, "invert": 4772, "fetching": 4773, "interpolation": 4774, "skipping": 4775, "tds": 4776, "fragments": 4777, "subscriptions": 4778, "formul": 4779, "37": 4780, "viewport": 4781, "utor": 4782, "trees": 4783, "browsers": 4784, "webhook": 4785, "mixin": 4786, "producer": 4787, "facebook": 4788, "arti": 4789, "callee": 4790, "mechan": 4791, "dic": 4792, "minute": 4793, "26": 4794, "freeze": 4795, "38": 4796, "cry": 4797, "enhance": 4798, "mtime": 4799, "identified": 4800, "atures": 4801, "unsigned": 4802, "phys": 4803, "v3": 4804, "rather": 4805, "convention": 4806, "oned": 4807, "failures": 4808, "signing": 4809, "aker": 4810, "pel": 4811, "nam": 4812, "sudo": 4813, "seman": 4814, "512": 4815, "cores": 4816, "grunt": 4817, "classification": 4818, "groupname": 4819, "spline": 4820, "tid": 4821, "signatures": 4822, "versioned": 4823, "ru": 4824, "sensitive": 4825, "waf": 4826, "atable": 4827, "strong": 4828, "truncate": 4829, "gdn": 4830, "pip": 4831, "gal": 4832, "reporting": 4833, "lowest": 4834, "batches": 4835, "enforce": 4836, "copies": 4837, "nsip": 4838, "setdefault": 4839, "restri": 4840, "restriction": 4841, "popbill": 4842, "boxes": 4843, "division": 4844, "editable": 4845, "numtype": 4846, "thrown": 4847, "insensitive": 4848, "toler": 4849, "smart": 4850, "simpl": 4851, "gopt": 4852, "executing": 4853, "reboot": 4854, "zend": 4855, "implicit": 4856, "ari": 4857, "jsonrpc": 4858, "apis": 4859, "addrs": 4860, "authorize": 4861, "continuation": 4862, "experimental": 4863, "synchronous": 4864, "integration": 4865, "doing": 4866, "grab": 4867, "ji": 4868, "attribs": 4869, "bag": 4870, "victo": 4871, "victoire": 4872, "dataframe": 4873, "etag": 4874, "tokenize": 4875, "treat": 4876, "sexp": 4877, "afka": 4878, "gray": 4879, "yarpc": 4880, "exactly": 4881, "yml": 4882, "memberof": 4883, "seem": 4884, "moves": 4885, "cancelled": 4886, "amqp": 4887, "acqu": 4888, "validity": 4889, "dem": 4890, "clen": 4891, "acing": 4892, "why": 4893, "lement": 4894, "ess": 4895, "localized": 4896, "covariance": 4897, "oauth2": 4898, "copyright": 4899, "cron": 4900, "coe": 4901, "nice": 4902, "underscore": 4903, "alone": 4904, "kafka": 4905, "describ": 4906, "sprite": 4907, "inct": 4908, "oney": 4909, "r1": 4910, "setopt": 4911, "fg": 4912, "tb": 4913, "convol": 4914, "environments": 4915, "defining": 4916, "mage": 4917, "cv": 4918, "enqueue": 4919, "effects": 4920, "sg": 4921, "gold": 4922, "patches": 4923, "velocity": 4924, "prox": 4925, "artifacts": 4926, "develop": 4927, "disassociate": 4928, "nor": 4929, "hood": 4930, "paint": 4931, "urlen": 4932, "discussions": 4933, "trimmed": 4934, "hrf": 4935, "vpc": 4936, "episo": 4937, "pto": 4938, "fetches": 4939, "approx": 4940, "rever": 4941, "scatter": 4942, "fitting": 4943, "corr": 4944, "perms": 4945, "mc": 4946, "gives": 4947, "hu": 4948, "wal": 4949, "soap": 4950, "acert": 4951, "guard": 4952, "28": 4953, "flask": 4954, "matter": 4955, "conside": 4956, "constructs": 4957, "downloaded": 4958, "configurator": 4959, "placeholders": 4960, "multipart": 4961, "bj": 4962, "pseu": 4963, "resid": 4964, "coerce": 4965, "ignor": 4966, "3d": 4967, "modes": 4968, "moz": 4969, "mysql": 4970, "compound": 4971, "semi": 4972, "grouping": 4973, "coroutine": 4974, "shop": 4975, "pressure": 4976, "possib": 4977, "formatting": 4978, "conj": 4979, "sun": 4980, "55": 4981, "squared": 4982, "ske": 4983, "izing": 4984, "pseudo": 4985, "isfile": 4986, "inclusive": 4987, "kunst": 4988, "kunstma": 4989, "kunstmaan": 4990, "pts": 4991, "synchronize": 4992, "a1": 4993, "probably": 4994, "c2": 4995, "dbid": 4996, "propagation": 4997, "prep": 4998, "ablish": 4999, "apon": 5000, "instrument": 5001, "distinct": 5002, "ancestors": 5003, "software": 5004, "geno": 5005, "equation": 5006, "proposal": 5007, "weapon": 5008, "ito": 5009, "chase": 5010, "parenthe": 5011, "aper": 5012, "onal": 5013, "soup": 5014, "cleo": 5015, "cel": 5016, "x00": 5017, "various": 5018, "fault": 5019, "xsl": 5020, "android": 5021, "hl": 5022, "zr": 5023, "b58": 5024, "tunnel": 5025, "tolerance": 5026, "legend": 5027, "capabilities": 5028, "third": 5029, "signals": 5030, "nets": 5031, "ling": 5032, "300": 5033, "cpu": 5034, "releases": 5035, "smaller": 5036, "finding": 5037, "combo": 5038, "29": 5039, "considered": 5040, "509": 5041, "capit": 5042, "shar": 5043, "tour": 5044, "discount": 5045, "textarea": 5046, "preconditions": 5047, "revo": 5048, "arbit": 5049, "consistent": 5050, "workspaces": 5051, "writel": 5052, "transactions": 5053, "qs": 5054, "cosmo": 5055, "compres": 5056, "shortcut": 5057, "xxx": 5058, "omit": 5059, "calculation": 5060, "unavailable": 5061, "observe": 5062, "enses": 5063, "arraycopy": 5064, "purchase": 5065, "reservation": 5066, "online": 5067, "pwd": 5068, "elm": 5069, "coeff": 5070, "saf": 5071, "represented": 5072, "minus": 5073, "protection": 5074, "rms": 5075, "establish": 5076, "blur": 5077, "revoke": 5078, "iguous": 5079, "picture": 5080, "nf": 5081, "deck": 5082, "gov": 5083, "contenttype": 5084, "blueprint": 5085, "mn": 5086, "tele": 5087, "runnable": 5088, "sible": 5089, "wel": 5090, "ftp": 5091, "stylesheet": 5092, "caches": 5093, "subtitle": 5094, "bots": 5095, "value1": 5096, "eig": 5097, "persister": 5098, "manually": 5099, "depends": 5100, "encountered": 5101, "jed": 5102, "correction": 5103, "stale": 5104, "sheets": 5105, "discover": 5106, "deviation": 5107, "portion": 5108, "proj": 5109, "cacert": 5110, "tipo": 5111, "buckets": 5112, "compliance": 5113, "owlaxiom": 5114, "sus": 5115, "lia": 5116, "occurs": 5117, "basedir": 5118, "observable": 5119, "unif": 5120, "ano": 5121, "76": 5122, "slashes": 5123, "issu": 5124, "jet": 5125, "notation": 5126, "potential": 5127, "raster": 5128, "thre": 5129, "zen": 5130, "t2": 5131, "ignoring": 5132, "unlink": 5133, "alternative": 5134, "rmaj": 5135, "intents": 5136, "ators": 5137, "rune": 5138, "crf": 5139, "mechanism": 5140, "geom": 5141, "jj": 5142, "measurement": 5143, "kg": 5144, "jcd": 5145, "thumbnail": 5146, "tex": 5147, "21": 5148, "acquire": 5149, "story": 5150, "friendly": 5151, "n2": 5152, "alarm": 5153, "specifier": 5154, "particip": 5155, "magick": 5156, "ko": 5157, "greg": 5158, "va": 5159, "linux": 5160, "enforcer": 5161, "acces": 5162, "pul": 5163, "timestamps": 5164, "jedis": 5165, "sit": 5166, "scheduler": 5167, "uit": 5168, "ever": 5169, "lient": 5170, "extras": 5171, "putility": 5172, "past": 5173, "basestring": 5174, "though": 5175, "displayed": 5176, "fai": 5177, "localhost": 5178, "gav": 5179, "assignable": 5180, "joined": 5181, "onto": 5182, "concatenate": 5183, "blocked": 5184, "crc": 5185, "sense": 5186, "observation": 5187, "nm": 5188, "crypto": 5189, "rst": 5190, "prefixed": 5191, "cutoff": 5192, "toc": 5193, "iff": 5194, "near": 5195, "shrink": 5196, "collapsed": 5197, "traceback": 5198, "usable": 5199, "quit": 5200, "deal": 5201, "pf": 5202, "compared": 5203, "iteritems": 5204, "uris": 5205, "readout": 5206, "folds": 5207, "mobile": 5208, "usually": 5209, "psf": 5210, "replay": 5211, "ivity": 5212, "yel": 5213, "gbif": 5214, "preload": 5215, "areas": 5216, "xmlerror": 5217, "abc": 5218, "jq": 5219, "authority": 5220, "websocket": 5221, "pinyin": 5222, "backwards": 5223, "bench": 5224, "itation": 5225, "atory": 5226, "dee": 5227, "median": 5228, "mw": 5229, "punctuation": 5230, "synset": 5231, "hed": 5232, "formula": 5233, "tube": 5234, "partment": 5235, "mpputility": 5236, "streaming": 5237, "released": 5238, "dims": 5239, "trait": 5240, "little": 5241, "drive": 5242, "jd": 5243, "gain": 5244, "cti": 5245, "triangle": 5246, "broken": 5247, "rxn": 5248, "invoked": 5249, "deleting": 5250, "objective": 5251, "statuses": 5252, "thus": 5253, "hdf": 5254, "clusion": 5255, "itter": 5256, "tensor": 5257, "yellow": 5258, "changelog": 5259, "parsers": 5260, "rejected": 5261, "nsp": 5262, "05": 5263, "four": 5264, "making": 5265, "rg": 5266, "ky": 5267, "dao": 5268, "caching": 5269, "injector": 5270, "positional": 5271, "hop": 5272, "asynchronously": 5273, "hyphen": 5274, "writeln": 5275, "distances": 5276, "psr": 5277, "udf": 5278, "spell": 5279, "existe": 5280, "flu": 5281, "edm": 5282, "gregori": 5283, "gregorian": 5284, "desk": 5285, "articles": 5286, "revert": 5287, "contacts": 5288, "sas": 5289, "jetty": 5290, "pnp": 5291, "nslimit": 5292, "contour": 5293, "cri": 5294, "snip": 5295, "meaning": 5296, "interpo": 5297, "ake": 5298, "degree": 5299, "outfile": 5300, "prime": 5301, "yii": 5302, "truncation": 5303, "happens": 5304, "interpolate": 5305, "factories": 5306, "mandatory": 5307, "places": 5308, "ares": 5309, "subtype": 5310, "clique": 5311, "countries": 5312, "siblings": 5313, "trafficpolicy": 5314, "fleet": 5315, "slide": 5316, "cov": 5317, "deployed": 5318, "arger": 5319, "uniform": 5320, "jpeg": 5321, "rich": 5322, "compe": 5323, "xo": 5324, "vp": 5325, "ict": 5326, "animate": 5327, "scall": 5328, "initiate": 5329, "generating": 5330, "ints": 5331, "invisible": 5332, "rem": 5333, "conflicts": 5334, "uploader": 5335, "arbitr": 5336, "advanced": 5337, "normalization": 5338, "alter": 5339, "nucleo": 5340, "needle": 5341, "syscall": 5342, "spot": 5343, "ordinal": 5344, "ially": 5345, "cleaned": 5346, "uring": 5347, "slow": 5348, "html5": 5349, "deserialization": 5350, "transi": 5351, "transient": 5352, "slave": 5353, "epo": 5354, "fasta": 5355, "datepicker": 5356, "protobuf": 5357, "away": 5358, "listed": 5359, "doctr": 5360, "doctrine": 5361, "avor": 5362, "setattr": 5363, "performed": 5364, "shares": 5365, "izations": 5366, "retain": 5367, "lazily": 5368, "vey": 5369, "rsa": 5370, "indentation": 5371, "nucleoti": 5372, "grammat": 5373, "invoice": 5374, "gly": 5375, "bio": 5376, "epub": 5377, "recover": 5378, "scrolling": 5379, "bases": 5380, "istr": 5381, "quant": 5382, "labelname": 5383, "developer": 5384, "dont": 5385, "backoff": 5386, "years": 5387, "lets": 5388, "bib": 5389, "violation": 5390, "csvserver": 5391, "smalle": 5392, "smallest": 5393, "timed": 5394, "recursion": 5395, "guide": 5396, "v6": 5397, "resolves": 5398, "vue": 5399, "summaries": 5400, "advisor": 5401, "uf": 5402, "pager": 5403, "taxonom": 5404, "couldn": 5405, "longest": 5406, "universal": 5407, "fld": 5408, "verbosity": 5409, "recognized": 5410, "sqlite": 5411, "uis": 5412, "exclusive": 5413, "sz": 5414, "supplemental": 5415, "grammatical": 5416, "specifies": 5417, "announcement": 5418, "unauthorized": 5419, "aug": 5420, "fed": 5421, "attempting": 5422, "lf": 5423, "assum": 5424, "optimize": 5425, "failover": 5426, "ingress": 5427, "h2": 5428, "pian": 5429, "pianor": 5430, "pianorol": 5431, "brace": 5432, "paused": 5433, "ngram": 5434, "gutter": 5435, "competing": 5436, "servlet": 5437, "updater": 5438, "metabolites": 5439, "cgroup": 5440, "matchers": 5441, "babel": 5442, "produce": 5443, "confirmation": 5444, "choo": 5445, "saving": 5446, "b2": 5447, "prc": 5448, "es6": 5449, "fixt": 5450, "gat": 5451, "locks": 5452, "reuse": 5453, "collected": 5454, "tier": 5455, "retrieved": 5456, "installer": 5457, "stren": 5458, "cors": 5459, "licenses": 5460, "much": 5461, "validators": 5462, "cube": 5463, "prospect": 5464, "deadline": 5465, "eni": 5466, "sms": 5467, "timeline": 5468, "automaton": 5469, "interests": 5470, "episode": 5471, "explo": 5472, "pic": 5473, "nao": 5474, "x3": 5475, "hack": 5476, "subtr": 5477, "emitted": 5478, "didn": 5479, "central": 5480, "insertion": 5481, "datasets": 5482, "x509": 5483, "intval": 5484, "uids": 5485, "moder": 5486, "scoped": 5487, "replacements": 5488, "beans": 5489, "ai": 5490, "executions": 5491, "ghost": 5492, "stacks": 5493, "incomplete": 5494, "datapo": 5495, "arity": 5496, "larger": 5497, "recurse": 5498, "pools": 5499, "oneway": 5500, "iout": 5501, "jr": 5502, "nom": 5503, "strength": 5504, "sass": 5505, "nth": 5506, "profilename": 5507, "deci": 5508, "vc": 5509, "clusternode": 5510, "cookbook": 5511, "rema": 5512, "cade": 5513, "multil": 5514, "appender": 5515, "dar": 5516, "xhtml": 5517, "fu": 5518, "ket": 5519, "lx": 5520, "thrift": 5521, "van": 5522, "challen": 5523, "challenge": 5524, "navig": 5525, "kms": 5526, "arange": 5527, "contiv": 5528, "isol": 5529, "reviewing": 5530, "listening": 5531, "45": 5532, "jquery": 5533, "reduced": 5534, "d2": 5535, "deleg": 5536, "webpack": 5537, "hdu": 5538, "playing": 5539, "circular": 5540, "aren": 5541, "development": 5542, "shake": 5543, "tg": 5544, "manip": 5545, "committed": 5546, "datasource": 5547, "passive": 5548, "labeling": 5549, "prm": 5550, "prefs": 5551, "energy": 5552, "haplo": 5553, "orderby": 5554, "eds": 5555, "indexing": 5556, "cies": 5557, "detection": 5558, "solve": 5559, "bitmap": 5560, "htm": 5561, "xm": 5562, "epoch": 5563, "shi": 5564, "isk": 5565, "fc": 5566, "breaks": 5567, "sessionpolicy": 5568, "reversed": 5569, "probabilities": 5570, "secondary": 5571, "autoscale": 5572, "utive": 5573, "pylint": 5574, "intensity": 5575, "ech": 5576, "divide": 5577, "backward": 5578, "arer": 5579, "a2": 5580, "blk": 5581, "zones": 5582, "vagr": 5583, "vagrant": 5584, "forced": 5585, "unded": 5586, "mfa": 5587, "strf": 5588, "prune": 5589, "filtering": 5590, "aaauser": 5591, "assumes": 5592, "overridden": 5593, "manipul": 5594, "aught": 5595, "blo": 5596, "reci": 5597, "merges": 5598, "annotatef": 5599, "oserror": 5600, "popt": 5601, "subscribers": 5602, "phantom": 5603, "weak": 5604, "gopter": 5605, "rstrip": 5606, "eps": 5607, "metas": 5608, "brand": 5609, "cdaccount": 5610, "z1": 5611, "affili": 5612, "uber": 5613, "indicating": 5614, "confidence": 5615, "strftime": 5616, "repeated": 5617, "administr": 5618, "production": 5619, "d1": 5620, "wf": 5621, "opens": 5622, "issuer": 5623, "hue": 5624, "rgba": 5625, "referrer": 5626, "payer": 5627, "ldml": 5628, "manual": 5629, "ansi": 5630, "hh": 5631, "dimensional": 5632, "shown": 5633, "alized": 5634, "elli": 5635, "particle": 5636, "consec": 5637, "searching": 5638, "realm": 5639, "produces": 5640, "satisfi": 5641, "180": 5642, "periods": 5643, "mismatch": 5644, "ropy": 5645, "concer": 5646, "passes": 5647, "accur": 5648, "identical": 5649, "127": 5650, "anging": 5651, "recommended": 5652, "querystring": 5653, "inder": 5654, "air": 5655, "rebuild": 5656, "arbitrary": 5657, "aware": 5658, "normalizer": 5659, "differences": 5660, "mutate": 5661, "unction": 5662, "enumerable": 5663, "qq": 5664, "party": 5665, "ridge": 5666, "spar": 5667, "lexer": 5668, "ndim": 5669, "applicable": 5670, "migrations": 5671, "consistency": 5672, "doclet": 5673, "communication": 5674, "deprecation": 5675, "moment": 5676, "concurrent": 5677, "pil": 5678, "ni": 5679, "ador": 5680, "fips": 5681, "enumeration": 5682, "closes": 5683, "scipy": 5684, "stick": 5685, "possibly": 5686, "waits": 5687, "urlencode": 5688, "reactor": 5689, "undo": 5690, "breadcrumb": 5691, "m2": 5692, "assembly": 5693, "faster": 5694, "mvc": 5695, "decorate": 5696, "moving": 5697, "i2": 5698, "leaves": 5699, "nabu": 5700, "determined": 5701, "street": 5702, "packets": 5703, "amin": 5704, "rum": 5705, "b64": 5706, "bars": 5707, "lowercase": 5708, "reporter": 5709, "fq": 5710, "hdf5": 5711, "goto": 5712, "submitted": 5713, "cidr": 5714, "sph": 5715, "ensus": 5716, "subscribed": 5717, "persisted": 5718, "prede": 5719, "95": 5720, "proxies": 5721, "stable": 5722, "ipset": 5723, "answ": 5724, "answers": 5725, "tailed": 5726, "fy": 5727, "smtp": 5728, "decim": 5729, "bookmark": 5730, "fork": 5731, "stuff": 5732, "wsdl": 5733, "bst": 5734, "credit": 5735, "edits": 5736, "dhcp": 5737, "money": 5738, "zi": 5739, "acs": 5740, "bookmarks": 5741, "notifier": 5742, "dan": 5743, "predecess": 5744, "frozen": 5745, "mas": 5746, "sized": 5747, "consecutive": 5748, "popover": 5749, "prag": 5750, "appfwprofile": 5751, "isation": 5752, "scales": 5753, "stash": 5754, "unwrap": 5755, "acceptable": 5756, "agger": 5757, "subscriber": 5758, "wlm": 5759, "wide": 5760, "revers": 5761, "corner": 5762, "wav": 5763, "spectrum": 5764, "haml": 5765, "son": 5766, "ents": 5767, "gomock": 5768, "bearer": 5769, "abspath": 5770, "forb": 5771, "excludes": 5772, "vpnclient": 5773, "03": 5774, "labele": 5775, "labeled": 5776, "cycles": 5777, "xi": 5778, "nego": 5779, "mwp": 5780, "deployments": 5781, "modifications": 5782, "realpath": 5783, "subsystem": 5784, "questions": 5785, "award": 5786, "modifies": 5787, "floating": 5788, "followed": 5789, "strop": 5790, "strophe": 5791, "charge": 5792, "xss": 5793, "walker": 5794, "occurred": 5795, "instructions": 5796, "coder": 5797, "nspbr": 5798, "lbmonitor": 5799, "priv": 5800, "value2": 5801, "autocomplete": 5802, "sslcertkey": 5803, "prim": 5804, "dismis": 5805, "transmit": 5806, "l2": 5807, "eli": 5808, "detailed": 5809, "assist": 5810, "maint": 5811, "servicegroupname": 5812, "ote": 5813, "kid": 5814, "mux": 5815, "decimals": 5816, "patial": 5817, "crs": 5818, "chnk": 5819, "blocklist": 5820, "several": 5821, "periodic": 5822, "likeli": 5823, "likelihood": 5824, "cial": 5825, "pragma": 5826, "kers": 5827, "outgoing": 5828, "testing": 5829, "etree": 5830, "physical": 5831, "queryset": 5832, "extname": 5833, "symbolic": 5834, "heading": 5835, "symmetric": 5836, "multiply": 5837, "mol": 5838, "serializable": 5839, "chalk": 5840, "fox": 5841, "subtract": 5842, "hopopt": 5843, "apiclient": 5844, "atives": 5845, "inker": 5846, "logout": 5847, "gist": 5848, "stalk": 5849, "cds": 5850, "slack": 5851, "continuous": 5852, "tv": 5853, "fresh": 5854, "invest": 5855, "currencies": 5856, "delayed": 5857, "invalidate": 5858, "shorth": 5859, "shorthand": 5860, "compares": 5861, "sand": 5862, "ios": 5863, "markers": 5864, "negoti": 5865, "balancer": 5866, "skeleton": 5867, "analyzer": 5868, "had": 5869, "changing": 5870, "kuber": 5871, "kubernet": 5872, "kubernetes": 5873, "asarray": 5874, "umin": 5875, "unbind": 5876, "warm": 5877, "bgp": 5878, "artist": 5879, "denom": 5880, "compressor": 5881, "beanstalk": 5882, "interactive": 5883, "foreignkey": 5884, "seems": 5885, "predictions": 5886, "netmask": 5887, "brokers": 5888, "circuit": 5889, "diam": 5890, "shrinker": 5891, "principals": 5892, "mes": 5893, "keyname": 5894, "izes": 5895, "graphics": 5896, "56": 5897, "firefox": 5898, "clnt": 5899, "operators": 5900, "vary": 5901, "redirects": 5902, "p3": 5903, "nickname": 5904, "maintain": 5905, "startup": 5906, "gender": 5907, "iiif": 5908, "jsx": 5909, "slices": 5910, "weeks": 5911, "raml": 5912, "dog": 5913, "destroyed": 5914, "aaag": 5915, "pes": 5916, "imator": 5917, "10000": 5918, "exif": 5919, "pianoroll": 5920, "auditns": 5921, "auditnslogpolicy": 5922, "nonnull": 5923, "int8": 5924, "p0": 5925, "regenerate": 5926, "largest": 5927, "getenv": 5928, "reducer": 5929, "sorts": 5930, "w3": 5931, "wc": 5932, "concrete": 5933, "matrices": 5934, "storing": 5935, "swagger": 5936, "cyan": 5937, "parens": 5938, "offline": 5939, "cda": 5940, "dynamo": 5941, "snapshots": 5942, "dro": 5943, "visual": 5944, "mul": 5945, "bp": 5946, "fastlane": 5947, "alternate": 5948, "recs": 5949, "goes": 5950, "gered": 5951, "rsp": 5952, "cers": 5953, "wit": 5954, "rp": 5955, "uricomponent": 5956, "mini": 5957, "located": 5958, "poses": 5959, "incorrect": 5960, "ctypes": 5961, "assumed": 5962, "newer": 5963, "removal": 5964, "wfn": 5965, "seo": 5966, "aborted": 5967, "classic": 5968, "prise": 5969, "ticket": 5970, "newly": 5971, "hasher": 5972, "correspond": 5973, "die": 5974, "readonly": 5975, "profil": 5976, "handshake": 5977, "keydown": 5978, "ball": 5979, "edbobject": 5980, "vxlan": 5981, "timedelta": 5982, "fx": 5983, "qa": 5984, "97": 5985, "quota": 5986, "acct": 5987, "initiali": 5988, "uploads": 5989, "ato": 5990, "themes": 5991, "pathinfo": 5992, "specialized": 5993, "gar": 5994, "mediote": 5995, "avro": 5996, "lout": 5997, "dnss": 5998, "vanilla": 5999, "voldem": 6000, "voldemort": 6001, "prebuilt": 6002, "approxim": 6003, "equality": 6004, "archit": 6005, "architect": 6006, "internally": 6007, "chdir": 6008, "a0": 6009, "recognizer": 6010, "literals": 6011, "bn": 6012, "generators": 6013, "99999999": 6014, "hierarchical": 6015, "fastq": 6016, "mgmt": 6017, "backups": 6018, "formatters": 6019, "reorder": 6020, "ons": 6021, "tempfile": 6022, "older": 6023, "joint": 6024, "uv": 6025, "inheritance": 6026, "protect": 6027, "ression": 6028, "transitions": 6029, "mbean": 6030, "rss": 6031, "polar": 6032, "buffers": 6033, "carry": 6034, "gavc": 6035, "activated": 6036, "shif": 6037, "disconnected": 6038, "spatial": 6039, "concern": 6040, "autoload": 6041, "layouts": 6042, "consensus": 6043, "cascade": 6044, "dialect": 6045, "maxresults": 6046, "rnat": 6047, "integers": 6048, "transpose": 6049, "survey": 6050, "criterion": 6051, "inx": 6052, "linjection": 6053, "letters": 6054, "heap": 6055, "compartment": 6056, "wirevector": 6057, "rebalance": 6058, "verified": 6059, "signific": 6060, "vera": 6061, "preced": 6062, "jobject": 6063, "javab": 6064, "javabridge": 6065, "ansion": 6066, "behaviour": 6067, "therefore": 6068, "lessaccess": 6069, "independ": 6070, "triggered": 6071, "enterprise": 6072, "evaluator": 6073, "creds": 6074, "indice": 6075, "reachable": 6076, "verifier": 6077, "prefetch": 6078, "readline": 6079, "denied": 6080, "perf": 6081, "rid": 6082, "relay": 6083, "snake": 6084, "osen": 6085, "subs": 6086, "spam": 6087, "70": 6088, "asynchronous": 6089, "multiplier": 6090, "chip": 6091, "directives": 6092, "caas": 6093, "cash": 6094, "userdata": 6095, "terr": 6096, "phy": 6097, "fired": 6098, "scratch": 6099, "weighted": 6100, "emo": 6101, "locking": 6102, "sometimes": 6103, "gw": 6104, "acls": 6105, "49": 6106, "exceeded": 6107, "connecting": 6108, "diagnostic": 6109, "nesting": 6110, "policyname": 6111, "fileng": 6112, "paginate": 6113, "drain": 6114, "bare": 6115, "sink": 6116, "ember": 6117, "featured": 6118, "backdrop": 6119, "rpm": 6120, "epsil": 6121, "epsilon": 6122, "searchable": 6123, "printed": 6124, "finalize": 6125, "invite": 6126, "isdir": 6127, "bud": 6128, "amico": 6129, "macro": 6130, "express": 6131, "mocks": 6132, "sem": 6133, "gable": 6134, "ances": 6135, "flattened": 6136, "shapes": 6137, "nstr": 6138, "superclass": 6139, "egg": 6140, "domin": 6141, "spin": 6142, "speech": 6143, "shp": 6144, "uca": 6145, "replacing": 6146, "indirection": 6147, "adjusted": 6148, "exe": 6149, "tro": 6150, "twice": 6151, "erlang": 6152, "tiles": 6153, "connectivity": 6154, "fonts": 6155, "wan": 6156, "independent": 6157, "substitute": 6158, "playback": 6159, "canceled": 6160, "pdb": 6161, "chooser": 6162, "confound": 6163, "mlmodel": 6164, "nst": 6165, "configurable": 6166, "classpath": 6167, "objs": 6168, "nstates": 6169, "described": 6170, "tld": 6171, "contracts": 6172, "dbsecurity": 6173, "allocation": 6174, "retention": 6175, "supply": 6176, "medioteca": 6177, "splitext": 6178, "401": 6179, "gues": 6180, "drush": 6181, "fingerprint": 6182, "overview": 6183, "pyrtl": 6184, "kb": 6185, "rede": 6186, "ifiable": 6187, "propel": 6188, "adjacent": 6189, "coding": 6190, "findall": 6191, "retrieving": 6192, "transparent": 6193, "ricao": 6194, "fixme": 6195, "cros": 6196, "roup": 6197, "stud": 6198, "worksheet": 6199, "validations": 6200, "standalone": 6201, "46": 6202, "s0": 6203, "house": 6204, "ja": 6205, "species": 6206, "subnets": 6207, "convolution": 6208, "rounds": 6209, "slop": 6210, "navigator": 6211, "formation": 6212, "vrid": 6213, "natural": 6214, "downloads": 6215, "rw": 6216, "specifications": 6217, "07": 6218, "yyyy": 6219, "caps": 6220, "evaluated": 6221, "potent": 6222, "intercept": 6223, "derivative": 6224, "matur": 6225, "wires": 6226, "op2": 6227, "ados": 6228, "preprocessor": 6229, "x7": 6230, "gather": 6231, "fee": 6232, "auditsys": 6233, "auditsyslogpolicy": 6234, "specifying": 6235, "overload": 6236, "601": 6237, "hydrator": 6238, "cdn": 6239, "b1": 6240, "olds": 6241, "89": 6242, "strand": 6243, "lost": 6244, "resets": 6245, "encodes": 6246, "databases": 6247, "asp": 6248, "duplicated": 6249, "redshift": 6250, "concept": 6251, "erb": 6252, "decorators": 6253, "m1": 6254, "authenticationvserver": 6255, "parameterized": 6256, "nz": 6257, "shipping": 6258, "fft": 6259, "clusterinstance": 6260, "cod": 6261, "scans": 6262, "early": 6263, "precedence": 6264, "converting": 6265, "ya": 6266, "coeffs": 6267, "disposition": 6268, "wanted": 6269, "lr": 6270, "odd": 6271, "captures": 6272, "nstraffic": 6273, "nstrafficdomain": 6274, "detached": 6275, "fluxes": 6276, "waveform": 6277, "route6": 6278, "f2": 6279, "lake": 6280, "ua": 6281, "analyzed": 6282, "heart": 6283, "desktop": 6284, "wg": 6285, "shows": 6286, "sentin": 6287, "qualifier": 6288, "propagate": 6289, "ned": 6290, "arp": 6291, "expiry": 6292, "ascending": 6293, "gslbservice": 6294, "pointers": 6295, "dictionaries": 6296, "collab": 6297, "paragraphs": 6298, "appq": 6299, "derive": 6300, "frac": 6301, "tmpl": 6302, "gettype": 6303, "grpc": 6304, "ciph": 6305, "displays": 6306, "dots": 6307, "microsoft": 6308, "ancy": 6309, "reported": 6310, "arily": 6311, "dispose": 6312, "ptime": 6313, "2006": 6314, "sex": 6315, "paging": 6316, "syslog": 6317, "wrapping": 6318, "peo": 6319, "people": 6320, "forwarding": 6321, "snippet": 6322, "fis": 6323, "cni": 6324, "plur": 6325, "allowlist": 6326, "scrol": 6327, "sensor": 6328, "genotype": 6329, "86": 6330, "dex": 6331, "upsert": 6332, "fieldname": 6333, "chosen": 6334, "wares": 6335, "wy": 6336, "plotlib": 6337, "grace": 6338, "eu": 6339, "xw": 6340, "aligned": 6341, "populated": 6342, "sqr": 6343, "xl": 6344, "chimp": 6345, "consumers": 6346, "kwic": 6347, "f0": 6348, "probe": 6349, "cop": 6350, "environs": 6351, "becomes": 6352, "bub": 6353, "applying": 6354, "matplotlib": 6355, "overlaps": 6356, "mile": 6357, "zzle": 6358, "macaro": 6359, "rtrim": 6360, "umbs": 6361, "47": 6362, "validating": 6363, "contextual": 6364, "apache": 6365, "rounding": 6366, "cmap": 6367, "opcode": 6368, "aliased": 6369, "purpose": 6370, "idim": 6371, "descricao": 6372, "instantiation": 6373, "dying": 6374, "v0": 6375, "banner": 6376, "accounting": 6377, "elevation": 6378, "ivar": 6379, "wildcards": 6380, "unescape": 6381, "reversible": 6382, "shield": 6383, "ioutil": 6384, "plen": 6385, "hq": 6386, "ecc": 6387, "forbidden": 6388, "infl": 6389, "abbre": 6390, "foot": 6391, "hd": 6392, "assigns": 6393, "combinations": 6394, "engines": 6395, "guar": 6396, "ymin": 6397, "jsonresponse": 6398, "irc": 6399, "fills": 6400, "initiated": 6401, "icons": 6402, "i1": 6403, "an2": 6404, "rights": 6405, "ners": 6406, "inp": 6407, "jpa": 6408, "metrict": 6409, "metrictable": 6410, "nod": 6411, "enhan": 6412, "remainder": 6413, "vcf": 6414, "identific": 6415, "enclosing": 6416, "ante": 6417, "nss": 6418, "accent": 6419, "ntp": 6420, "8601": 6421, "jsonarray": 6422, "contribut": 6423, "vpnclientlessaccess": 6424, "nolint": 6425, "lut": 6426, "waiter": 6427, "exporter": 6428, "lxd": 6429, "jct": 6430, "requis": 6431, "ambiguous": 6432, "revisions": 6433, "pairwise": 6434, "sandbox": 6435, "unzip": 6436, "cachepolicy": 6437, "coer": 6438, "nvgraph": 6439, "expl": 6440, "players": 6441, "structured": 6442, "asyncio": 6443, "pct": 6444, "tel": 6445, "angles": 6446, "cdt": 6447, "rip": 6448, "genome": 6449, "permitted": 6450, "inactive": 6451, "factors": 6452, "courses": 6453, "lm": 6454, "hqmf": 6455, "lua": 6456, "intran": 6457, "index1": 6458, "ucfirst": 6459, "strtoupper": 6460, "augment": 6461, "xmin": 6462, "disp": 6463, "corrupt": 6464, "prepares": 6465, "follows": 6466, "middlewares": 6467, "corbel": 6468, "narrow": 6469, "website": 6470, "primer": 6471, "smarti": 6472, "smartirc": 6473, "capability": 6474, "ofnet": 6475, "lac": 6476, "decrement": 6477, "ipv6prefix": 6478, "imagin": 6479, "qr": 6480, "manifold": 6481, "42": 6482, "incremental": 6483, "solid": 6484, "internet": 6485, "clears": 6486, "tone": 6487, "f1": 6488, "shuff": 6489, "tgt": 6490, "stars": 6491, "coral": 6492, "demand": 6493, "cv2": 6494, "ffi": 6495, "procedures": 6496, "seller": 6497, "taxonomy": 6498, "systemglobal": 6499, "drives": 6500, "treated": 6501, "kr": 6502, "subdom": 6503, "chunked": 6504, "uted": 6505, "facets": 6506, "naming": 6507, "verifies": 6508, "firebase": 6509, "cmds": 6510, "ague": 6511, "produced": 6512, "zh": 6513, "uwsgi": 6514, "leader": 6515, "iam": 6516, "alleles": 6517, "postfix": 6518, "granted": 6519, "destport": 6520, "thop": 6521, "plans": 6522, "masks": 6523, "road": 6524, "ulary": 6525, "edition": 6526, "bloco": 6527, "boundaries": 6528, "suggestions": 6529, "semicolon": 6530, "alerts": 6531, "impro": 6532, "exposed": 6533, "diagnostics": 6534, "2000": 6535, "forget": 6536, "jpg": 6537, "truncated": 6538, "aster": 6539, "shallow": 6540, "gpu": 6541, "servic": 6542, "tried": 6543, "subclasses": 6544, "assuming": 6545, "awserr": 6546, "gif": 6547, "ameter": 6548, "disableresources": 6549, "datastore": 6550, "bias": 6551, "fullpath": 6552, "nexthop": 6553, "thrott": 6554, "hsl": 6555, "stealer": 6556, "inds": 6557, "phpcs": 6558, "postcode": 6559, "elife": 6560, "identificador": 6561, "minimal": 6562, "readdir": 6563, "h1": 6564, "heartbeat": 6565, "jrdesign": 6566, "assistant": 6567, "08": 6568, "informed": 6569, "printer": 6570, "infinite": 6571, "vb": 6572, "wkt": 6573, "vk": 6574, "zoo": 6575, "aggregated": 6576, "decrease": 6577, "platforms": 6578, "ota": 6579, "dnszone": 6580, "vocabulary": 6581, "evene": 6582, "aff": 6583, "overtime": 6584, "rtn": 6585, "associative": 6586, "dings": 6587, "blocksize": 6588, "renamed": 6589, "o1": 6590, "hosted": 6591, "filesize": 6592, "decide": 6593, "succeeded": 6594, "grp": 6595, "aege": 6596, "aegean": 6597, "urne": 6598, "rates": 6599, "camelize": 6600, "undef": 6601, "classify": 6602, "los": 6603, "mcs": 6604, "omega": 6605, "rio": 6606, "bered": 6607, "cumul": 6608, "basis": 6609, "ye": 6610, "become": 6611, "199": 6612, "shouldn": 6613, "hands": 6614, "k1": 6615, "ora": 6616, "league": 6617, "thead": 6618, "tics": 6619, "dbinstances": 6620, "squares": 6621, "constructed": 6622, "deepcopy": 6623, "presenter": 6624, "staging": 6625, "201": 6626, "voxel": 6627, "chef": 6628, "elt": 6629, "keyspace": 6630, "pipes": 6631, "prece": 6632, "rna": 6633, "few": 6634, "xmax": 6635, "ymax": 6636, "curly": 6637, "isolation": 6638, "snow": 6639, "1000000": 6640, "polynom": 6641, "125": 6642, "forever": 6643, "servicename": 6644, "buy": 6645, "perman": 6646, "permanent": 6647, "requester": 6648, "iri": 6649, "sounds": 6650, "jas": 6651, "bait": 6652, "rts": 6653, "emails": 6654, "constrain": 6655, "glyph": 6656, "renew": 6657, "toast": 6658, "overl": 6659, "zmq": 6660, "tin": 6661, "celer": 6662, "eta": 6663, "company": 6664, "occup": 6665, "symlink": 6666, "overwritten": 6667, "cacertific": 6668, "capitalize": 6669, "monitoring": 6670, "anode": 6671, "trip": 6672, "tabb": 6673, "plevel": 6674, "exon": 6675, "trg": 6676, "lacon": 6677, "laconic": 6678, "subgal": 6679, "ban": 6680, "brid": 6681, "carri": 6682, "similarity": 6683, "arding": 6684, "emul": 6685, "semantic": 6686, "restricted": 6687, "fuzz": 6688, "dnspolicy": 6689, "agents": 6690, "drawing": 6691, "aaagroup": 6692, "iser": 6693, "polynomial": 6694, "clauses": 6695, "xdo": 6696, "errback": 6697, "threat": 6698, "descending": 6699, "stride": 6700, "chains": 6701, "votes": 6702, "anchors": 6703, "descendant": 6704, "stab": 6705, "blast": 6706, "planned": 6707, "surn": 6708, "kma": 6709, "uren": 6710, "modifiable": 6711, "offi": 6712, "crawler": 6713, "pout": 6714, "bypass": 6715, "shuffle": 6716, "hashed": 6717, "aneous": 6718, "malformed": 6719, "sentinel": 6720, "65": 6721, "selves": 6722, "fm": 6723, "submodule": 6724, "xxxx": 6725, "upstream": 6726, "chk": 6727, "phar": 6728, "maven": 6729, "robots": 6730, "eigen": 6731, "surname": 6732, "lnk": 6733, "overlapping": 6734, "thelia": 6735, "ising": 6736, "zy": 6737, "techn": 6738, "stackoverflow": 6739, "pure": 6740, "activities": 6741, "ues": 6742, "benchmark": 6743, "expansion": 6744, "appended": 6745, "rpos": 6746, "gm": 6747, "nba": 6748, "structures": 6749, "taking": 6750, "2013": 6751, "rounded": 6752, "swe": 6753, "treebank": 6754, "frontend": 6755, "responderpolicy": 6756, "functionality": 6757, "urllib": 6758, "webkit": 6759, "dac": 6760, "noun": 6761, "separators": 6762, "signer": 6763, "hoist": 6764, "latency": 6765, "staged": 6766, "maturity": 6767, "recipients": 6768, "oplus": 6769, "nslimitidentifier": 6770, "variation": 6771, "irs": 6772, "ran": 6773, "iday": 6774, "ciphers": 6775, "asing": 6776, "dv": 6777, "homo": 6778, "ctl": 6779, "divid": 6780, "mutations": 6781, "srcport": 6782, "spi": 6783, "xbin": 6784, "360": 6785, "manial": 6786, "manialink": 6787, "ago": 6788, "3333": 6789, "downloading": 6790, "reqs": 6791, "xmlns": 6792, "qpi": 6793, "plaint": 6794, "esc": 6795, "recognize": 6796, "spotify": 6797, "causes": 6798, "aps": 6799, "htt": 6800, "coefficients": 6801, "mastercfg": 6802, "automatic": 6803, "jasper": 6804, "analyses": 6805, "overall": 6806, "gslbsite": 6807, "colspan": 6808, "timeouts": 6809, "sphinx": 6810, "monitorname": 6811, "ols": 6812, "hasn": 6813, "nonzero": 6814, "popen": 6815, "evi": 6816, "key2": 6817, "nsip6": 6818, "mailer": 6819, "regression": 6820, "wheres": 6821, "tely": 6822, "plaintext": 6823, "ile": 6824, "cloned": 6825, "describes": 6826, "chmod": 6827, "kept": 6828, "outline": 6829, "macaroon": 6830, "recaptcha": 6831, "knot": 6832, "characteristic": 6833, "adapters": 6834, "istan": 6835, "istanbul": 6836, "loqu": 6837, "campa": 6838, "campaign": 6839, "z2": 6840, "flavor": 6841, "opener": 6842, "videos": 6843, "owners": 6844, "utorial": 6845, "segmentation": 6846, "xt": 6847, "tnet": 6848, "noinspection": 6849, "c0": 6850, "exts": 6851, "colorize": 6852, "fluent": 6853, "statistic": 6854, "keeping": 6855, "normally": 6856, "ering": 6857, "motion": 6858, "graphs": 6859, "dark": 6860, "int16": 6861, "sortable": 6862, "optimization": 6863, "concurrency": 6864, "payloads": 6865, "allocated": 6866, "ational": 6867, "orb": 6868, "rval": 6869, "sku": 6870, "tempo": 6871, "wur": 6872, "alchem": 6873, "alchemy": 6874, "breaker": 6875, "ont": 6876, "certs": 6877, "joins": 6878, "izable": 6879, "operating": 6880, "multiline": 6881, "hib": 6882, "sslcrl": 6883, "toolbar": 6884, "declaring": 6885, "decidim": 6886, "construction": 6887, "dotted": 6888, "lk": 6889, "titles": 6890, "grep": 6891, "loquent": 6892, "netprofile": 6893, "directions": 6894, "delimited": 6895, "danger": 6896, "conjunction": 6897, "infohash": 6898, "72": 6899, "trav": 6900, "obsole": 6901, "sharing": 6902, "00000000": 6903, "reln": 6904, "interim": 6905, "postings": 6906, "tutorial": 6907, "risk": 6908, "volat": 6909, "aaaaaaaa": 6910, "l3": 6911, "codepoint": 6912, "cobra": 6913, "lp": 6914, "screenshot": 6915, "09": 6916, "migrate": 6917, "itution": 6918, "overrid": 6919, "pif": 6920, "gv": 6921, "topo": 6922, "lix": 6923, "browse": 6924, "lease": 6925, "perobs": 6926, "noop": 6927, "consumed": 6928, "timers": 6929, "rotated": 6930, "incident": 6931, "ipher": 6932, "photoset": 6933, "omp": 6934, "elementslib": 6935, "workaround": 6936, "popper": 6937, "indirect": 6938, "unmodifiable": 6939, "copying": 6940, "uintptr": 6941, "sidebar": 6942, "binder": 6943, "extern": 6944, "fout": 6945, "performing": 6946, "keyed": 6947, "receives": 6948, "corpor": 6949, "bor": 6950, "fitted": 6951, "vent": 6952, "privi": 6953, "nameserver": 6954, "eth": 6955, "jsh": 6956, "vcard": 6957, "pubsub": 6958, "cfgs": 6959, "uffix": 6960, "eloquent": 6961, "functional": 6962, "cgi": 6963, "describing": 6964, "pric": 6965, "obsolete": 6966, "enableresources": 6967, "lv": 6968, "imaginary": 6969, "subdir": 6970, "tdc": 6971, "appqoe": 6972, "matic": 6973, "errorcode": 6974, "intended": 6975, "synthetic": 6976, "midi": 6977, "uel": 6978, "accessed": 6979, "slider": 6980, "ip6": 6981, "k8": 6982, "hang": 6983, "bower": 6984, "mxmap": 6985, "diameter": 6986, "amd": 6987, "grand": 6988, "arec": 6989, "xrange": 6990, "pkt": 6991, "convers": 6992, "nucleotides": 6993, "fetcher": 6994, "affiliation": 6995, "occuren": 6996, "x80": 6997, "fopen": 6998, "fclose": 6999, "metabolite": 7000, "spil": 7001, "spillover": 7002, "hover": 7003, "pkey": 7004, "4j": 7005, "identities": 7006, "editing": 7007, "diagram": 7008, "ately": 7009, "proce": 7010, "ital": 7011, "sslvserver": 7012, "aclname": 7013, "experiment": 7014, "jshint": 7015, "beh": 7016, "silently": 7017, "doctype": 7018, "unsubscribe": 7019, "packed": 7020, "fixing": 7021, "constructors": 7022, "dsl": 7023, "howler": 7024, "linspace": 7025, "unchanged": 7026, "diagonal": 7027, "stationary": 7028, "inverted": 7029, "exclusion": 7030, "installment": 7031, "sze": 7032, "constanti": 7033, "symfon": 7034, "discri": 7035, "vtx": 7036, "dnsaction": 7037, "analog": 7038, "bitwidth": 7039, "scrollbar": 7040, "point2d": 7041, "mgr": 7042, "night": 7043, "covered": 7044, "turns": 7045, "ked": 7046, "etcd": 7047, "funding": 7048, "institution": 7049, "connects": 7050, "consul": 7051, "market": 7052, "onerror": 7053, "sockets": 7054, "grap": 7055, "misc": 7056, "importer": 7057, "sslcipher": 7058, "phas": 7059, "maxlen": 7060, "dto": 7061, "tur": 7062, "recall": 7063, "illumin": 7064, "crosstab": 7065, "neighbour": 7066, "structs": 7067, "uml": 7068, "v2logging": 7069, "index2": 7070, "xref": 7071, "locall": 7072, "injected": 7073, "directed": 7074, "bid": 7075, "vhost": 7076, "ipv6address": 7077, "resolving": 7078, "caught": 7079, "splitter": 7080, "privile": 7081, "remedi": 7082, "meters": 7083, "rough": 7084, "tmpdir": 7085, "vable": 7086, "sbjct": 7087, "forma": 7088, "formato": 7089, "apple": 7090, "pron": 7091, "promotion": 7092, "rr": 7093, "shipment": 7094, "outfilename": 7095, "xlink": 7096, "requesting": 7097, "cumulative": 7098, "nbsp": 7099, "tells": 7100, "sors": 7101, "ascent": 7102, "guarante": 7103, "clamp": 7104, "stra": 7105, "iface": 7106, "typo": 7107, "existence": 7108, "yn": 7109, "smarty": 7110, "linter": 7111, "linalg": 7112, "stm": 7113, "stu": 7114, "symfony": 7115, "pv": 7116, "fb": 7117, "tbl": 7118, "gens": 7119, "poller": 7120, "accuracy": 7121, "newlines": 7122, "storm": 7123, "cleared": 7124, "improper": 7125, "dsn": 7126, "itoa": 7127, "showing": 7128, "trade": 7129, "destruct": 7130, "mro": 7131, "reserve": 7132, "prompts": 7133, "expose": 7134, "parenthesis": 7135, "cmppolicy": 7136, "north": 7137, "enhancer": 7138, "nie": 7139, "acle": 7140, "pbkey": 7141, "enhanced": 7142, "apath": 7143, "established": 7144, "icmp": 7145, "v20": 7146, "padded": 7147, "strtotime": 7148, "wants": 7149, "uppercase": 7150, "plots": 7151, "delimit": 7152, "corresponds": 7153, "escap": 7154, "chord": 7155, "actors": 7156, "configures": 7157, "homepage": 7158, "hexa": 7159, "clid": 7160, "t0": 7161, "voice": 7162, "observers": 7163, "presentation": 7164, "latin": 7165, "lelement": 7166, "3600": 7167, "wurfl": 7168, "verts": 7169, "adresses": 7170, "explanations": 7171, "axioms": 7172, "alization": 7173, "serializes": 7174, "placed": 7175, "rolling": 7176, "bf": 7177, "1d": 7178, "terminated": 7179, "06": 7180, "deny": 7181, "sess": 7182, "significant": 7183, "l1": 7184, "appears": 7185, "organizations": 7186, "dynamically": 7187, "interpreted": 7188, "schemes": 7189, "semantics": 7190, "printing": 7191, "crud": 7192, "twitter": 7193, "adverti": 7194, "constantize": 7195, "listdir": 7196, "kcdaccount": 7197, "adb": 7198, "svn": 7199, "participants": 7200, "infile": 7201, "enumerator": 7202, "ich": 7203, "shel": 7204, "tabindex": 7205, "predecessor": 7206, "tiny": 7207, "oracle": 7208, "enables": 7209, "ligand": 7210, "simplify": 7211, "pkcs": 7212, "ised": 7213, "fires": 7214, "strrpos": 7215, "tbody": 7216, "secs": 7217, "whate": 7218, "whatever": 7219, "nssimple": 7220, "dropped": 7221, "hasht": 7222, "codecs": 7223, "publishing": 7224, "octet": 7225, "rek": 7226, "nside": 7227, "hexadecimal": 7228, "pobs": 7229, "chine": 7230, "chinese": 7231, "openssl": 7232, "debugger": 7233, "tn": 7234, "synced": 7235, "appfwpolicy": 7236, "dpt": 7237, "ah": 7238, "alphas": 7239, "predicates": 7240, "mpeg": 7241, "truth": 7242, "pysv": 7243, "learn": 7244, "upcase": 7245, "vowel": 7246, "evaluates": 7247, "imer": 7248, "xception": 7249, "wasn": 7250, "readme": 7251, "shutil": 7252, "hij": 7253, "k8s": 7254, "regard": 7255, "gul": 7256, "painter": 7257, "xdoclet": 7258, "localization": 7259, "pathlib": 7260, "hf": 7261, "mgo": 7262, "weet": 7263, "acl6name": 7264, "movie": 7265, "esian": 7266, "holding": 7267, "stages": 7268, "indented": 7269, "swipe": 7270, "conversation": 7271, "drawable": 7272, "ecs": 7273, "toplevel": 7274, "cmy": 7275, "jsd": 7276, "chomp": 7277, "ored": 7278, "locally": 7279, "protocols": 7280, "prote": 7281, "cdf": 7282, "namespaced": 7283, "ming": 7284, "tracef": 7285, "obj2": 7286, "idem": 7287, "forge": 7288, "eper": 7289, "bourne": 7290, "fade": 7291, "53": 7292, "discrimin": 7293, "nml": 7294, "base58": 7295, "translatable": 7296, "6666": 7297, "decoding": 7298, "adjacency": 7299, "refe": 7300, "intranet": 7301, "intranetapplication": 7302, "donor": 7303, "lbwlm": 7304, "sslfips": 7305, "gant": 7306, "cleaning": 7307, "providing": 7308, "unmatched": 7309, "receipt": 7310, "predefined": 7311, "fv": 7312, "transformpolicy": 7313, "proceed": 7314, "cpecomponent": 7315, "dpo": 7316, "ialization": 7317, "gradebook": 7318, "approved": 7319, "harvest": 7320, "gulp": 7321, "wm": 7322, "sbmodel": 7323, "octets": 7324, "uite": 7325, "liers": 7326, "hexdigest": 7327, "boxed": 7328, "crumbs": 7329, "98": 7330, "standar": 7331, "nsacl6": 7332, "bandwidth": 7333, "recorded": 7334, "colours": 7335, "qpart": 7336, "multiprocessing": 7337, "melbourne": 7338, "pricing": 7339, "lizer": 7340, "suspend": 7341, "ox": 7342, "presets": 7343, "entail": 7344, "ctn": 7345, "sitename": 7346, "segs": 7347, "numbered": 7348, "ledge": 7349, "izers": 7350, "incompatible": 7351, "obtains": 7352, "estimated": 7353, "rewind": 7354, "arg1": 7355, "bur": 7356, "conson": 7357, "threading": 7358, "nano": 7359, "smoo": 7360, "thresholds": 7361, "authn": 7362, "contrast": 7363, "diffs": 7364, "fps": 7365, "sentry": 7366, "standardi": 7367, "vpnurl": 7368, "rekord": 7369, "idxs": 7370, "interactions": 7371, "authenticator": 7372, "mnx": 7373, "gdata": 7374, "tech": 7375, "403": 7376, "pmd": 7377, "eras": 7378, "keystore": 7379, "complement": 7380, "menus": 7381, "datapoint": 7382, "accessors": 7383, "grants": 7384, "chromo": 7385, "chromosome": 7386, "amplitude": 7387, "fuzzy": 7388, "hid": 7389, "ham": 7390, "k2": 7391, "odb": 7392, "completely": 7393, "corrupted": 7394, "runlock": 7395, "sslservicegroup": 7396, "soon": 7397, "validf": 7398, "ivars": 7399, "drup": 7400, "drupal": 7401, "pai": 7402, "remediation": 7403, "systemgroup": 7404, "unrecognized": 7405, "interceptors": 7406, "portop": 7407, "pal": 7408, "tus": 7409, "onlink": 7410, "operands": 7411, "usb": 7412, "wes": 7413, "mz": 7414, "mixins": 7415, "asm": 7416, "comparer": 7417, "quantum": 7418, "movement": 7419, "evenement": 7420, "lattice": 7421, "rgs": 7422, "abbrevi": 7423, "lsx": 7424, "hay": 7425, "r0": 7426, "uals": 7427, "weka": 7428, "lip": 7429, "expecting": 7430, "redirection": 7431, "dail": 7432, "daily": 7433, "sufficient": 7434, "sqli": 7435, "zipfile": 7436, "prepar": 7437, "opaque": 7438, "imap": 7439, "rlock": 7440, "63": 7441, "sslciphers": 7442, "sslciphersuite": 7443, "bonds": 7444, "zing": 7445, "enrich": 7446, "invitation": 7447, "okhttp": 7448, "pluck": 7449, "drawer": 7450, "escaping": 7451, "argparse": 7452, "xsd": 7453, "okay": 7454, "fight": 7455, "nexus": 7456, "snm": 7457, "logo": 7458, "volatility": 7459, "tobj": 7460, "decodes": 7461, "zlib": 7462, "viz": 7463, "gantt": 7464, "changeset": 7465, "artifactory": 7466, "imgur": 7467, "192": 7468, "jax": 7469, "easily": 7470, "reduction": 7471, "succeed": 7472, "sslpolicy": 7473, "loopable": 7474, "contributors": 7475, "mounted": 7476, "tan": 7477, "recognition": 7478, "tif": 7479, "folded": 7480, "1234": 7481, "introspection": 7482, "restrictions": 7483, "2014": 7484, "squareup": 7485, "mentions": 7486, "cdata": 7487, "haven": 7488, "blockchain": 7489, "exceeds": 7490, "oboe": 7491, "postal": 7492, "sted": 7493, "spo": 7494, "groupby": 7495, "steal": 7496, "entropy": 7497, "shards": 7498, "zers": 7499, "tol": 7500, "sector": 7501, "fobj": 7502, "badge": 7503, "srs": 7504, "dirpath": 7505, "probs": 7506, "entailment": 7507, "importing": 7508, "op1": 7509, "xval": 7510, "weaponlike": 7511, "varchar": 7512, "invocations": 7513, "accumulator": 7514, "nodoc": 7515, "sanitized": 7516, "o2": 7517, "mysqli": 7518, "nes": 7519, "safely": 7520, "responsive": 7521, "metabo": 7522, "director": 7523, "introspect": 7524, "touched": 7525, "cacertificate": 7526, "heat": 7527, "feeds": 7528, "multic": 7529, "whenever": 7530, "opcodes": 7531, "authenticationradius": 7532, "uuids": 7533, "east": 7534, "biom": 7535, "biomass": 7536, "codons": 7537, "rtsp": 7538, "customizing": 7539, "jsoncontenttype": 7540, "ndb": 7541, "songs": 7542, "ico": 7543, "redund": 7544, "sal": 7545, "84": 7546, "vow": 7547, "maked": 7548, "ideal": 7549, "discrete": 7550, "i18ns": 7551, "nd6": 7552, "synchronously": 7553, "sci": 7554, "pedia": 7555, "recommend": 7556, "cult": 7557, "metabolic": 7558, "decrypted": 7559, "p4": 7560, "qname": 7561, "pushed": 7562, "disks": 7563, "ensemb": 7564, "msgid": 7565, "recently": 7566, "prot": 7567, "navigate": 7568, "msr": 7569, "79": 7570, "traces": 7571, "dumped": 7572, "sqlalchemy": 7573, "rng": 7574, "empt": 7575, "fixture": 7576, "credits": 7577, "cta": 7578, "travers": 7579, "lid": 7580, "sales": 7581, "contribution": 7582, "kinet": 7583, "82": 7584, "funcinfo": 7585, "69": 7586, "upgrad": 7587, "123": 7588, "microtime": 7589, "collision": 7590, "apirequest": 7591, "seper": 7592, "meshes": 7593, "chance": 7594, "imshow": 7595, "bitfield": 7596, "puid": 7597, "appointments": 7598, "promote": 7599, "eto": 7600, "3000": 7601, "trash": 7602, "gravity": 7603, "scho": 7604, "begins": 7605, "clob": 7606, "httperror": 7607, "cname": 7608, "oldest": 7609, "clog": 7610, "fixtures": 7611, "dg": 7612, "hdulist": 7613, "quar": 7614, "referer": 7615, "ipsec": 7616, "constit": 7617, "attendee": 7618, "tregex": 7619, "hmat": 7620, "accel": 7621, "lstrip": 7622, "easier": 7623, "transmitter": 7624, "lbl": 7625, "001": 7626, "docstring": 7627, "bing": 7628, "submodules": 7629, "eky": 7630, "inserting": 7631, "mbl": 7632, "semver": 7633, "his": 7634, "synsets": 7635, "cub": 7636, "pypy": 7637, "gob": 7638, "minimize": 7639, "libo": 7640, "libovs": 7641, "libovsdb": 7642, "sti": 7643, "tabbable": 7644, "zon": 7645, "visu": 7646, "holiday": 7647, "implementor": 7648, "interp": 7649, "clipped": 7650, "mousedown": 7651, "ious": 7652, "anyway": 7653, "rewritepolicy": 7654, "kinetic": 7655, "disables": 7656, "rubo": 7657, "architecture": 7658, "vowels": 7659, "standing": 7660, "ltrim": 7661, "instantiated": 7662, "citation": 7663, "ipopo": 7664, "til": 7665, "trix": 7666, "rl": 7667, "measurements": 7668, "investig": 7669, "exiting": 7670, "encies": 7671, "ripple": 7672, "facts": 7673, "tolist": 7674, "jvm": 7675, "hanode": 7676, "srid": 7677, "unloaded": 7678, "captured": 7679, "bear": 7680, "unnel": 7681, "invol": 7682, "passwd": 7683, "tmsessionpolicy": 7684, "numeral": 7685, "jeky": 7686, "jekyll": 7687, "rdn": 7688, "wound": 7689, "normals": 7690, "apt": 7691, "spark": 7692, "gettext": 7693, "haplotype": 7694, "bw": 7695, "predicted": 7696, "fre": 7697, "neither": 7698, "foundation": 7699, "decoration": 7700, "zhu": 7701, "dialogs": 7702, "paired": 7703, "iap": 7704, "kins": 7705, "orthog": 7706, "oelib": 7707, "ond": 7708, "owned": 7709, "cancell": 7710, "recording": 7711, "dated": 7712, "blend": 7713, "spaceship": 7714, "crypt": 7715, "rings": 7716, "filterpolicy": 7717, "thin": 7718, "revs": 7719, "eric": 7720, "plug": 7721, "rive": 7722, "obj1": 7723, "checkpoint": 7724, "enroll": 7725, "fstate": 7726, "scroller": 7727, "regarding": 7728, "bands": 7729, "unnecessary": 7730, "purposes": 7731, "builders": 7732, "boldgrid": 7733, "dnsview": 7734, "mrof": 7735, "acknow": 7736, "synchronization": 7737, "dbus": 7738, "blacklist": 7739, "proportion": 7740, "rote": 7741, "keeper": 7742, "trire": 7743, "trireme": 7744, "newest": 7745, "ciphertext": 7746, "nodeid": 7747, "naive": 7748, "mention": 7749, "graded": 7750, "zonename": 7751, "las": 7752, "dct": 7753, "fan": 7754, "maxim": 7755, "expn": 7756, "adapted": 7757, "accessory": 7758, "pks": 7759, "vpnsessionpolicy": 7760, "bail": 7761, "profiler": 7762, "decompress": 7763, "wikipedia": 7764, "student": 7765, "numerical": 7766, "mojo": 7767, "activations": 7768, "unserialize": 7769, "converters": 7770, "ljava": 7771, "gor": 7772, "lian": 7773, "getcwd": 7774, "remotes": 7775, "lru": 7776, "dnssuffix": 7777, "bridgegroup": 7778, "posted": 7779, "pickle": 7780, "stp": 7781, "assemble": 7782, "instant": 7783, "typecode": 7784, "dean": 7785, "essent": 7786, "aggregations": 7787, "replies": 7788, "iptunnel": 7789, "doct": 7790, "gce": 7791, "forwarder": 7792, "oli": 7793, "libor": 7794, "guini": 7795, "guinier": 7796, "among": 7797, "substitutions": 7798, "snif": 7799, "nodename": 7800, "2012": 7801, "dome": 7802, "comparable": 7803, "win32": 7804, "panels": 7805, "usr": 7806, "excluding": 7807, "oh": 7808, "deprecate": 7809, "typically": 7810, "sanity": 7811, "satisfy": 7812, "sib": 7813, "cum": 7814, "arel": 7815, "passwords": 7816, "dbparameter": 7817, "cg": 7818, "abi": 7819, "acting": 7820, "requisi": 7821, "tracer": 7822, "ddr": 7823, "couch": 7824, "vnode": 7825, "crash": 7826, "genesip": 7827, "1111": 7828, "emer": 7829, "zf": 7830, "pnky": 7831, "ustom": 7832, "descr": 7833, "aci": 7834, "agen": 7835, "estimator": 7836, "seque": 7837, "leaders": 7838, "balancing": 7839, "postg": 7840, "overcommit": 7841, "voting": 7842, "approach": 7843, "elect": 7844, "centered": 7845, "apost": 7846, "datapoints": 7847, "km": 7848, "eager": 7849, "id2": 7850, "responsible": 7851, "ret0": 7852, "embedding": 7853, "ctime": 7854, "metries": 7855, "invokes": 7856, "stone": 7857, "wbs": 7858, "orthogonal": 7859, "chaining": 7860, "detects": 7861, "generally": 7862, "notifies": 7863, "sax": 7864, "pypyr": 7865, "srcip": 7866, "totals": 7867, "descendants": 7868, "algorithms": 7869, "pronac": 7870, "optimized": 7871, "onlinkipv6prefix": 7872, "skus": 7873, "forwarded": 7874, "genesippr": 7875, "ene": 7876, "sorter": 7877, "ana": 7878, "uk": 7879, "sqs": 7880, "ength": 7881, "prs": 7882, "lvl": 7883, "slope": 7884, "fullname": 7885, "osm": 7886, "rollup": 7887, "faker": 7888, "abt": 7889, "leap": 7890, "bewit": 7891, "appflowpolicy": 7892, "fav": 7893, "falha": 7894, "watched": 7895, "foreground": 7896, "tty": 7897, "obtained": 7898, "rubocop": 7899, "bkg": 7900, "maxiter": 7901, "subnode": 7902, "archives": 7903, "sums": 7904, "jsp": 7905, "regardless": 7906, "bust": 7907, "wood": 7908, "mozilla": 7909, "packaging": 7910, "vector3": 7911, "initialise": 7912, "iapws": 7913, "urlparse": 7914, "syl": 7915, "outbounds": 7916, "pra": 7917, "dsa": 7918, "lename": 7919, "bump": 7920, "grain": 7921, "decomposition": 7922, "hai": 7923, "taint": 7924, "keeps": 7925, "potentially": 7926, "assess": 7927, "bm": 7928, "sdkexception": 7929, "haplotypes": 7930, "noko": 7931, "nokogi": 7932, "nokogiri": 7933, "procs": 7934, "ipython": 7935, "auxili": 7936, "occurences": 7937, "dit": 7938, "bea": 7939, "initializing": 7940, "clipping": 7941, "postgres": 7942, "populates": 7943, "httpserver": 7944, "makedirs": 7945, "floats": 7946, "plate": 7947, "gslbvserver": 7948, "discovered": 7949, "satisfied": 7950, "wake": 7951, "acts": 7952, "log10": 7953, "zepi": 7954, "behaviors": 7955, "launcher": 7956, "adder": 7957, "teams": 7958, "oids": 7959, "rise": 7960, "gvrscene": 7961, "ads": 7962, "negate": 7963, "nid": 7964, "isogeo": 7965, "alternatives": 7966, "xarray": 7967, "nspbr6": 7968, "nomin": 7969, "analytical": 7970, "unmodified": 7971, "voxels": 7972, "quoting": 7973, "remap": 7974, "57": 7975, "concent": 7976, "absent": 7977, "fns": 7978, "arith": 7979, "proof": 7980, "aser": 7981, "participant": 7982, "formaction": 7983, "orical": 7984, "ctools": 7985, "accordingly": 7986, "reasons": 7987, "favi": 7988, "inval": 7989, "multiplex": 7990, "materialized": 7991, "servername": 7992, "reli": 7993, "pipe2": 7994, "pipe2py": 7995, "relational": 7996, "charts": 7997, "odmg": 7998, "computer": 7999, "quat": 8000, "attaches": 8001, "callers": 8002, "dnsnameserver": 8003, "oo": 8004, "opposite": 8005, "adaptor": 8006, "inat": 8007, "twisted": 8008, "cartesian": 8009, "corporate": 8010, "bd": 8011, "itertools": 8012, "patching": 8013, "bids": 8014, "cnx": 8015, "contributor": 8016, "vin": 8017, "nrl": 8018, "arma": 8019, "cwl": 8020, "growth": 8021, "post2": 8022, "dblog": 8023, "cj": 8024, "vmax": 8025, "toks": 8026, "keypress": 8027, "millisecond": 8028, "optimal": 8029, "abling": 8030, "spilloverpolicy": 8031, "2016": 8032, "improve": 8033, "logfile": 8034, "templating": 8035, "rake": 8036, "inferred": 8037, "scattering": 8038, "coded": 8039, "omitted": 8040, "bcc": 8041, "sticky": 8042, "snowball": 8043, "trixion": 8044, "trixionary": 8045, "resultset": 8046, "comparing": 8047, "browsing": 8048, "excel": 8049, "fwrite": 8050, "quater": 8051, "quatern": 8052, "incl": 8053, "ati": 8054, "bez": 8055, "splitting": 8056, "bdf": 8057, "errit": 8058, "hk": 8059, "splitlines": 8060, "pluralize": 8061, "automated": 8062, "kick": 8063, "syllab": 8064, "acesso": 8065, "deletions": 8066, "ptic": 8067, "gran": 8068, "cake": 8069, "iptables": 8070, "edited": 8071, "denomin": 8072, "implementations": 8073, "seleni": 8074, "selenium": 8075, "ndi": 8076, "hp": 8077, "portfolios": 8078, "hc": 8079, "tu": 8080, "valor": 8081, "lbmetrictable": 8082, "msgs": 8083, "finfo": 8084, "otaupdate": 8085, "modality": 8086, "unscaled": 8087, "haystack": 8088, "blen": 8089, "xmlcontenttype": 8090, "expns": 8091, "dados": 8092, "preprocess": 8093, "wx": 8094, "cursors": 8095, "fuel": 8096, "bubble": 8097, "000000": 8098, "installs": 8099, "sides": 8100, "stress": 8101, "contiguous": 8102, "v8": 8103, "httprequest": 8104, "percentile": 8105, "cycl": 8106, "lam": 8107, "nsacl": 8108, "x20": 8109, "law": 8110, "drone": 8111, "healpix": 8112, "violations": 8113, "tpr": 8114, "nucleotide": 8115, "opera": 8116, "dcor": 8117, "realtime": 8118, "backing": 8119, "ybin": 8120, "numerator": 8121, "covar": 8122, "shifted": 8123, "pump": 8124, "gcs": 8125, "presign": 8126, "trie": 8127, "datagram": 8128, "psis": 8129, "south": 8130, "chant": 8131, "hardware": 8132, "aad": 8133, "rewritepolicylabel": 8134, "plr": 8135, "crinfo": 8136, "dernie": 8137, "erro": 8138, "clicked": 8139, "partici": 8140, "perspect": 8141, "binds": 8142, "loggers": 8143, "accented": 8144, "arg0": 8145, "iso8601": 8146, "abcdef": 8147, "restjson": 8148, "ignores": 8149, "breakpoint": 8150, "miss": 8151, "istics": 8152, "often": 8153, "conform": 8154, "cw": 8155, "axe": 8156, "shortname": 8157, "offerings": 8158, "magent": 8159, "swarm": 8160, "caused": 8161, "zoned": 8162, "went": 8163, "teneto": 8164, "outdated": 8165, "kk": 8166, "erase": 8167, "peering": 8168, "ars": 8169, "trx": 8170, "refun": 8171, "ecr": 8172, "eucli": 8173, "euclidean": 8174, "residuals": 8175, "denominator": 8176, "viewer": 8177, "subdomain": 8178, "recompute": 8179, "td1": 8180, "switches": 8181, "expos": 8182, "tmglobal": 8183, "reque": 8184, "aaak": 8185, "vpntrafficpolicy": 8186, "vcl": 8187, "frontmatter": 8188, "exploded": 8189, "watching": 8190, "safari": 8191}, "merges": [["r", "e"], ["o", "n"], ["i", "n"], ["e", "r"], ["e", "n"], ["a", "t"], ["t", "h"], ["s", "t"], ["s", "e"], ["c", "o"], ["i", "on"], ["d", "e"], ["l", "e"], ["o", "r"], ["c", "t"], ["a", "l"], ["a", "r"], ["en", "t"], ["a", "n"], ["m", "e"], ["u", "r"], ["u", "n"], ["i", "f"], ["p", "e"], ["t", "y"], ["i", "s"], ["c", "e"], ["g", "e"], ["r", "o"], ["th", "e"], ["i", "t"], ["ct", "ion"], ["m", "ent"], ["u", "t"], ["ty", "pe"], ["co", "m"], ["u", "e"], ["c", "h"], ["in", "g"], ["f", "i"], ["c", "on"], ["f", "un"], ["l", "o"], ["re", "s"], ["a", "me"], ["re", "t"], ["e", "x"], ["at", "e"], ["t", "o"], ["i", "d"], ["a", "s"], ["fun", "ction"], ["ur", "n"], ["ret", "urn"], ["co", "de"], ["l", "i"], ["a", "d"], ["v", "al"], ["ge", "t"], ["com", "ment"], ["u", "l"], ["n", "ame"], ["f", "or"], ["e", "l"], ["p", "t"], ["t", "r"], ["n", "o"], ["e", "d"], ["th", "is"], ["i", "l"], ["n", "e"], ["st", "r"], ["a", "p"], ["an", "d"], ["p", "ar"], ["er", "r"], ["se", "t"], ["val", "ue"], ["en", "d"], ["p", "ro"], ["c", "k"], ["o", "f"], ["a", "b"], ["at", "ion"], ["in", "t"], ["pt", "ion"], ["u", "p"], ["k", "e"], ["s", "er"], ["a", "m"], ["e", "s"], ["se", "l"], ["re", "q"], ["con", "t"], ["e", "m"], ["p", "at"], ["sel", "f"], ["de", "f"], ["ne", "w"], ["p", "ut"], ["m", "o"], ["i", "c"], ["p", "o"], ["er", "s"], ["s", "s"], ["r", "a"], ["ex", "t"], ["fi", "le"], ["at", "a"], ["ul", "t"], ["p", "a"], ["d", "o"], ["c", "l"], ["str", "ing"], ["d", "i"], ["ke", "y"], ["u", "b"], ["o", "b"], ["pat", "h"], ["e", "ct"], ["err", "or"], ["o", "ur"], ["d", "ata"], ["v", "i"], ["m", "a"], ["al", "l"], ["p", "er"], ["u", "m"], ["our", "ce"], ["o", "ut"], ["b", "e"], ["a", "se"], ["v", "ar"], ["ab", "le"], ["r", "i"], ["v", "er"], ["as", "s"], ["li", "st"], ["p", "l"], ["ob", "j"], ["re", "n"], ["t", "i"], ["v", "e"], ["m", "at"], ["lo", "g"], ["ad", "d"], ["ue", "st"], ["t", "er"], ["co", "l"], ["f", "o"], ["l", "en"], ["no", "t"], ["req", "uest"], ["o", "ption"], ["li", "c"], ["h", "e"], ["b", "o"], ["s", "i"], ["ul", "l"], ["w", "i"], ["a", "g"], ["par", "am"], ["res", "ource"], ["p", "on"], ["el", "se"], ["ra", "y"], ["res", "ult"], ["ar", "ray"], ["u", "s"], ["q", "u"], ["s", "c"], ["wi", "th"], ["ar", "g"], ["a", "ge"], ["d", "ate"], ["n", "ull"], ["n", "il"], ["no", "de"], ["h", "t"], ["on", "e"], ["obj", "ect"], ["in", "put"], ["o", "l"], ["val", "id"], ["or", "t"], ["ti", "me"], ["a", "ch"], ["p", "le"], ["b", "u"], ["l", "in"], ["el", "d"], ["it", "ion"], ["cl", "ass"], ["t", "e"], ["res", "pon"], ["option", "s"], ["ro", "w"], ["i", "g"], ["ap", "p"], ["fi", "g"], ["in", "st"], ["c", "re"], ["an", "ce"], ["f", "ro"], ["con", "fig"], ["fro", "m"], ["o", "p"], ["ren", "t"], ["fi", "eld"], ["ex", "ce"], ["s", "h"], ["respon", "se"], ["st", "at"], ["b", "y"], ["u", "st"], ["c", "ur"], ["in", "de"], ["p", "ub"], ["a", "ck"], ["inde", "x"], ["in", "d"], ["u", "se"], ["p", "re"], ["tr", "ue"], ["a", "ct"], ["g", "i"], ["z", "e"], ["pub", "lic"], ["he", "ad"], ["w", "or"], ["ar", "t"], ["f", "al"], ["at", "tr"], ["cre", "ate"], ["fal", "se"], ["i", "b"], ["p", "ort"], ["vi", "ce"], ["e", "le"], ["re", "ad"], ["exce", "ption"], ["g", "th"], ["re", "d"], ["it", "er"], ["o", "d"], ["mo", "de"], ["len", "gth"], ["it", "em"], ["ur", "l"], ["th", "at"], ["f", "e"], ["il", "d"], ["le", "ct"], ["c", "all"], ["h", "as"], ["b", "ase"], ["g", "ro"], ["w", "h"], ["w", "e"], ["m", "ap"], ["e", "v"], ["s", "ub"], ["i", "m"], ["u", "ser"], ["out", "put"], ["n", "um"], ["up", "date"], ["me", "th"], ["cont", "ext"], ["a", "ce"], ["o", "m"], ["inst", "ance"], ["a", "c"], ["i", "p"], ["ele", "ment"], ["fun", "c"], ["un", "t"], ["w", "r"], ["a", "y"], ["param", "s"], ["gro", "up"], ["meth", "od"], ["un", "d"], ["sc", "ri"], ["mat", "ch"], ["an", "ge"], ["h", "and"], ["ser", "vice"], ["u", "ment"], ["s", "y"], ["st", "art"], ["ch", "e"], ["ce", "ss"], ["st", "ate"], ["ev", "ent"], ["s", "pe"], ["c", "ase"], ["me", "ss"], ["n", "one"], ["a", "ult"], ["le", "ction"], ["com", "ple"], ["in", "fo"], ["ut", "e"], ["u", "le"], ["b", "ack"], ["fi", "l"], ["mess", "age"], ["po", "s"], ["arg", "s"], ["pro", "per"], ["an", "s"], ["k", "en"], ["log", "ic"], ["a", "in"], ["or", "y"], ["int", "er"], ["par", "ame"], ["lin", "e"], ["che", "ck"], ["t", "ag"], ["mode", "l"], ["m", "in"], ["c", "li"], ["lo", "ad"], ["def", "ault"], ["to", "ken"], ["con", "d"], ["lo", "c"], ["u", "re"], ["t", "ext"], ["for", "mat"], ["for", "m"], ["j", "s"], ["co", "unt"], ["al", "i"], ["attr", "ib"], ["d", "er"], ["si", "ze"], ["a", "re"], ["it", "e"], ["th", "row"], ["i", "st"], ["qu", "er"], ["com", "m"], ["i", "se"], ["if", "i"], ["e", "c"], ["at", "or"], ["se", "lect"], ["resource", "s"], ["t", "a"], ["cont", "ent"], ["l", "y"], ["lo", "ck"], ["a", "st"], ["i", "ty"], ["v", "en"], ["mo", "d"], ["v", "ers"], ["quer", "y"], ["s", "o"], ["cur", "rent"], ["value", "s"], ["comple", "x"], ["ate", "s"], ["t", "p"], ["h", "o"], ["g", "er"], ["c", "ust"], ["head", "ers"], ["b", "er"], ["do", "c"], ["p", "r"], ["cust", "om"], ["gi", "ven"], ["spe", "c"], ["cli", "ent"], ["a", "u"], ["s", "ion"], ["co", "r"], ["tr", "ans"], ["l", "er"], ["re", "ct"], ["var", "i"], ["en", "er"], ["ex", "ec"], ["ht", "tp"], ["de", "le"], ["in", "valid"], ["ma", "x"], ["t", "em"], ["de", "scri"], ["lo", "w"], ["ap", "i"], ["vers", "ion"], ["js", "on"], ["m", "l"], ["re", "mo"], ["return", "s"], ["ro", "l"], ["t", "ers"], ["pa", "ge"], ["o", "t"], ["cond", "ition"], ["p", "i"], ["o", "k"], ["wor", "k"], ["t", "able"], ["p", "res"], ["il", "l"], ["p", "ri"], ["i", "ve"], ["col", "lection"], ["r", "y"], ["t", "s"], ["d", "is"], ["de", "d"], ["di", "r"], ["a", "ction"], ["cont", "ain"], ["ar", "y"], ["m", "s"], ["p", "y"], ["po", "int"], ["par", "se"], ["vari", "able"], ["w", "n"], ["r", "un"], ["con", "ne"], ["fil", "ter"], ["proper", "ty"], ["t", "ar"], ["n", "ext"], ["ra", "ise"], ["col", "um"], ["i", "es"], ["colum", "n"], ["j", "ect"], ["def", "in"], ["u", "i"], ["as", "k"], ["stat", "ic"], ["fi", "x"], ["ce", "s"], ["app", "end"], ["e", "ach"], ["tr", "y"], ["arg", "ument"], ["bu", "ild"], ["o", "per"], ["name", "s"], ["s", "ource"], ["tar", "get"], ["f", "in"], ["pa", "rent"], ["wh", "i"], ["m", "an"], ["d", "s"], ["g", "in"], ["th", "er"], ["au", "th"], ["num", "ber"], ["dele", "te"], ["g", "r"], ["0", "0"], ["a", "v"], ["r", "ange"], ["o", "pt"], ["base", "d"], ["a", "il"], ["re", "f"], ["ut", "ion"], ["f", "l"], ["b", "lock"], ["e", "t"], ["stat", "us"], ["c", "ach"], ["parame", "ters"], ["g", "ener"], ["fi", "r"], ["fo", "re"], ["ser", "ver"], ["di", "rect"], ["of", "f"], ["d", "y"], ["ate", "d"], ["ex", "ist"], ["cont", "rol"], ["ch", "ild"], ["c", "an"], ["s", "ing"], ["f", "f"], ["con", "st"], ["a", "ve"], ["a", "k"], ["l", "ab"], ["vi", "e"], ["f", "ind"], ["s", "end"], ["pr", "int"], ["vie", "w"], ["wr", "ite"], ["comm", "and"], ["attrib", "ute"], ["at", "ch"], ["o", "ver"], ["ne", "t"], ["em", "p"], ["fir", "st"], ["pl", "ace"], ["an", "g"], ["c", "lo"], ["emp", "ty"], ["ch", "ar"], ["i", "ma"], ["lab", "el"], ["st", "re"], ["has", "h"], ["mod", "ule"], ["ation", "s"], ["ar", "ch"], ["le", "d"], ["item", "s"], ["ima", "ge"], ["m", "is"], ["c", "r"], ["stre", "am"], ["w", "ill"], ["cach", "e"], ["w", "id"], ["b", "re"], ["wor", "d"], ["ifi", "ed"], ["b", "ind"], ["ent", "ity"], ["d", "b"], ["l", "ast"], ["c", "al"], ["ch", "ange"], ["u", "ct"], ["bre", "ak"], ["bo", "dy"], ["lo", "op"], ["p", "h"], ["si", "g"], ["it", "s"], ["de", "p"], ["s", "up"], ["pro", "cess"], ["hand", "ler"], ["req", "ui"], ["exec", "ution"], ["v", "el"], ["call", "back"], ["remo", "ve"], ["ur", "ation"], ["key", "s"], ["e", "p"], ["st", "o"], ["ing", "s"], ["off", "set"], ["n", "c"], ["ut", "es"], ["ent", "ry"], ["hand", "le"], ["re", "l"], ["use", "d"], ["in", "it"], ["p", "ass"], ["lin", "k"], ["log", "ger"], ["conne", "ction"], ["s", "u"], ["oper", "ation"], ["le", "an"], ["j", "o"], ["pa", "ce"], ["sh", "o"], ["fe", "ren"], ["v", "o"], ["file", "s"], ["cl", "u"], ["c", "a"], ["ul", "d"], ["re", "gi"], ["ro", "ot"], ["opt", "s"], ["if", "ic"], ["doc", "ument"], ["bu", "g"], ["t", "ask"], ["po", "st"], ["ho", "st"], ["tem", "pl"], ["n", "p"], ["fin", "al"], ["re", "e"], ["re", "place"], ["me", "t"], ["po", "lic"], ["r", "ule"], ["q", "ue"], ["m", "ar"], ["i", "o"], ["field", "s"], ["f", "ace"], ["res", "s"], ["i", "al"], ["b", "r"], ["ma", "in"], ["us", "h"], ["jo", "in"], ["de", "bug"], ["pa", "ck"], ["a", "le"], ["ig", "ht"], ["par", "t"], ["ut", "il"], ["fo", "und"], ["select", "s"], ["sig", "n"], ["parame", "ter"], ["ss", "ion"], ["set", "s"], ["di", "ct"], ["wh", "en"], ["head", "er"], ["le", "vel"], ["w", "he"], ["se", "arch"], ["pre", "fix"], ["polic", "y"], ["l", "ay"], ["pos", "ition"], ["on", "ly"], ["ur", "i"], ["st", "y"], ["ac", "cess"], ["le", "ss"], ["v", "ate"], ["wid", "th"], ["e", "qu"], ["v", "is"], ["w", "ar"], ["se", "s"], ["s", "pl"], ["s", "co"], ["a", "f"], ["i", "a"], ["o", "s"], ["w", "s"], ["result", "s"], ["ht", "ml"], ["se", "d"], ["ct", "x"], ["re", "feren"], ["i", "ali"], ["ter", "n"], ["se", "ssion"], ["pri", "vate"], ["o", "ther"], ["st", "em"], ["c", "i"], ["or", "der"], ["re", "cor"], ["templ", "ate"], ["res", "ol"], ["if", "y"], ["on", "g"], ["ol", "d"], ["fi", "len"], ["m", "p"], ["i", "z"], ["ver", "t"], ["op", "en"], ["met", "ad"], ["attrib", "utes"], ["an", "y"], ["an", "t"], ["filen", "ame"], ["d", "at"], ["m", "er"], ["ra", "w"], ["metad", "ata"], ["sto", "re"], ["sty", "le"], ["r", "on"], ["m", "d"], ["config", "uration"], ["error", "s"], ["defin", "ed"], ["me", "m"], ["cr", "iter"], ["as", "y"], ["set", "t"], ["re", "g"], ["whi", "le"], ["spec", "ified"], ["direct", "ory"], ["time", "out"], ["l", "ang"], ["x", "ml"], ["contain", "er"], ["sy", "stem"], ["en", "sion"], ["m", "it"], ["bu", "ff"], ["pl", "y"], ["criter", "ia"], ["str", "uct"], ["en", "ce"], ["ser", "t"], ["com", "put"], ["d", "ing"], ["s", "ort"], ["f", "lo"], ["bo", "o"], ["bind", "ing"], ["ma", "ke"], ["p", "ush"], ["to", "p"], ["spl", "it"], ["clu", "de"], ["s", "r"], ["descri", "be"], ["valid", "ate"], ["argument", "s"], ["le", "t"], ["pon", "ent"], ["fl", "ag"], ["exist", "s"], ["pat", "tern"], ["boo", "lean"], ["ig", "n"], ["s", "ch"], ["t", "ree"], ["id", "ent"], ["inter", "face"], ["pro", "ject"], ["sh", "a"], ["al", "s"], ["ms", "g"], ["v", "ed"], ["en", "c"], ["buff", "er"], ["cont", "in"], ["ifi", "er"], ["un", "k"], ["do", "wn"], ["i", "r"], ["lo", "b"], ["regi", "st"], ["lic", "ation"], ["un", "less"], ["type", "s"], ["se", "qu"], ["ti", "es"], ["t", "ch"], ["b", "ut"], ["in", "to"], ["requi", "red"], ["s", "um"], ["ver", "y"], ["asy", "nc"], ["t", "ect"], ["proper", "ties"], ["ex", "p"], ["n", "ing"], ["id", "s"], ["fe", "tch"], ["t", "es"], ["am", "ple"], ["com", "ponent"], ["ag", "er"], ["l", "l"], ["v", "id"], ["add", "ress"], ["whi", "ch"], ["f", "act"], ["int", "e"], ["iter", "ates"], ["w", "in"], ["flo", "at"], ["col", "lect"], ["an", "n"], ["loc", "al"], ["m", "ult"], ["man", "ager"], ["col", "or"], ["ar", "d"], ["or", "ig"], ["g", "ht"], ["h", "el"], ["h", "ave"], ["pro", "p"], ["tag", "s"], ["sho", "uld"], ["f", "n"], ["throw", "s"], ["me", "di"], ["f", "t"], ["contin", "ue"], ["f", "r"], ["t", "it"], ["al", "low"], ["fo", "l"], ["sy", "m"], ["co", "py"], ["th", "en"], ["u", "al"], ["referen", "ce"], ["j", "ob"], ["fore", "ach"], ["c", "er"], ["k", "w"], ["m", "ust"], ["net", "work"], ["ex", "tr"], ["descri", "ption"], ["s", "q"], ["by", "te"], ["vo", "id"], ["s", "k"], ["se", "lection"], ["tit", "le"], ["bo", "ol"], ["or", "m"], ["de", "st"], ["pres", "ent"], ["sco", "pe"], ["at", "ure"], ["pe", "ct"], ["all", "y"], ["w", "a"], ["in", "e"], ["at", "t"], ["clo", "se"], ["c", "atch"], ["s", "p"], ["st", "ack"], ["util", "s"], ["im", "port"], ["ment", "s"], ["mis", "sing"], ["app", "lication"], ["a", "x"], ["a", "ut"], ["pres", "sion"], ["f", "ull"], ["control", "ler"], ["me", "ta"], ["pl", "ay"], ["pro", "vid"], ["que", "ue"], ["us", "ing"], ["mar", "k"], ["recor", "d"], ["ap", "h"], ["g", "lob"], ["wr", "ap"], ["fr", "ame"], ["pro", "m"], ["win", "do"], ["mer", "ge"], ["c", "le"], ["an", "not"], ["he", "ight"], ["a", "ws"], ["t", "al"], ["pa", "y"], ["in", "clude"], ["g", "o"], ["d", "ay"], ["kw", "args"], ["m", "t"], ["ig", "no"], ["n", "s"], ["ext", "ension"], ["pl", "u"], ["f", "a"], ["af", "ter"], ["pat", "ch"], ["element", "s"], ["le", "ft"], ["sett", "ings"], ["build", "er"], ["sup", "port"], ["s", "ame"], ["by", "tes"], ["b", "in"], ["i", "li"], ["ap", "ply"], ["s", "w"], ["el", "if"], ["be", "fore"], ["li", "mit"], ["whe", "re"], ["st", "op"], ["id", "x"], ["mult", "i"], ["n", "orm"], ["de", "vice"], ["ex", "pression"], ["inte", "ger"], ["ub", "le"], ["sch", "em"], ["plu", "gin"], ["tect", "ed"], ["pro", "to"], ["an", "ch"], ["wa", "it"], ["ro", "le"], ["loc", "ation"], ["do", "uble"], ["en", "able"], ["tem", "p"], ["con", "vert"], ["node", "s"], ["orig", "in"], ["6", "4"], ["1", "0"], ["ck", "et"], ["read", "y"], ["tr", "ace"], ["ex", "pect"], ["gr", "aph"], ["u", "age"], ["un", "i"], ["it", "or"], ["cl", "ust"], ["lang", "uage"], ["ili", "ty"], ["bo", "x"], ["at", "ive"], ["to", "tal"], ["conne", "ct"], ["ass", "o"], ["st", "or"], ["ib", "le"], ["dat", "ab"], ["is", "h"], ["is", "set"], ["end", "point"], ["datab", "ase"], ["se", "c"], ["en", "co"], ["m", "on"], ["auth", "or"], ["ter", "min"], ["names", "pace"], ["dep", "end"], ["ident", "ifier"], ["par", "ser"], ["scri", "pt"], ["te", "st"], ["aut", "o"], ["ann", "el"], ["o", "us"], ["d", "if"], ["do", "main"], ["be", "gin"], ["do", "es"], ["pro", "tected"], ["sr", "c"], ["si", "m"], ["exce", "pt"], ["schem", "a"], ["t", "ed"], ["ch", "annel"], ["ri", "ght"], ["provid", "er"], ["add", "ition"], ["re", "co"], ["object", "s"], ["pro", "d"], ["ali", "as"], ["en", "vi"], ["mat", "h"], ["n", "on"], ["trans", "form"], ["regist", "er"], ["st", "ep"], ["lin", "es"], ["po", "p"], ["envi", "ron"], ["bo", "und"], ["windo", "w"], ["event", "s"], ["ate", "g"], ["s", "ave"], ["act", "ive"], ["ch", "unk"], ["en", "code"], ["un", "defined"], ["b", "l"], ["asso", "ci"], ["condition", "s"], ["clust", "er"], ["pe", "d"], ["prom", "ise"], ["iali", "z"], ["ta", "il"], ["ro", "ute"], ["igno", "re"], ["defin", "ition"], ["s", "l"], ["column", "s"], ["r", "t"], ["br", "anch"], ["l", "ong"], ["o", "u"], ["pack", "age"], ["i", "de"], ["u", "id"], ["p", "ers"], ["mis", "sion"], ["no", "w"], ["en", "v"], ["child", "ren"], ["ne", "ed"], ["ab", "s"], ["s", "ure"], ["pro", "file"], ["cer", "t"], ["instance", "of"], ["gener", "ate"], ["s", "ite"], ["pass", "word"], ["t", "mp"], ["se", "g"], ["fact", "ory"], ["we", "b"], ["c", "ent"], ["n", "al"], ["ac", "count"], ["loc", "ale"], ["i", "led"], ["s", "v"], ["ge", "x"], ["re", "port"], ["o", "g"], ["sq", "l"], ["se", "e"], ["f", "ail"], ["re", "gex"], ["w", "as"], ["co", "re"], ["resol", "ve"], ["co", "un"], ["di", "st"], ["se", "cond"], ["av", "ail"], ["sing", "le"], ["glob", "al"], ["bo", "l"], ["equ", "als"], ["contain", "s"], ["trans", "l"], ["w", "ay"], ["re", "present"], ["re", "ject"], ["n", "it"], ["ass", "ign"], ["pt", "or"], ["res", "h"], ["po", "ol"], ["match", "es"], ["is", "instance"], ["m", "ask"], ["o", "wn"], ["al", "ready"], ["fa", "iled"], ["list", "ener"], ["lo", "ok"], ["sha", "pe"], ["pro", "vi"], ["s", "ample"], ["create", "s"], ["low", "er"], ["c", "at"], ["collect", "s"], ["u", "me"], ["bu", "f"], ["li", "ke"], ["k", "er"], ["the", "re"], ["att", "ach"], ["b", "und"], ["th", "ing"], ["c", "ateg"], ["ren", "der"], ["n", "b"], ["w", "o"], ["pay", "load"], ["o", "v"], ["par", "ts"], ["mem", "ber"], ["expect", "ed"], ["or", "d"], ["sc", "ale"], ["hel", "per"], ["de", "cl"], ["m", "i"], ["stor", "age"], ["handle", "s"], ["d", "f"], ["per", "mission"], ["se", "ction"], ["su", "c"], ["in", "sert"], ["type", "of"], ["bund", "le"], ["s", "pace"], ["return", "ed"], ["it", "ch"], ["stat", "s"], ["em", "it"], ["s", "n"], ["lo", "t"], ["s", "li"], ["y", "i"], ["a", "z"], ["reco", "very"], ["avail", "able"], ["ce", "ll"], ["u", "g"], ["sym", "bol"], ["rol", "l"], ["ex", "port"], ["state", "ment"], ["de", "tail"], ["g", "u"], ["ag", "a"], ["ic", "s"], ["aga", "inst"], ["pa", "re"], ["s", "in"], ["sy", "n"], ["em", "ail"], ["li", "b"], ["cal", "c"], ["path", "s"], ["char", "act"], ["am", "p"], ["ed", "ge"], ["string", "s"], ["ret", "ri"], ["environ", "ment"], ["b", "atch"], ["con", "struct"], ["option", "al"], ["z", "er"], ["c", "f"], ["rel", "ation"], ["un", "it"], ["pre", "v"], ["enco", "ding"], ["descri", "ptor"], ["spec", "ific"], ["th", "read"], ["token", "s"], ["sk", "ip"], ["v", "ol"], ["ar", "ds"], ["pro", "ces"], ["read", "er"], ["extr", "act"], ["t", "up"], ["x", "y"], ["y", "ou"], ["de", "termin"], ["as", "h"], ["depend", "enc"], ["u", "d"], ["mat", "ri"], ["s", "ent"], ["sequ", "ence"], ["exec", "ute"], ["i", "ze"], ["row", "s"], ["m", "ary"], ["pos", "it"], ["prod", "uct"], ["iali", "ze"], ["rule", "s"], ["sw", "itch"], ["or", "s"], ["spe", "ct"], ["u", "res"], ["get", "s"], ["con", "str"], ["suc", "cess"], ["iter", "ator"], ["as", "sert"], ["point", "s"], ["origin", "al"], ["r", "and"], ["ar", "r"], ["b", "it"], ["norm", "ali"], ["comm", "it"], ["k", "ind"], ["si", "de"], ["re", "ce"], ["yi", "eld"], ["pi", "x"], ["tup", "le"], ["group", "s"], ["3", "2"], ["nit", "ro"], ["ov", "err"], ["in", "form"], ["wr", "iter"], ["ul", "ar"], ["tr", "ack"], ["ma", "ch"], ["m", "app"], ["se", "par"], ["g", "en"], ["control", "s"], ["j", "ust"], ["no", "wn"], ["matri", "x"], ["n", "a"], ["c", "ss"], ["annot", "ation"], ["not", "e"], ["ad", "min"], ["content", "s"], ["a", "int"], ["v", "es"], ["fe", "ature"], ["ent", "ic"], ["d", "on"], ["f", "mt"], ["v", "ect"], ["pa", "ir"], ["dis", "able"], ["auth", "entic"], ["de", "code"], ["wr", "it"], ["ro", "ut"], ["d", "r"], ["as", "ses"], ["str", "ip"], ["cle", "ar"], ["ph", "p"], ["war", "n"], ["m", "en"], ["mo", "re"], ["run", "ning"], ["id", "d"], ["print", "f"], ["di", "ction"], ["en", "um"], ["c", "y"], ["do", "m"], ["d", "one"], ["g", "ing"], ["h", "er"], ["sli", "ce"], ["e", "ar"], ["st", "amp"], ["inform", "ation"], ["remo", "te"], ["message", "s"], ["b", "ar"], ["lay", "er"], ["page", "s"], ["de", "l"], ["an", "al"], ["so", "cket"], ["at", "ing"], ["sec", "ret"], ["sho", "w"], ["s", "or"], ["for", "ce"], ["constr", "aint"], ["f", "s"], ["c", "md"], ["ic", "al"], ["1", "00"], ["dis", "patch"], ["ce", "pt"], ["an", "ts"], ["sy", "nc"], ["i", "e"], ["b", "ers"], ["1", "2"], ["l", "at"], ["categ", "ory"], ["inter", "nal"], ["b", "as"], ["medi", "ate"], ["el", "s"], ["pi", "pe"], ["de", "c"], ["th", "an"], ["calc", "ul"], ["cal", "end"], ["method", "s"], ["parse", "d"], ["enable", "d"], ["d", "a"], ["inter", "val"], ["trans", "action"], ["e", "st"], ["ad", "ded"], ["ext", "end"], ["d", "ri"], ["cor", "rect"], ["vi", "ous"], ["di", "m"], ["addition", "al"], ["dis", "play"], ["fol", "der"], ["calend", "ar"], ["gu", "ards"], ["act", "i"], ["anal", "y"], ["exist", "ing"], ["cl", "s"], ["overr", "ide"], ["men", "u"], ["f", "low"], ["it", "ies"], ["vis", "ion"], ["s", "a"], ["2", "0"], ["proto", "col"], ["provi", "ded"], ["sub", "scri"], ["pre", "vious"], ["cf", "g"], ["ch", "o"], ["j", "av"], ["add", "resources"], ["me", "tr"], ["be", "t"], ["c", "lean"], ["cl", "asses"], ["so", "me"], ["select", "or"], ["update", "resources"], ["p", "n"], ["ca", "use"], ["ab", "ility"], ["um", "p"], ["a", "a"], ["ss", "l"], ["mach", "ine"], ["p", "as"], ["whe", "ther"], ["co", "ok"], ["regi", "str"], ["p", "an"], ["sequ", "ent"], ["case", "s"], ["t", "x"], ["wor", "ds"], ["pro", "xy"], ["al", "og"], ["or", "g"], ["c", "p"], ["tr", "ig"], ["n", "er"], ["ma", "y"], ["cal", "led"], ["vect", "or"], ["ter", "m"], ["ra", "g"], ["tr", "im"], ["re", "posit"], ["requi", "re"], ["z", "ip"], ["reposit", "ory"], ["d", "uration"], ["ho", "ok"], ["in", "di"], ["if", "t"], ["im", "ple"], ["s", "printf"], ["call", "er"], ["prop", "s"], ["lay", "out"], ["hand", "l"], ["reg", "ion"], ["mon", "th"], ["ser", "ies"], ["ag", "ent"], ["a", "ded"], ["be", "en"], ["run", "time"], ["user", "name"], ["time", "stamp"], ["ac", "cept"], ["es", "ca"], ["y", "ear"], ["le", "g"], ["in", "spect"], ["un", "set"], ["ed", "itor"], ["decl", "ar"], ["so", "le"], ["check", "s"], ["fil", "ters"], ["change", "d"], ["iz", "ation"], ["select", "ed"], ["back", "up"], ["con", "n"], ["con", "f"], ["h", "ist"], ["t", "wo"], ["b", "ro"], ["t", "on"], ["pas", "sed"], ["am", "b"], ["sim", "ple"], ["r", "ad"], ["support", "ed"], ["valid", "ation"], ["1", "6"], ["sub", "sequent"], ["def", "er"], ["seg", "ment"], ["de", "sc"], ["create", "d"], ["up", "load"], ["can", "not"], ["u", "int"], ["re", "set"], ["gener", "ates"], ["mapp", "ing"], ["ind", "ent"], ["t", "ab"], ["cre", "d"], ["mo", "ck"], ["re", "al"], ["ig", "h"], ["coun", "ter"], ["c", "b"], ["dif", "f"], ["pers", "ist"], ["wrap", "per"], ["bo", "t"], ["sup", "er"], ["rece", "i"], ["l", "n"], ["the", "y"], ["p", "c"], ["comm", "on"], ["list", "en"], ["ex", "ample"], ["lo", "aded"], ["sin", "ce"], ["h", "y"], ["th", "on"], ["per", "form"], ["vol", "ume"], ["re", "le"], ["c", "ip"], ["comput", "ed"], ["rand", "om"], ["l", "ish"], ["con", "sole"], ["c", "s"], ["res", "p"], ["m", "ut"], ["but", "ton"], ["co", "ord"], ["proces", "ses"], ["determin", "e"], ["default", "s"], ["per", "i"], ["ver", "se"], ["valid", "ates"], ["add", "s"], ["sc", "roll"], ["flag", "s"], ["ro", "p"], ["ge", "st"], ["u", "uid"], ["te", "red"], ["ax", "is"], ["com", "p"], ["g", "it"], ["m", "y"], ["dist", "ance"], ["vi", "rt"], ["ent", "ial"], ["bo", "ok"], ["e", "val"], ["an", "k"], ["p", "end"], ["t", "l"], ["we", "en"], ["ri", "es"], ["multi", "ple"], ["war", "ning"], ["wi", "se"], ["pro", "b"], ["w", "atch"], ["bet", "ween"], ["ta", "ke"], ["c", "ard"], ["re", "cur"], ["im", "um"], ["label", "s"], ["inst", "all"], ["variable", "s"], ["pri", "or"], ["detail", "s"], ["pack", "et"], ["re", "direct"], ["diction", "ary"], ["be", "an"], ["virt", "ual"], ["ent", "ries"], ["col", "l"], ["we", "ight"], ["start", "s"], ["dri", "ver"], ["2", "5"], ["update", "resource"], ["z", "one"], ["ex", "pi"], ["ific", "ation"], ["sign", "ature"], ["instance", "s"], ["b", "row"], ["co", "uld"], ["log", "ging"], ["gr", "am"], ["py", "thon"], ["inter", "mediate"], ["medi", "a"], ["p", "k"], ["c", "ms"], ["o", "c"], ["pro", "g"], ["g", "re"], ["dep", "th"], ["man", "age"], ["id", "entity"], ["comput", "ation"], ["di", "v"], ["c", "n"], ["cur", "ren"], ["to", "ol"], ["fe", "at"], ["action", "s"], ["re", "ction"], ["with", "out"], ["allow", "ed"], ["at", "tem"], ["attem", "pt"], ["branch", "ing"], ["gener", "ator"], ["s", "m"], ["part", "ition"], ["ac", "c"], ["se", "q"], ["model", "s"], ["valid", "ator"], ["module", "s"], ["sh", "ift"], ["cur", "sor"], ["ge", "o"], ["act", "ual"], ["im", "g"], ["or", "i"], ["el", "l"], ["charact", "er"], ["construct", "or"], ["mo", "ve"], ["is", "s"], ["sh", "ort"], ["t", "ing"], ["wid", "get"], ["d", "ump"], ["rel", "ative"], ["s", "pa"], ["add", "ing"], ["uni", "que"], ["st", "d"], ["con", "ver"], ["ch", "ain"], ["h", "a"], ["unk", "nown"], ["t", "en"], ["s", "lot"], ["sp", "an"], ["separ", "ator"], ["ed", "it"], ["l", "if"], ["9", "9"], ["s", "ol"], ["r", "ate"], ["cred", "ential"], ["iz", "ed"], ["ser", "ializ"], ["init", "ial"], ["attr", "s"], ["ut", "f"], ["the", "m"], ["comple", "te"], ["to", "do"], ["or", "ies"], ["fil", "tered"], ["st", "and"], ["ele", "m"], ["down", "load"], ["represent", "ing"], ["mod", "ified"], ["cert", "ific"], ["re", "st"], ["en", "gin"], ["z", "ed"], ["are", "a"], ["th", "ro"], ["iss", "ue"], ["c", "ance"], ["pre", "c"], ["fol", "low"], ["extr", "a"], ["change", "s"], ["po", "ss"], ["bin", "ary"], ["ind", "ic"], ["e", "k"], ["ug", "h"], ["dest", "in"], ["de", "li"], ["ad", "a"], ["re", "p"], ["he", "re"], ["brow", "ser"], ["fil", "l"], ["update", "s"], ["u", "red"], ["1", "8"], ["com", "par"], ["add", "r"], ["sort", "ed"], ["rele", "ase"], ["i", "con"], ["en", "sure"], ["esca", "pe"], ["work", "er"], ["up", "per"], ["zer", "o"], ["b", "its"], ["am", "o"], ["reject", "s"], ["equ", "al"], ["u", "ch"], ["handl", "ers"], ["ne", "st"], ["trig", "ger"], ["second", "s"], ["sy", "s"], ["ang", "le"], ["sett", "ing"], ["lo", "y"], ["top", "ic"], ["s", "ap"], ["imple", "ment"], ["l", "an"], ["d", "up"], ["look", "up"], ["request", "s"], ["de", "cor"], ["se", "cur"], ["ct", "r"], ["sub", "str"], ["ex", "it"], ["prog", "ress"], ["g", "ra"], ["g", "ate"], ["m", "x"], ["secur", "ity"], ["st", "er"], ["com", "pare"], ["destin", "ation"], ["su", "f"], ["engin", "e"], ["if", "act"], ["art", "ifact"], ["add", "resource"], ["dependenc", "y"], ["log", "in"], ["str", "i"], ["cl", "one"], ["trans", "port"], ["com", "pi"], ["authentic", "ation"], ["const", "ants"], ["fin", "ish"], ["al", "so"], ["other", "wise"], ["jav", "a"], ["error", "f"], ["pl", "an"], ["sa", "fe"], ["declar", "ation"], ["set", "up"], ["peri", "od"], ["comput", "e"], ["abs", "ol"], ["ch", "ron"], ["ser", "ialize"], ["thro", "ugh"], ["as", "set"], ["pri", "mary"], ["oper", "ator"], ["pub", "lish"], ["f", "er"], ["dep", "loy"], ["own", "er"], ["e", "red"], ["e", "ve"], ["ta", "x"], ["absol", "ute"], ["mar", "sh"], ["o", "id"], ["d", "type"], ["le", "x"], ["c", "ue"], ["prior", "ity"], ["init", "ializ"], ["coord", "in"], ["pl", "at"], ["bound", "s"], ["referen", "ces"], ["exec", "ut"], ["vi", "ty"], ["p", "ho"], ["clo", "ud"], ["d", "n"], ["plat", "form"], ["c", "ap"], ["sc", "an"], ["it", "es"], ["sco", "re"], ["si", "ve"], ["num", "er"], ["gro", "und"], ["di", "rection"], ["be", "cause"], ["cance", "l"], ["unt", "il"], ["f", "on"], ["registr", "y"], ["resol", "ved"], ["http", "s"], ["f", "it"], ["cook", "ie"], ["vis", "ible"], ["al", "t"], ["suf", "fix"], ["e", "ded"], ["ref", "resh"], ["ry", "pt"], ["dim", "ension"], ["load", "er"], ["me", "d"], ["b", "ed"], ["leg", "al"], ["ver", "ify"], ["am", "l"], ["command", "s"], ["ada", "pt"], ["marsh", "al"], ["gr", "id"], ["l", "d"], ["ke", "ep"], ["retri", "eve"], ["lo", "de"], ["re", "po"], ["li", "br"], ["certific", "ate"], ["tr", "a"], ["at", "om"], ["permission", "s"], ["exp", "and"], ["indi", "ces"], ["ro", "und"], ["en", "ame"], ["r", "ation"], ["del", "ta"], ["ag", "g"], ["h", "ol"], ["struct", "ure"], ["print", "ln"], ["contain", "ing"], ["pres", "s"], ["n", "d"], ["calcul", "ate"], ["l", "amb"], ["cach", "ed"], ["as", "on"], ["use", "s"], ["i", "ther"], ["else", "if"], ["cl", "a"], ["in", "vo"], ["res", "cue"], ["poss", "ible"], ["po", "inter"], ["h", "ex"], ["f", "rag"], ["nest", "ed"], ["uni", "code"], ["ip", "v"], ["time", "s"], ["p", "s"], ["con", "cat"], ["io", "exception"], ["e", "ts"], ["ret", "ry"], ["list", "s"], ["d", "ns"], ["service", "s"], ["pho", "to"], ["il", "legal"], ["ff", "ect"], ["comment", "s"], ["defin", "e"], ["pend", "ing"], ["c", "ast"], ["lamb", "da"], ["recor", "ds"], ["th", "resh"], ["component", "s"], ["h", "igh"], ["pre", "pare"], ["in", "clu"], ["amo", "unt"], ["p", "ing"], ["w", "w"], ["6", "0"], ["im", "p"], ["e", "very"], ["subscri", "ption"], ["match", "ing"], ["t", "d"], ["in", "ner"], ["ver", "bo"], ["sub", "ject"], ["g", "b"], ["d", "rop"], ["mi", "me"], ["feat", "ures"], ["ex", "clude"], ["v", "pn"], ["enum", "er"], ["d", "raw"], ["pro", "vision"], ["rel", "ated"], ["a", "cl"], ["at", "er"], ["z", "z"], ["vi", "de"], ["update", "d"], ["pix", "el"], ["f", "ast"], ["ce", "d"], ["idd", "en"], ["e", "ither"], ["sch", "ed"], ["de", "lay"], ["und", "er"], ["bro", "ker"], ["to", "m"], ["al", "ph"], ["back", "ground"], ["associ", "ation"], ["par", "ti"], ["http", "method"], ["cli", "ck"], ["in", "cre"], ["sh", "ot"], ["fi", "re"], ["the", "me"], ["4", "0"], ["listen", "ers"], ["c", "and"], ["sc", "al"], ["with", "in"], ["data", "set"], ["ma", "c"], ["ic", "le"], ["1", "1"], ["war", "d"], ["regist", "ered"], ["red", "u"], ["sub", "string"], ["al", "g"], ["way", "s"], ["hist", "ory"], ["response", "s"], ["name", "d"], ["ob", "ser"], ["r", "c"], ["var", "s"], ["me", "an"], ["sn", "ap"], ["w", "ant"], ["w", "are"], ["fo", "c"], ["s", "b"], ["mem", "bers"], ["ctr", "l"], ["c", "sv"], ["f", "ul"], ["in", "es"], ["to", "uch"], ["http", "path"], ["an", "ti"], ["date", "time"], ["do", "t"], ["link", "s"], ["task", "s"], ["ab", "out"], ["pe", "er"], ["process", "ing"], ["u", "de"], ["w", "er"], ["clo", "sed"], ["sign", "al"], ["dependenc", "ies"], ["qu", "o"], ["image", "s"], ["l", "a"], ["rad", "i"], ["ca", "pt"], ["ve", "lo"], ["en", "se"], ["man", "y"], ["ma", "ster"], ["i", "ce"], ["en", "s"], ["s", "he"], ["o", "se"], ["ro", "t"], ["n", "el"], ["al", "le"], ["c", "d"], ["2", "00"], ["normali", "ze"], ["version", "s"], ["char", "s"], ["bo", "ot"], ["sum", "mary"], ["bas", "ic"], ["does", "n"], ["y", "pe"], ["acti", "vity"], ["els", "if"], ["cand", "id"], ["re", "verse"], ["call", "able"], ["b", "ra"], ["ne", "eded"], ["stand", "ard"], ["agg", "reg"], ["eval", "u"], ["s", "av"], ["remo", "ved"], ["fact", "or"], ["us", "age"], ["iz", "er"], ["array", "s"], ["r", "at"], ["in", "v"], ["h", "int"], ["ck", "er"], ["extension", "s"], ["man", "if"], ["pre", "g"], ["do", "ut"], ["num", "py"], ["f", "all"], ["be", "st"], ["pipe", "line"], ["function", "s"], ["p", "adding"], ["b", "us"], ["l", "iter"], ["respon", "d"], ["l", "b"], ["um", "ul"], ["vis", "it"], ["fon", "t"], ["re", "r"], ["raise", "s"], ["fail", "ure"], ["credential", "s"], ["ast", "ic"], ["spec", "ial"], ["bu", "cket"], ["m", "idd"], ["midd", "le"], ["i", "ent"], ["user", "s"], ["metr", "ic"], ["ext", "er"], ["int", "en"], ["verbo", "se"], ["init", "ialize"], ["per", "cent"], ["1", "5"], ["li", "ed"], ["max", "imum"], ["fl", "ush"], ["un", "its"], ["p", "lot"], ["st", "dout"], ["snap", "shot"], ["ha", "vi"], ["pa", "gin"], ["be", "havi"], ["syn", "chron"], ["he", "al"], ["sh", "ip"], ["charact", "ers"], ["parti", "al"], ["h", "it"], ["b", "s"], ["ren", "de"], ["associ", "ated"], ["p", "id"], ["v", "1"], ["numer", "ic"], ["mem", "ory"], ["hy", "dr"], ["we", "ek"], ["b", "ad"], ["ti", "mer"], ["re", "ason"], ["on", "ce"], ["le", "m"], ["ro", "y"], ["v", "m"], ["assign", "ment"], ["re", "c"], ["exception", "s"], ["end", "s"], ["el", "astic"], ["dest", "roy"], ["config", "ured"], ["iter", "able"], ["put", "s"], ["attach", "ment"], ["ref", "lect"], ["con", "tr"], ["un", "marshal"], ["ab", "u"], ["v", "server"], ["l", "int"], ["thresh", "old"], ["art", "icle"], ["e", "ad"], ["re", "store"], ["fix", "ed"], ["re", "pe"], ["coun", "try"], ["libr", "ary"], ["check", "ed"], ["al", "ways"], ["mon", "itor"], ["gra", "de"], ["cat", "alog"], ["call", "s"], ["ap", "pro"], ["transl", "ation"], ["stri", "ct"], ["is", "on"], ["c", "m"], ["h", "ref"], ["ti", "le"], ["di", "alog"], ["m", "b"], ["inst", "ead"], ["fe", "rent"], ["rout", "er"], ["g", "p"], ["target", "s"], ["po", "se"], ["encode", "d"], ["op", "s"], ["y", "our"], ["sl", "ug"], ["sched", "ule"], ["key", "word"], ["bo", "th"], ["r", "f"], ["l", "on"], ["b", "ig"], ["mod", "ify"], ["dup", "lic"], ["de", "tect"], ["plugin", "s"], ["compar", "ison"], ["pro", "c"], ["al", "k"], ["in", "s"], ["spa", "ces"], ["m", "ig"], ["acc", "umul"], ["doc", "s"], ["dele", "ted"], ["annot", "ations"], ["the", "ir"], ["ve", "c"], ["d", "t"], ["proto", "type"], ["request", "ed"], ["v", "ing"], ["as", "c"], ["compi", "le"], ["tr", "ain"], ["sent", "ence"], ["b", "ul"], ["curren", "cy"], ["edge", "s"], ["i", "ck"], ["t", "ion"], ["r", "type"], ["adapt", "er"], ["al", "ign"], ["work", "ing"], ["heal", "th"], ["vide", "o"], ["map", "per"], ["manif", "est"], ["2", "4"], ["x", "x"], ["alg", "ori"], ["s", "3"], ["dy", "n"], ["mark", "er"], ["res", "er"], ["algori", "th"], ["y", "aml"], ["mo", "st"], ["not", "ify"], ["ro", "utes"], ["sto", "red"], ["ge", "d"], ["an", "other"], ["v", "lan"], ["exter", "nal"], ["defer", "red"], ["b", "a"], ["re", "ply"], ["hel", "p"], ["collection", "s"], ["me", "as"], ["dif", "ferent"], ["em", "bed"], ["lif", "e"], ["k", "l"], ["e", "ffect"], ["foc", "us"], ["recei", "ved"], ["gener", "ic"], ["h", "idden"], ["pre", "d"], ["cent", "er"], ["au", "d"], ["ver", "age"], ["u", "ally"], ["liter", "al"], ["ch", "art"], ["h", "i"], ["li", "ght"], ["pop", "ul"], ["take", "s"], ["hol", "der"], ["follow", "ing"], ["con", "sum"], ["conver", "ts"], ["quo", "te"], ["au", "di"], ["frag", "ment"], ["ma", "g"], ["re", "main"], ["ab", "str"], ["com", "pat"], ["v", "ation"], ["bot", "tom"], ["ib", "ility"], ["job", "s"], ["w", "d"], ["p", "x"], ["ne", "g"], ["fe", "ed"], ["ti", "ck"], ["match", "er"], ["an", "im"], ["com", "pa"], ["alph", "a"], ["block", "s"], ["seg", "ments"], ["dispatch", "es"], ["r", "gb"], ["che", "me"], ["i", "an"], ["wh", "at"], ["url", "s"], ["l", "az"], ["ref", "lection"], ["oper", "ations"], ["g", "ot"], ["format", "ter"], ["ent", "ities"], ["h", "our"], ["att", "en"], ["process", "or"], ["vert", "ex"], ["in", "ject"], ["3", "0"], ["coordin", "ates"], ["templ", "ates"], ["gener", "ated"], ["col", "s"], ["decor", "ator"], ["trans", "ition"], ["temp", "or"], ["di", "gest"], ["in", "line"], ["i", "re"], ["match", "ed"], ["bl", "ank"], ["s", "cheme"], ["she", "et"], ["custom", "er"], ["num", "bers"], ["day", "s"], ["author", "ization"], ["send", "er"], ["7", "5"], ["sha", "red"], ["algorith", "m"], ["ro", "ss"], ["r", "s"], ["role", "s"], ["arch", "ive"], ["equ", "i"], ["table", "s"], ["i", "i"], ["se", "p"], ["source", "s"], ["im", "al"], ["ho", "w"], ["dir", "name"], ["de", "prec"], ["d", "st"], ["prod", "u"], ["mi", "x"], ["c", "ut"], ["abstr", "act"], ["is", "o"], ["ic", "ally"], ["fo", "o"], ["co", "s"], ["sk", "ill"], ["en", "ded"], ["r", "pc"], ["org", "an"], ["c", "c"], ["incre", "ment"], ["start", "ing"], ["v", "ault"], ["behavi", "or"], ["index", "es"], ["ex", "pr"], ["audi", "o"], ["sample", "s"], ["not", "ification"], ["t", "cp"], ["de", "v"], ["con", "s"], ["pan", "e"], ["be", "ing"], ["o", "w"], ["u", "x"], ["ker", "nel"], ["1", "4"], ["normali", "zed"], ["read", "s"], ["s", "is"], ["p", "ret"], ["provi", "de"], ["play", "er"], ["accumul", "ates"], ["ali", "ty"], ["il", "t"], ["cont", "act"], ["fore", "ign"], ["com", "bin"], ["remo", "ves"], ["f", "ree"], ["need", "s"], ["l", "ar"], ["vi", "a"], ["enc", "y"], ["me", "try"], ["metr", "ics"], ["sh", "ell"], ["dis", "k"], ["code", "s"], ["g", "t"], ["ma", "il"], ["in", "f"], ["s", "qu"], ["po", "ly"], ["warn", "ings"], ["it", "ude"], ["00", "00"], ["ne", "cess"], ["f", "w"], ["bas", "ename"], ["int", "64"], ["constraint", "s"], ["vel", "y"], ["di", "str"], ["collect", "or"], ["v", "2"], ["wh", "ites"], ["state", "s"], ["ma", "inten"], ["sc", "en"], ["mainten", "ance"], ["the", "se"], ["su", "ch"], ["k", "nown"], ["fall", "back"], ["mo", "use"], ["bo", "ard"], ["fin", "ally"], ["il", "y"], ["lic", "it"], ["file", "path"], ["recur", "sive"], ["in", "str"], ["cor", "respon"], ["comp", "il"], ["for", "ward"], ["ipv", "6"], ["distr", "ib"], ["position", "s"], ["a", "wait"], ["to", "o"], ["qu", "ot"], ["host", "name"], ["continue", "s"], ["fl", "atten"], ["aud", "it"], ["current", "ly"], ["config", "ure"], ["bind", "ings"], ["mat", "er"], ["input", "s"], ["h", "s"], ["enumer", "ate"], ["dis", "c"], ["i", "v"], ["enc", "rypt"], ["config", "ur"], ["const", "ant"], ["p", "ad"], ["ma", "j"], ["radi", "us"], ["full", "y"], ["prom", "pt"], ["b", "lob"], ["extend", "s"], ["kl", "ass"], ["count", "s"], ["bu", "ilt"], ["un", "able"], ["meas", "ure"], ["connect", "ed"], ["ph", "ase"], ["for", "med"], ["callback", "s"], ["retri", "ev"], ["ifi", "ers"], ["5", "0"], ["pattern", "s"], ["sign", "ed"], ["proces", "sed"], ["3", "3"], ["syn", "tax"], ["transl", "ate"], ["step", "s"], ["necess", "ary"], ["remain", "ing"], ["whites", "pace"], ["deli", "m"], ["format", "ted"], ["p", "ull"], ["manage", "ment"], ["j", "e"], ["v", "r"], ["n", "ative"], ["sw", "ap"], ["back", "end"], ["ref", "s"], ["tool", "s"], ["call", "ing"], ["bul", "k"], ["sv", "c"], ["co", "st"], ["str", "len"], ["represent", "ation"], ["0", "1"], ["go", "og"], ["tr", "i"], ["p", "b"], ["up", "grade"], ["ex", "c"], ["en", "ces"], ["p", "ur"], ["chunk", "s"], ["loc", "ator"], ["windo", "ws"], ["sh", "ad"], ["l", "ate"], ["no", "thing"], ["cur", "l"], ["i", "18"], ["format", "s"], ["sc", "re"], ["cip", "her"], ["ch", "an"], ["is", "ion"], ["q", "uest"], ["in", "her"], ["in", "side"], ["de", "ep"], ["invo", "ke"], ["norm", "al"], ["definition", "s"], ["g", "g"], ["dyn", "am"], ["file", "system"], ["s", "d"], ["range", "s"], ["s", "ur"], ["ali", "ase"], ["can", "v"], ["b", "al"], ["laz", "y"], ["a", "de"], ["exp", "lode"], ["pi", "e"], ["nd", "array"], ["auto", "mat"], ["te", "am"], ["canv", "as"], ["std", "err"], ["include", "s"], ["spec", "ify"], ["load", "ing"], ["candid", "ate"], ["d", "ra"], ["rout", "ing"], ["lic", "ense"], ["b", "i"], ["w", "ild"], ["res", "ses"], ["sv", "g"], ["quest", "ion"], ["m", "ong"], ["feren", "ce"], ["out", "er"], ["f", "ac"], ["prev", "ent"], ["inspect", "s"], ["d", "en"], ["wo", "uld"], ["deploy", "ment"], ["part", "ic"], ["read", "able"], ["cur", "r"], ["min", "imum"], ["con", "v"], ["d", "ur"], ["ar", "n"], ["analy", "sis"], ["n", "x"], ["relation", "ship"], ["correspon", "ding"], ["en", "velo"], ["le", "ad"], ["dir", "s"], ["sl", "ash"], ["sup", "p"], ["5", "4"], ["x", "path"], ["consum", "er"], ["e", "cho"], ["t", "m"], ["geo", "metry"], ["ac", "cor"], ["starts", "with"], ["ev", "en"], ["repe", "at"], ["1", "3"], ["t", "tl"], ["resol", "ver"], ["stat", "ist"], ["w", "alk"], ["scre", "en"], ["ass", "ume"], ["app", "fw"], ["re", "vision"], ["100", "0"], ["po", "t"], ["sub", "mit"], ["un", "c"], ["c", "am"], ["na", "vi"], ["requi", "res"], ["ar", "o"], ["ho", "me"], ["x", "1"], ["on", "es"], ["watch", "er"], ["connection", "s"], ["redu", "ce"], ["sav", "ed"], ["rende", "rer"], ["base", "64"], ["style", "s"], ["gre", "ater"], ["str", "to"], ["pred", "ic"], ["je", "ction"], ["st", "age"], ["envelo", "pe"], ["red", "is"], ["accor", "ding"], ["ab", "ort"], ["date", "s"], ["load", "s"], ["tr", "an"], ["h", "ip"], ["goog", "le"], ["f", "ut"], ["c", "id"], ["qu", "al"], ["g", "n"], ["tx", "t"], ["b", "ill"], ["id", "ge"], ["disable", "d"], ["direct", "ories"], ["t", "un"], ["enco", "der"], ["pix", "els"], ["issue", "s"], ["distrib", "ution"], ["d", "id"], ["provid", "ers"], ["r", "ic"], ["pay", "ment"], ["not", "es"], ["se", "ed"], ["di", "ag"], ["ut", "c"], ["rat", "io"], ["j", "u"], ["af", "fi"], ["dele", "tes"], ["pt", "r"], ["rep", "lication"], ["float", "64"], ["di", "g"], ["pro", "gram"], ["weight", "s"], ["o", "auth"], ["fl", "at"], ["g", "ue"], ["cla", "use"], ["view", "s"], ["y", "y"], ["so", "und"], ["a", "red"], ["po", "ll"], ["vari", "ant"], ["ann", "er"], ["middle", "ware"], ["av", "oid"], ["get", "attr"], ["start", "ed"], ["i18", "n"], ["f", "req"], ["am", "az"], ["amaz", "on"], ["al", "er"], ["m", "m"], ["map", "s"], ["lif", "ec"], ["lifec", "y"], ["lifecy", "cle"], ["attempt", "s"], ["igno", "red"], ["pl", "ain"], ["reser", "ved"], ["capt", "ure"], ["allow", "s"], ["le", "ast"], ["g", "ation"], ["sub", "net"], ["cre", "ating"], ["inher", "it"], ["j", "b"], ["er", "a"], ["config", "s"], ["organ", "ization"], ["g", "h"], ["un", "lock"], ["wait", "ing"], ["st", "mt"], ["writ", "ten"], ["z", "es"], ["dec", "imal"], ["int", "ent"], ["ck", "ets"], ["n", "g"], ["ne", "igh"], ["regex", "p"], ["implement", "ation"], ["ific", "ations"], ["si", "bl"], ["fo", "li"], ["ld", "ap"], ["ad", "just"], ["deprec", "ated"], ["pa", "ren"], ["me", "sh"], ["dis", "co"], ["co", "me"], ["b", "el"], ["recei", "ver"], ["ur", "al"], ["ab", "o"], ["s", "il"], ["ent", "er"], ["m", "id"], ["z", "o"], ["ans", "wer"], ["str", "pos"], ["mo", "unt"], ["con", "fir"], ["categ", "ories"], ["a", "o"], ["h", "ide"], ["pn", "g"], ["replace", "ment"], ["registr", "ation"], ["b", "order"], ["um", "b"], ["1", "9"], ["p", "u"], ["c", "art"], ["ter", "ms"], ["inclu", "ded"], ["g", "l"], ["com", "ma"], ["cl", "d"], ["add", "resses"], ["manage", "d"], ["boot", "str"], ["work", "s"], ["md", "5"], ["d", "ash"], ["ex", "clu"], ["wi", "re"], ["me", "ans"], ["y", "et"], ["h", "r"], ["clo", "sing"], ["mater", "ial"], ["level", "s"], ["pri", "ce"], ["aliase", "s"], ["supp", "lied"], ["output", "s"], ["de", "t"], ["gr", "ad"], ["t", "t"], ["b", "and"], ["r", "m"], ["pk", "g"], ["ines", "s"], ["si", "ty"], ["neigh", "b"], ["port", "foli"], ["all", "er"], ["s", "an"], ["gate", "way"], ["color", "s"], ["indic", "ator"], ["or", "de"], ["gi", "th"], ["quer", "ies"], ["gith", "ub"], ["al", "led"], ["imp", "lode"], ["s", "le"], ["ance", "stor"], ["orde", "red"], ["dynam", "ic"], ["inst", "anti"], ["p", "df"], ["neg", "ative"], ["p", "w"], ["comple", "ted"], ["inst", "alled"], ["associ", "ate"], ["h", "old"], ["mong", "o"], ["ww", "w"], ["mig", "ration"], ["run", "s"], ["cell", "s"], ["fac", "ade"], ["oc", "curren"], ["pr", "in"], ["d", "rag"], ["wrap", "ped"], ["delim", "iter"], ["app", "lic"], ["ar", "ies"], ["document", "s"], ["ang", "ular"], ["bootstr", "ap"], ["zer", "os"], ["frame", "s"], ["le", "af"], ["prec", "ision"], ["exp", "licit"], ["g", "c"], ["pers", "on"], ["pro", "ced"], ["fol", "d"], ["ser", "ial"], ["m", "k"], ["state", "ments"], ["f", "ron"], ["b", "on"], ["log", "s"], ["clo", "sure"], ["string", "ify"], ["c", "ar"], ["ifi", "es"], ["un", "expected"], ["hel", "pers"], ["writ", "es"], ["iter", "ation"], ["c", "ross"], ["act", "or"], ["tr", "ail"], ["statist", "ics"], ["g", "ers"], ["confir", "m"], ["we", "re"], ["check", "ing"], ["persist", "ence"], ["pres", "sed"], ["predic", "ate"], ["q", "l"], ["sle", "ep"], ["se", "ver"], ["compa", "ct"], ["n", "an"], ["duplic", "ate"], ["25", "6"], ["parent", "s"], ["vi", "p"], ["t", "re"], ["f", "li"], ["opt", "im"], ["am", "pl"], ["iter", "ate"], ["prin", "cip"], ["s", "lo"], ["t", "c"], ["ci", "i"], ["r", "ank"], ["dig", "its"], ["frame", "work"], ["de", "si"], ["ag", "r"], ["tl", "s"], ["d", "u"], ["the", "ta"], ["n", "at"], ["device", "s"], ["elastic", "search"], ["comm", "un"], ["fut", "ure"], ["h", "or"], ["com", "po"], ["c", "ing"], ["finish", "ed"], ["ph", "one"], ["li", "es"], ["le", "s"], ["as", "sets"], ["convert", "ed"], ["f", "d"], ["r", "ub"], ["logic", "al"], ["thread", "s"], ["lat", "er"], ["bus", "iness"], ["reg", "ular"], ["clean", "up"], ["v", "ot"], ["sty", "pe"], ["00", "0"], ["reco", "gn"], ["form", "s"], ["u", "pt"], ["et", "c"], ["b", "g"], ["si", "st"], ["w", "ave"], ["policy", "label"], ["val", "s"], ["hour", "s"], ["m", "r"], ["a", "verage"], ["t", "wi"], ["st", "ill"], ["wh", "ite"], ["f", "p"], ["par", "sing"], ["trans", "fer"], ["wh", "o"], ["desi", "red"], ["o", "th"], ["w", "p"], ["ex", "act"], ["export", "s"], ["as", "cii"], ["m", "ight"], ["tr", "unc"], ["det", "ach"], ["scope", "s"], ["rot", "ation"], ["ag", "ing"], ["re", "ach"], ["scen", "e"], ["l", "st"], ["si", "vely"], ["in", "k"], ["fron", "t"], ["cho", "ice"], ["dispatch", "er"], ["res", "ize"], ["symbol", "s"], ["prob", "lem"], ["e", "f"], ["reference", "d"], ["de", "serialize"], ["az", "z"], ["md", "l"], ["ss", "h"], ["m", "ill"], ["f", "ab"], ["g", "ui"], ["place", "holder"], ["cli", "p"], ["hi", "er"], ["c", "mp"], ["attach", "ments"], ["char", "set"], ["portfoli", "o"], ["ret", "val"], ["ri", "pt"], ["ne", "ss"], ["language", "s"], ["cn", "abu"], ["cre", "ation"], ["d", "d"], ["pair", "s"], ["rece", "ive"], ["str", "ateg"], ["strateg", "y"], ["h", "al"], ["sup", "press"], ["sh", "ut"], ["work", "space"], ["mod", "ifier"], ["p", "do"], ["al", "loc"], ["let", "on"], ["it", "ive"], ["mut", "able"], ["conver", "ter"], ["initializ", "ed"], ["gener", "al"], ["con", "sist"], ["ar", "row"], ["aggreg", "ation"], ["abo", "ve"], ["merge", "d"], ["rel", "ations"], ["maj", "or"], ["tr", "ies"], ["channel", "s"], ["sh", "are"], ["appro", "pri"], ["g", "sub"], ["cl", "azz"], ["ali", "ze"], ["o", "jb"], ["im", "pl"], ["ba", "sel"], ["e", "ol"], ["vis", "ibility"], ["cy", "cle"], ["min", "utes"], ["de", "co"], ["c", "ame"], ["appropri", "ate"], ["path", "name"], ["gue", "ss"], ["package", "s"], ["f", "ra"], ["direct", "ly"], ["c", "ity"], ["endpoint", "s"], ["re", "name"], ["re", "v"], ["x", "2"], ["si", "zes"], ["r", "ds"], ["sc", "anner"], ["br", "idge"], ["re", "load"], ["ion", "s"], ["over", "write"], ["recur", "sively"], ["expi", "res"], ["feren", "ces"], ["con", "su"], ["lay", "ers"], ["trail", "ing"], ["o", "ct"], ["x", "0"], ["u", "ction"], ["uint", "32"], ["h", "ub"], ["1", "7"], ["offset", "s"], ["sub", "st"], ["ap", "sed"], ["alle", "l"], ["find", "er"], ["8", "0"], ["m", "ic"], ["p", "in"], ["25", "5"], ["a", "j"], ["ple", "ase"], ["l", "ap"], ["dur", "ing"], ["se", "ct"], ["ver", "ti"], ["pre", "pa"], ["po", "l"], ["el", "y"], ["high", "light"], ["c", "lock"], ["read", "ing"], ["pagin", "ation"], ["2", "2"], ["dimension", "s"], ["li", "ce"], ["un", "supported"], ["re", "write"], ["75", "54"], ["c", "py"], ["m", "ir"], ["pre", "view"], ["end", "ing"], ["ev", "t"], ["li", "ct"], ["link", "ed"], ["down", "stream"], ["v", "end"], ["handl", "ing"], ["equi", "pa"], ["h", "um"], ["r", "ing"], ["do", "cker"], ["sim", "il"], ["ce", "ption"], ["g", "ame"], ["equipa", "ment"], ["example", "s"], ["si", "x"], ["mark", "ed"], ["se", "en"], ["serializ", "ed"], ["be", "low"], ["de", "sign"], ["h", "5"], ["x", "hr"], ["basel", "ine"], ["ch", "ro"], ["co", "or"], ["un", "ch"], ["fe", "red"], ["aro", "und"], ["parse", "s"], ["ser", "vers"], ["sq", "rt"], ["gr", "ant"], ["db", "c"], ["s", "at"], ["hydr", "ated"], ["compi", "led"], ["im", "mediate"], ["simil", "ar"], ["port", "s"], ["cor", "p"], ["conf", "lict"], ["s", "of"], ["r", "hs"], ["f", "at"], ["an", "ded"], ["ar", "ia"], ["ad", "v"], ["r", "or"], ["z", "a"], ["sto", "res"], ["co", "lo"], ["return", "ing"], ["up", "dat"], ["retriev", "es"], ["fab", "ric"], ["pre", "fer"], ["posit", "ive"], ["cook", "ies"], ["char", "m"], ["mark", "s"], ["host", "s"], ["wild", "card"], ["type", "d"], ["execut", "or"], ["may", "be"], ["co", "pi"], ["transform", "er"], ["j", "dbc"], ["h", "app"], ["di", "git"], ["hook", "s"], ["tr", "ust"], ["db", "cluster"], ["see", "k"], ["so", "meth"], ["ori", "ent"], ["contr", "act"], ["pos", "ite"], ["compat", "ible"], ["dis", "card"], ["il", "ities"], ["id", "le"], ["make", "s"], ["someth", "ing"], ["pa", "ces"], ["coor", "ds"], ["check", "sum"], ["spe", "ed"], ["work", "flow"], ["to", "k"], ["oc", "cur"], ["has", "attr"], ["sol", "ution"], ["san", "it"], ["be", "at"], ["contin", "u"], ["hier", "arch"], ["ag", "ain"], ["bl", "ue"], ["k", "now"], ["g", "vr"], ["or", "ter"], ["cam", "era"], ["de", "ad"], ["ub", "e"], ["utf", "8"], ["asc", "ript"], ["annot", "ate"], ["ex", "change"], ["contain", "ers"], ["buf", "fered"], ["lar", "ge"], ["n", "n"], ["specific", "ation"], ["proced", "ure"], ["com", "b"], ["99", "99"], ["th", "ose"], ["t", "urn"], ["vend", "or"], ["com", "ing"], ["scal", "er"], ["mapp", "ings"], ["d", "c"], ["pi", "cker"], ["sof", "t"], ["cla", "im"], ["con", "version"], ["sibl", "ing"], ["provision", "ing"], ["mt", "as"], ["d", "j"], ["h", "ig"], ["rf", "c"], ["sec", "ure"], ["disc", "u"], ["pret", "ty"], ["ti", "p"], ["rout", "ine"], ["st", "an"], ["per", "m"], ["me", "l"], ["t", "pl"], ["fi", "ci"], ["cn", "t"], ["t", "or"], ["resol", "ution"], ["zo", "om"], ["e", "of"], ["coordin", "ate"], ["tempor", "ary"], ["compil", "er"], ["o", "pa"], ["face", "t"], ["discu", "ssion"], ["jav", "ascript"], ["esca", "ped"], ["ou", "gh"], ["squ", "are"], ["t", "ain"], ["f", "ur"], ["deli", "very"], ["bel", "ong"], ["c", "pe"], ["de", "g"], ["6", "6"], ["i", "ves"], ["e", "g"], ["build", "s"], ["run", "ner"], ["pan", "el"], ["id", "er"], ["l", "s"], ["pl", "us"], ["partic", "ular"], ["cr", "it"], ["p", "d"], ["flo", "or"], ["mic", "ro"], ["up", "on"], ["interface", "s"], ["k", "i"], ["mill", "is"], ["y", "s"], ["writ", "able"], ["pi", "ck"], ["az", "ure"], ["p", "en"], ["automat", "ically"], ["writ", "ing"], ["n", "t"], ["p", "1"], ["pre", "f"], ["map", "ped"], ["l", "and"], ["evalu", "ate"], ["ipv", "4"], ["serializ", "er"], ["sp", "lice"], ["li", "ve"], ["w", "ell"], ["obser", "v"], ["c", "rop"], ["n", "u"], ["determin", "es"], ["indi", "vid"], ["find", "s"], ["i", "ces"], ["hor", "iz"], ["dele", "gate"], ["navi", "gation"], ["ver", "b"], ["mo", "le"], ["i", "me"], ["en", "for"], ["late", "st"], ["st", "e"], ["b", "c"], ["p", "2"], ["rub", "y"], ["persist", "ent"], ["mir", "ror"], ["to", "gg"], ["5", "8"], ["as", "se"], ["al", "tern"], ["ma", "ker"], ["freq", "u"], ["import", "s"], ["is", "n"], ["shad", "ow"], ["anim", "ation"], ["g", "s"], ["un", "pack"], ["r", "df"], ["transl", "ator"], ["inclu", "ding"], ["dat", "as"], ["equipament", "o"], ["bal", "ance"], ["est", "im"], ["f", "am"], ["st", "ro"], ["ob", "tain"], ["fur", "ther"], ["strto", "lower"], ["anch", "or"], ["re", "pos"], ["retri", "es"], ["encrypt", "ed"], ["c", "wd"], ["z", "ap"], ["affi", "c"], ["able", "s"], ["ti", "m"], ["mole", "c"], ["cur", "ve"], ["r", "v"], ["imple", "ments"], ["r", "b"], ["t", "abs"], ["prefix", "es"], ["ens", "itive"], ["rep", "lic"], ["pe", "t"], ["st", "ar"], ["co", "ur"], ["princip", "al"], ["z", "ation"], ["r", "x"], ["act", "ually"], ["sim", "ul"], ["names", "paces"], ["synchron", "ized"], ["er", "ce"], ["wr", "ong"], ["sol", "r"], ["ang", "o"], ["sever", "ity"], ["get", "ting"], ["bl", "ack"], ["fi", "d"], ["ac", "y"], ["shut", "down"], ["track", "er"], ["embed", "ded"], ["throw", "able"], ["vert", "ical"], ["expression", "s"], ["ss", "m"], ["gen", "e"], ["respon", "der"], ["init", "i"], ["b", "le"], ["fici", "ent"], ["aut", "om"], ["horiz", "on"], ["f", "name"], ["transl", "ations"], ["time", "zone"], ["j", "id"], ["analy", "si"], ["analysi", "stype"], ["int", "err"], ["de", "velo"], ["applic", "ations"], ["m", "il"], ["script", "s"], ["consu", "me"], ["in", "verse"], ["vis", "itor"], ["service", "group"], ["sm", "all"], ["hand", "led"], ["hash", "es"], ["analy", "t"], ["arg", "v"], ["ab", "ilities"], ["pres", "er"], ["transform", "ation"], ["dra", "ft"], ["new", "line"], ["aa", "a"], ["pl", "ural"], ["line", "ar"], ["polic", "ies"], ["aj", "ax"], ["r", "d"], ["in", "i"], ["acti", "v"], ["dep", "s"], ["sp", "ans"], ["cho", "ices"], ["remo", "ving"], ["d", "um"], ["schedule", "d"], ["au", "x"], ["si", "p"], ["la", "unch"], ["qu", "anti"], ["success", "ful"], ["par", "allel"], ["report", "s"], ["u", "c"], ["contr", "ib"], ["m", "arg"], ["net", "scaler"], ["interr", "upt"], ["attach", "ed"], ["separ", "ated"], ["app", "lied"], ["th", "ree"], ["tra", "ject"], ["configur", "ations"], ["sequ", "ences"], ["note", "book"], ["sub", "set"], ["ne", "ver"], ["li", "m"], ["pop", "up"], ["h", "its"], ["author", "s"], ["candid", "ates"], ["pe", "ar"], ["inte", "rest"], ["code", "c"], ["vari", "ance"], ["m", "f"], ["com", "posite"], ["implement", "ed"], ["individ", "ual"], ["hydr", "ate"], ["re", "cent"], ["3", "6"], ["send", "s"], ["l", "t"], ["exp", "anded"], ["tx", "n"], ["class", "name"], ["ext", "ent"], ["0", "2"], ["publish", "ed"], ["ten", "ant"], ["depend", "ent"], ["g", "au"], ["s", "alt"], ["colo", "ur"], ["key", "words"], ["equ", "ip"], ["po", "d"], ["expi", "red"], ["verti", "ces"], ["subst", "it"], ["be", "ta"], ["inter", "section"], ["roll", "back"], ["en", "g"], ["hy", "per"], ["d", "l"], ["access", "or"], ["n", "av"], ["delete", "resources"], ["b", "b"], ["subscri", "be"], ["scal", "ar"], ["train", "ing"], ["min", "or"], ["de", "s"], ["success", "fully"], ["ali", "ve"], ["bill", "ing"], ["pr", "f"], ["locale", "s"], ["agr", "aph"], ["compar", "ator"], ["bs", "on"], ["db", "instance"], ["uint", "64"], ["n", "1"], ["prepa", "red"], ["loc", "ali"], ["ut", "ility"], ["termin", "al"], ["ct", "ype"], ["sr", "v"], ["secret", "s"], ["c", "as"], ["m", "or"], ["send", "ing"], ["co", "g"], ["pie", "ce"], ["can", "on"], ["lead", "ing"], ["k", "a"], ["glob", "als"], ["w", "t"], ["pre", "diction"], ["back", "trace"], ["over", "lap"], ["2", "d"], ["ax", "es"], ["dif", "ference"], ["f", "k"], ["stan", "za"], ["it", "self"], ["dir", "ty"], ["so", "ck"], ["w", "k"], ["stream", "s"], ["par", "agraph"], ["not", "ifications"], ["sing", "leton"], ["k", "ill"], ["po", "wer"], ["ud", "p"], ["check", "er"], ["th", "ings"], ["togg", "le"], ["war", "ds"], ["regist", "ers"], ["bro", "ad"], ["co", "verage"], ["up", "loaded"], ["3", "9"], ["ge", "m"], ["fl", "ash"], ["app", "s"], ["en", "o"], ["hal", "f"], ["pagin", "ator"], ["comb", "ine"], ["dec", "rypt"], ["invo", "c"], ["x", "p"], ["ch", "a"], ["an", "no"], ["aler", "t"], ["ment", "al"], ["il", "s"], ["be", "am"], ["indic", "ates"], ["d", "ue"], ["use", "ful"], ["g", "a"], ["percent", "age"], ["n", "r"], ["bound", "ary"], ["p", "q"], ["serializ", "ation"], ["v", "s"], ["expi", "ration"], ["at", "ype"], ["t", "w"], ["inte", "gr"], ["context", "s"], ["ex", "plan"], ["sn", "mp"], ["ent", "ion"], ["k", "ing"], ["class", "ifier"], ["fam", "ily"], ["s", "ampl"], ["provision", "ed"], ["instr", "uction"], ["uint", "8"], ["partition", "s"], ["popul", "ate"], ["m", "and"], ["sco", "res"], ["d", "x"], ["direct", "ive"], ["condition", "al"], ["qual", "ified"], ["do", "i"], ["ss", "o"], ["sy", "ll"], ["w", "l"], ["dele", "tion"], ["t", "ap"], ["lat", "itude"], ["text", "ure"], ["h", "dr"], ["w", "b"], ["mp", "x"], ["an", "on"], ["gre", "en"], ["mk", "dir"], ["or", "th"], ["e", "q"], ["com", "pression"], ["network", "api"], ["rende", "red"], ["c", "raw"], ["th", "umb"], ["go", "ing"], ["q", "p"], ["cert", "ain"], ["com", "pressed"], ["ci", "rc"], ["ext", "ended"], ["in", "coming"], ["connect", "or"], ["over", "flow"], ["ex", "peri"], ["any", "thing"], ["ob", "server"], ["long", "itude"], ["s", "mo"], ["g", "sl"], ["sig", "ma"], ["pre", "ferences"], ["trig", "gers"], ["g", "zip"], ["i", "x"], ["access", "ible"], ["4", "8"], ["project", "s"], ["comple", "tion"], ["dis", "connect"], ["go", "od"], ["opa", "city"], ["fat", "al"], ["l", "c"], ["prefer", "red"], ["in", "c"], ["quot", "es"], ["author", "ized"], ["atom", "ic"], ["mp", "p"], ["qu", "ad"], ["deco", "der"], ["40", "4"], ["tuple", "s"], ["u", "ff"], ["sc", "a"], ["stro", "ke"], ["assign", "ed"], ["g", "ap"], ["in", "fin"], ["com", "press"], ["declar", "ations"], ["pro", "pa"], ["fra", "ction"], ["es", "lint"], ["decl", "ared"], ["qu", "i"], ["cog", "nit"], ["f", "ar"], ["o", "data"], ["w", "ater"], ["der", "i"], ["mix", "ed"], ["ends", "with"], ["ph", "i"], ["col", "on"], ["m", "v"], ["g", "y"], ["y", "1"], ["tempor", "al"], ["p", "g"], ["me", "mo"], ["g", "on"], ["hum", "an"], ["marg", "in"], ["inter", "sect"], ["recor", "der"], ["let", "ter"], ["ry", "ption"], ["p", "m"], ["who", "le"], ["acti", "vation"], ["con", "c"], ["hint", "s"], ["ff", "ff"], ["gau", "ss"], ["9", "0"], ["loc", "ations"], ["fl", "ux"], ["tor", "rent"], ["f", "ri"], ["ct", "o"], ["q", "t"], ["te", "ction"], ["h", "ar"], ["w", "all"], ["branch", "es"], ["ty", "p"], ["mag", "ic"], ["gp", "f"], ["tag", "ged"], ["qu", "ality"], ["begin", "ning"], ["option", "ally"], ["loc", "als"], ["support", "s"], ["frequ", "ency"], ["cip", "ient"], ["un", "ion"], ["unset", "resources"], ["client", "s"], ["re", "cipient"], ["bundle", "s"], ["cognit", "o"], ["authentic", "ated"], ["get", "ter"], ["inter", "n"], ["vari", "ants"], ["co", "upon"], ["gre", "es"], ["sub", "mission"], ["molec", "ule"], ["ip", "address"], ["ser", "v"], ["perform", "s"], ["im", "mutable"], ["re", "view"], ["accept", "ed"], ["val", "ent"], ["sh", "ard"], ["ti", "ce"], ["ad", "j"], ["mark", "down"], ["ap", "pear"], ["log", "ged"], ["separ", "ate"], ["gsl", "b"], ["gro", "u"], ["associ", "ations"], ["de", "grees"], ["n", "w"], ["sing", "ular"], ["exclu", "ded"], ["orient", "ation"], ["lo", "ss"], ["s", "id"], ["float", "32"], ["dj", "ango"], ["provide", "s"], ["ca", "ption"], ["over", "lay"], ["mil", "li"], ["mut", "ex"], ["def", "s"], ["traject", "ory"], ["pri", "mit"], ["mpx", "j"], ["app", "lies"], ["every", "thing"], ["en", "h"], ["n", "ick"], ["horizon", "tal"], ["k", "it"], ["queue", "s"], ["sil", "ent"], ["cap", "ac"], ["execut", "able"], ["pan", "ic"], ["ser", "ts"], ["i", "om"], ["su", "g"], ["g", "am"], ["poly", "gon"], ["section", "s"], ["depend", "ing"], ["ap", "point"], ["rt", "l"], ["render", "ing"], ["c", "sr"], ["ac", "er"], ["ta", "ken"], ["m", "g"], ["spe", "ction"], ["p", "p"], ["initializ", "es"], ["int", "32"], ["ex", "ponent"], ["as", "pect"], ["is", "m"], ["p", "and"], ["hierarch", "y"], ["commun", "ic"], ["d", "h"], ["3", "5"], ["ef", "ficient"], ["ph", "ra"], ["lem", "ma"], ["ly", "ing"], ["lex", "ception"], ["w", "ind"], ["inter", "pol"], ["ele", "ms"], ["x", "mpp"], ["s", "1"], ["sh", "r"], ["open", "ed"], ["bra", "ckets"], ["inspect", "or"], ["combin", "ed"], ["canon", "ical"], ["ax", "iom"], ["rot", "ate"], ["mach", "ines"], ["j", "ar"], ["el", "apsed"], ["a", "ffect"], ["su", "res"], ["p", "se"], ["came", "l"], ["b", "t"], ["re", "connect"], ["ch", "r"], ["asy", "n"], ["res", "ume"], ["func", "s"], ["spa", "wn"], ["post", "s"], ["cre", "ator"], ["l", "gc"], ["pre", "dict"], ["5", "00"], ["sk", "y"], ["concat", "en"], ["vi", "ol"], ["o", "me"], ["oc", "c"], ["i", "q"], ["bin", "s"], ["occurren", "ce"], ["lo", "ver"], ["gi", "ve"], ["par", "a"], ["stop", "ped"], ["s", "pr"], ["s", "f"], ["broad", "cast"], ["sub", "class"], ["asse", "mb"], ["trans", "formed"], ["adv", "ance"], ["co", "ver"], ["pe", "ak"], ["expi", "re"], ["assert", "ion"], ["li", "er"], ["defin", "es"], ["en", "abu"], ["sug", "gest"], ["y", "es"], ["s", "en"], ["r", "am"], ["ir", "d"], ["accept", "s"], ["button", "s"], ["oper", "and"], ["bon", "d"], ["o", "e"], ["n", "ii"], ["enc", "ryption"], ["wi", "ki"], ["pa", "use"], ["token", "izer"], ["ho", "t"], ["under", "lying"], ["execut", "ed"], ["export", "ed"], ["mel", "is"], ["calcul", "ates"], ["le", "ave"], ["sym", "bo"], ["equi", "valent"], ["int", "ro"], ["ous", "ly"], ["scal", "ing"], ["grad", "ient"], ["em", "on"], ["pe", "ek"], ["bra", "cket"], ["r", "ame"], ["tr", "affic"], ["represent", "s"], ["ap", "o"], ["de", "tected"], ["ra", "ils"], ["info", "s"], ["asyn", "chron"], ["account", "s"], ["new", "s"], ["po", "w"], ["author", "izer"], ["qu", "ick"], ["re", "strict"], ["authentic", "ate"], ["inv", "ent"], ["quanti", "ty"], ["system", "s"], ["g", "uid"], ["vect", "ors"], ["ident", "ifiers"], ["i", "pa"], ["mess", "aging"], ["st", "ub"], ["clust", "ers"], ["out", "bound"], ["slo", "ts"], ["s", "x"], ["open", "ing"], ["visit", "ed"], ["p", "up"], ["autom", "ation"], ["amb", "ient"], ["disco", "very"], ["hist", "o"], ["replic", "a"], ["b", "read"], ["pro", "files"], ["c", "ud"], ["comm", "its"], ["av", "ing"], ["work", "ers"], ["f", "ing"], ["exec", "utes"], ["mut", "ation"], ["fail", "s"], ["m", "u"], ["quot", "ed"], ["a", "head"], ["g", "uest"], ["to", "t"], ["analyt", "ics"], ["und", "ers"], ["ar", "io"], ["2", "3"], ["pi", "vot"], ["tick", "s"], ["close", "st"], ["bound", "ing"], ["promise", "s"], ["sampl", "ing"], ["s", "age"], ["lock", "ed"], ["ce", "ptor"], ["ma", "de"], ["lo", "pt"], ["li", "k"], ["popul", "ation"], ["schem", "as"], ["pre", "pend"], ["ord", "in"], ["pre", "ad"], ["sca", "led"], ["try", "ing"], ["sort", "ing"], ["da", "emon"], ["mark", "up"], ["document", "ation"], ["mod", "ifiers"], ["ph", "ing"], ["lb", "vserver"], ["clo", "ser"], ["4", "4"], ["raise", "d"], ["d", "na"], ["dat", "atype"], ["members", "hip"], ["neighb", "ors"], ["j", "ump"], ["gener", "ation"], ["c", "ab"], ["fig", "ure"], ["belong", "s"], ["override", "s"], ["control", "l"], ["k", "v"], ["preser", "ve"], ["tool", "tip"], ["add", "on"], ["cr", "l"], ["build", "ing"], ["capac", "ity"], ["app", "flow"], ["ar", "c"], ["vis", "or"], ["comput", "es"], ["invoc", "ation"], ["instanti", "ate"], ["q", "b"], ["ul", "er"], ["index", "ed"], ["ui", "5"], ["ln", "g"], ["histo", "gram"], ["replace", "d"], ["product", "s"], ["un", "used"], ["ed", "b"], ["t", "z"], ["invent", "ory"], ["uni", "x"], ["select", "ors"], ["v", "l"], ["end", "ian"], ["pie", "ces"], ["null", "able"], ["valid", "ated"], ["log", "y"], ["primit", "ive"], ["coll", "ap"], ["ra", "ck"], ["fold", "ers"], ["syll", "able"], ["require", "ments"], ["domain", "s"], ["atom", "s"], ["we", "st"], ["indic", "ate"], ["happ", "en"], ["pres", "ence"], ["g", "z"], ["ac", "ross"], ["effect", "ive"], ["lib", "s"], ["al", "ong"], ["ch", "at"], ["b", "um"], ["decor", "ated"], ["t", "ic"], ["d", "ers"], ["track", "s"], ["re", "pr"], ["a", "io"], ["un", "ce"], ["rad", "io"], ["in", "et"], ["wh", "ose"], ["compo", "ser"], ["dat", "um"], ["grou", "ped"], ["sd", "k"], ["dump", "s"], ["transform", "s"], ["hold", "ers"], ["tim", "ing"], ["termin", "ate"], ["previous", "ly"], ["ref", "er"], ["ent", "ire"], ["if", "rame"], ["en", "sures"], ["ast", "ype"], ["7", "7"], ["sto", "ck"], ["mult", "ip"], ["ws", "gi"], ["rec", "v"], ["mod", "al"], ["touch", "es"], ["lan", "e"], ["deri", "ved"], ["s", "pread"], ["spa", "cing"], ["gen", "us"], ["fli", "ck"], ["z", "0"], ["h", "mm"], ["for", "war"], ["look", "s"], ["filename", "s"], ["in", "fer"], ["r", "al"], ["explan", "ation"], ["asso", "c"], ["tax", "on"], ["pe", "g"], ["ap", "ic"], ["a", "pe"], ["occurren", "ces"], ["ip", "y"], ["pl", "t"], ["b", "ank"], ["pro", "mo"], ["al", "bum"], ["pand", "as"], ["aa", "aa"], ["inv", "ok"], ["in", "jection"], ["urn", "al"], ["set", "ter"], ["f", "lex"], ["l", "u"], ["regex", "es"], ["out", "side"], ["bol", "d"], ["sent", "ences"], ["updat", "ing"], ["sanit", "ize"], ["pa", "let"], ["fix", "er"], ["gam", "ma"], ["compil", "ation"], ["am", "i"], ["lin", "eno"], ["d", "ry"], ["vpn", "global"], ["itor", "ies"], ["app", "ing"], ["cor", "relation"], ["th", "r"], ["controll", "ers"], ["i", "ed"], ["mask", "ed"], ["phra", "se"], ["cal", "ib"], ["anon", "y"], ["month", "s"], ["fa", "ke"], ["re", "start"], ["t", "ell"], ["explicit", "ly"], ["copi", "ed"], ["3", "4"], ["at", "ar"], ["r", "ating"], ["bet", "ter"], ["dum", "my"], ["delete", "resource"], ["v", "4"], ["print", "s"], ["g", "aller"], ["en", "ough"], ["un", "ct"], ["10", "24"], ["check", "box"], ["whe", "el"], ["std", "in"], ["iter", "ations"], ["photo", "s"], ["avail", "ability"], ["aggreg", "ate"], ["inter", "action"], ["l", "ag"], ["sq", "lexception"], ["po", "sed"], ["unset", "resource"], ["perform", "ance"], ["wor", "ld"], ["c", "ards"], ["cud", "nn"], ["ambient", "e"], ["immediate", "ly"], ["alle", "le"], ["c", "x"], ["z", "wave"], ["int", "f"], ["bus", "y"], ["volume", "s"], ["length", "s"], ["mod", "ification"], ["inter", "pret"], ["y", "in"], ["emit", "ter"], ["pass", "ing"], ["non", "ce"], ["po", "po"], ["n", "y"], ["mo", "us"], ["p", "or"], ["vo", "te"], ["tra", "verse"], ["ct", "or"], ["ip", "s"], ["r", "ti"], ["certific", "ates"], ["in", "bound"], ["err", "s"], ["inter", "ceptor"], ["n", "l"], ["no", "me"], ["ab", "ol"], ["i", "er"], ["2", "7"], ["oth", "ers"], ["shad", "er"], ["f", "le"], ["prob", "ability"], ["block", "ing"], ["met", "abol"], ["log", "policy"], ["crit", "ical"], ["tem", "per"], ["test", "s"], ["anony", "mous"], ["simul", "ated"], ["leg", "acy"], ["check", "out"], ["in", "sn"], ["res", "se"], ["ch", "n"], ["3", "1"], ["smo", "oth"], ["a", "es"], ["g", "row"], ["der", "iv"], ["co", "don"], ["s", "ale"], ["mo", "ved"], ["get", "filtered"], ["su", "ite"], ["decode", "d"], ["ec", "2"], ["qui", "et"], ["wid", "gets"], ["ig", "u"], ["ci", "r"], ["phase", "d"], ["12", "8"], ["fli", "p"], ["cons", "ider"], ["sc", "r"], ["de", "cre"], ["cho", "ose"], ["rele", "v"], ["libr", "aries"], ["s", "ong"], ["e", "asy"], ["scen", "ario"], ["6", "7"], ["ut", "ter"], ["cur", "lopt"], ["pup", "pet"], ["ab", "ly"], ["li", "ze"], ["spl", "its"], ["di", "al"], ["extract", "ed"], ["ob", "s"], ["spec", "s"], ["prob", "le"], ["sub", "process"], ["ju", "ju"], ["fetch", "ed"], ["list", "ing"], ["con", "ven"], ["repos", "itories"], ["ver", "ification"], ["ve", "red"], ["process", "ors"], ["compat", "ibility"], ["gauss", "ian"], ["provision", "er"], ["in", "serts"], ["com", "pose"], ["i", "vely"], ["m", "gt"], ["hel", "lo"], ["e", "e"], ["proper", "ly"], ["ve", "loc"], ["pi", "ct"], ["incre", "ase"], ["io", "c"], ["search", "es"], ["skip", "ped"], ["no", "st"], ["fire", "wall"], ["al", "go"], ["replace", "s"], ["session", "s"], ["co", "efficient"], ["sur", "face"], ["ow", "l"], ["gr", "up"], ["uni", "q"], ["ident", "ify"], ["acti", "vate"], ["calcul", "ated"], ["h", "aving"], ["n", "v"], ["ad", "resse"], ["s", "ay"], ["li", "g"], ["b", "en"], ["aio", "xmpp"], ["mime", "type"], ["to", "pt"], ["description", "s"], ["no", "tice"], ["interrupt", "ed"], ["come", "s"], ["medi", "um"], ["fri", "end"], ["top", "ics"], ["ce", "il"], ["skill", "s"], ["tran", "script"], ["r", "2"], ["ad", "o"], ["ro", "id"], ["pro", "pos"], ["s", "port"], ["com", "position"], ["sav", "es"], ["t", "le"], ["obser", "ved"], ["cir", "cle"], ["resh", "ape"], ["ne", "are"], ["vers", "al"], ["foo", "ter"], ["tun", "ing"], ["mor", "ph"], ["f", "if"], ["json", "object"], ["install", "ation"], ["import", "ed"], ["h", "mac"], ["cl", "us"], ["de", "mo"], ["x", "s"], ["grup", "o"], ["flick", "r"], ["y", "2"], ["l", "it"], ["h", "ap"], ["eng", "lish"], ["assign", "ments"], ["he", "st"], ["root", "s"], ["h", "ard"], ["vo", "cab"], ["i", "contact"], ["equip", "ment"], ["re", "act"], ["u", "th"], ["interval", "s"], ["i", "ence"], ["hol", "ds"], ["de", "vi"], ["alph", "ab"], ["i", "pt"], ["b", "log"], ["s", "2"], ["le", "e"], ["lon", "ger"], ["re", "member"], ["pro", "jection"], ["galler", "y"], ["fing", "er"], ["se", "ason"], ["re", "comm"], ["hig", "hest"], ["palet", "te"], ["is", "land"], ["appoint", "ment"], ["sum", "mar"], ["8", "8"], ["w", "on"], ["sha", "1"], ["jo", "urnal"], ["v", "x"], ["st", "ation"], ["db", "snapshot"], ["in", "spection"], ["claim", "s"], ["rect", "angle"], ["ren", "ders"], ["ord", "ers"], ["g", "d"], ["sha", "256"], ["diag", "nost"], ["tri", "ple"], ["lim", "its"], ["as", "n1"], ["correct", "ly"], ["queue", "d"], ["vpn", "vserver"], ["yield", "s"], ["pe", "ers"], ["seed", "s"], ["li", "ance"], ["bal", "an"], ["built", "in"], ["relev", "ant"], ["limit", "ed"], ["neare", "st"], ["ve", "st"], ["inherit", "ed"], ["de", "register"], ["5", "9"], ["csr", "f"], ["y", "o"], ["e", "2"], ["s", "item"], ["dict", "s"], ["v", "v"], ["chro", "me"], ["drop", "down"], ["sat", "is"], ["s", "parse"], ["c", "are"], ["cour", "se"], ["pre", "ference"], ["graph", "ic"], ["t", "k"], ["insert", "ed"], ["at", "h"], ["le", "ar"], ["x", "r"], ["result", "ing"], ["u", "ation"], ["un", "ary"], ["twi", "g"], ["to", "day"], ["n", "ex"], ["j", "wt"], ["work", "team"], ["look", "ing"], ["den", "sity"], ["poll", "ing"], ["pur", "ge"], ["contain", "ed"], ["relationship", "s"], ["strip", "ped"], ["sc", "at"], ["lear", "ning"], ["d", "p"], ["b", "box"], ["un", "checked"], ["anno", "unce"], ["decl", "are"], ["suc", "ce"], ["mag", "nit"], ["magnit", "ude"], ["d", "matrix"], ["ar", "m"], ["fil", "led"], ["un", "st"], ["f", "h"], ["off", "er"], ["4", "00"], ["sitem", "ap"], ["import", "ant"], ["enco", "un"], ["duplic", "ates"], ["e", "1"], ["life", "time"], ["reach", "ed"], ["craw", "l"], ["n", "ail"], ["b", "one"], ["fin", "e"], ["r", "ho"], ["su", "it"], ["mig", "r"], ["g", "id"], ["ist", "ic"], ["err", "no"], ["commun", "ity"], ["block", "ly"], ["key", "board"], ["m", "al"], ["av", "es"], ["pre", "set"], ["initializ", "ation"], ["region", "s"], ["av", "g"], ["wrap", "s"], ["loc", "ate"], ["p", "unct"], ["network", "s"], ["width", "s"], ["pe", "m"], ["descriptor", "s"], ["con", "fid"], ["str", "conv"], ["collap", "se"], ["desc", "end"], ["s", "ites"], ["estim", "ate"], ["m", "ass"], ["par", "s"], ["track", "ing"], ["transl", "ated"], ["feed", "back"], ["g", "as"], ["t", "1"], ["ch", "em"], ["enfor", "ces"], ["gram", "mar"], ["text", "s"], ["inf", "of"], ["xy", "z"], ["capt", "cha"], ["initializ", "er"], ["cert", "key"], ["selection", "s"], ["fin", "ite"], ["min", "im"], ["time", "phased"], ["loop", "s"], ["sub", "tree"], ["gest", "ure"], ["re", "action"], ["calendar", "s"], ["ret", "e"], ["ann", "ed"], ["uint", "16"], ["extract", "or"], ["ph", "an"], ["ep", "g"], ["at", "ts"], ["publish", "er"], ["white", "list"], ["un", "shift"], ["ill", "a"], ["fif", "o"], ["ro", "om"], ["sol", "ver"], ["y", "ar"], ["proble", "ms"], ["util", "ities"], ["re", "actions"], ["down", "case"], ["un", "e"], ["debug", "f"], ["lik", "ely"], ["ra", "vel"], ["evalu", "ation"], ["dash", "board"], ["c", "1"], ["append", "s"], ["do", "s"], ["play", "list"], ["extract", "s"], ["di", "a"], ["f", "its"], ["acl", "6"], ["align", "ment"], ["comm", "erce"], ["me", "ter"], ["annot", "ated"], ["sup", "ple"], ["all", "en"], ["gen", "es"], ["ser", "ve"], ["suit", "able"], ["syn", "the"], ["res", "pect"], ["re", "ally"], ["bt", "n"], ["io", "error"], ["vo", "x"], ["st", "s"], ["analy", "ze"], ["i", "mat"], ["alphab", "et"], ["affect", "ed"], ["d", "m"], ["un", "safe"], ["ab", "el"], ["tr", "ap"], ["av", "atar"], ["track", "ed"], ["s", "wi"], ["p", "lo"], ["k", "nx"], ["ializ", "ed"], ["spl", "ash"], ["per", "mit"], ["alloc", "ate"], ["k", "s"], ["ach", "e"], ["trust", "ed"], ["9", "6"], ["gi", "ck"], ["x", "ff"], ["run", "n"], ["hig", "her"], ["np", "m"], ["radi", "ans"], ["expect", "s"], ["lo", "an"], ["arch", "i"], ["detect", "or"], ["transform", "ers"], ["adj", "ac"], ["end", "er"], ["combin", "ation"], ["do", "ck"], ["neighb", "or"], ["web", "driver"], ["ge", "ther"], ["temper", "ature"], ["calib", "ration"], ["substit", "ution"], ["infin", "ity"], ["hy", "ph"], ["debug", "ging"], ["order", "ing"], ["l", "hs"], ["no", "ise"], ["s", "mar"], ["cr", "umb"], ["ta", "u"], ["un", "register"], ["re", "pl"], ["stop", "s"], ["stop", "ping"], ["sim", "ply"], ["20", "15"], ["a", "e"], ["x", "so"], ["ov", "s"], ["look", "ahead"], ["milli", "seconds"], ["mo", "bi"], ["e", "as"], ["0", "4"], ["an", "e"], ["observ", "ations"], ["t", "f"], ["ro", "s"], ["require", "ment"], ["ho", "we"], ["howe", "ver"], ["p", "itch"], ["sample", "d"], ["conven", "ience"], ["to", "gether"], ["deli", "ver"], ["y", "0"], ["foc", "used"], ["count", "ers"], ["place", "ment"], ["plan", "e"], ["m", "q"], ["in", "vert"], ["fetch", "ing"], ["interpol", "ation"], ["skip", "ping"], ["t", "ds"], ["frag", "ments"], ["subscription", "s"], ["form", "ul"], ["3", "7"], ["view", "port"], ["ut", "or"], ["tre", "es"], ["browser", "s"], ["web", "hook"], ["mix", "in"], ["produ", "cer"], ["face", "book"], ["ar", "ti"], ["cal", "lee"], ["me", "chan"], ["d", "ic"], ["min", "ute"], ["2", "6"], ["free", "ze"], ["3", "8"], ["c", "ry"], ["enh", "ance"], ["m", "time"], ["ident", "ified"], ["at", "ures"], ["un", "signed"], ["ph", "ys"], ["v", "3"], ["rat", "her"], ["conv", "ention"], ["on", "ed"], ["fail", "ures"], ["sign", "ing"], ["ak", "er"], ["pe", "l"], ["n", "am"], ["su", "do"], ["se", "man"], ["5", "12"], ["co", "res"], ["gr", "unt"], ["class", "ification"], ["group", "name"], ["spl", "ine"], ["t", "id"], ["sign", "atures"], ["version", "ed"], ["r", "u"], ["s", "ensitive"], ["w", "af"], ["at", "able"], ["str", "ong"], ["trunc", "ate"], ["g", "dn"], ["p", "ip"], ["g", "al"], ["report", "ing"], ["lo", "west"], ["batch", "es"], ["en", "force"], ["copi", "es"], ["n", "sip"], ["set", "default"], ["re", "stri"], ["restri", "ction"], ["pop", "bill"], ["box", "es"], ["di", "vision"], ["edit", "able"], ["num", "type"], ["throw", "n"], ["ins", "ensitive"], ["to", "ler"], ["sm", "art"], ["sim", "pl"], ["g", "opt"], ["execut", "ing"], ["re", "boot"], ["z", "end"], ["imp", "licit"], ["ar", "i"], ["json", "rpc"], ["ap", "is"], ["addr", "s"], ["author", "ize"], ["continu", "ation"], ["experi", "mental"], ["synchron", "ous"], ["integr", "ation"], ["do", "ing"], ["gr", "ab"], ["j", "i"], ["attrib", "s"], ["b", "ag"], ["vi", "cto"], ["victo", "ire"], ["data", "frame"], ["e", "tag"], ["token", "ize"], ["tre", "at"], ["se", "xp"], ["af", "ka"], ["g", "ray"], ["yar", "pc"], ["exact", "ly"], ["y", "ml"], ["member", "of"], ["se", "em"], ["mo", "ves"], ["cancel", "led"], ["am", "qp"], ["ac", "qu"], ["valid", "ity"], ["de", "m"], ["cl", "en"], ["ac", "ing"], ["wh", "y"], ["le", "ment"], ["es", "s"], ["locali", "zed"], ["co", "variance"], ["oauth", "2"], ["copy", "right"], ["cr", "on"], ["co", "e"], ["n", "ice"], ["unders", "core"], ["al", "one"], ["k", "afka"], ["descri", "b"], ["spr", "ite"], ["in", "ct"], ["one", "y"], ["r", "1"], ["se", "topt"], ["f", "g"], ["t", "b"], ["con", "vol"], ["environ", "ments"], ["defin", "ing"], ["ma", "ge"], ["c", "v"], ["en", "queue"], ["effect", "s"], ["s", "g"], ["g", "old"], ["patch", "es"], ["veloc", "ity"], ["pro", "x"], ["artifact", "s"], ["develo", "p"], ["dis", "associate"], ["n", "or"], ["ho", "od"], ["pa", "int"], ["ur", "len"], ["discussion", "s"], ["trim", "med"], ["h", "rf"], ["v", "pc"], ["ep", "iso"], ["p", "to"], ["fetch", "es"], ["appro", "x"], ["re", "ver"], ["scat", "ter"], ["fit", "ting"], ["cor", "r"], ["per", "ms"], ["m", "c"], ["gi", "ves"], ["h", "u"], ["w", "al"], ["so", "ap"], ["acer", "t"], ["gu", "ard"], ["2", "8"], ["fl", "ask"], ["mat", "ter"], ["con", "side"], ["construct", "s"], ["down", "loaded"], ["configur", "ator"], ["place", "holders"], ["multi", "part"], ["b", "j"], ["pse", "u"], ["res", "id"], ["co", "erce"], ["ign", "or"], ["3", "d"], ["mode", "s"], ["mo", "z"], ["my", "sql"], ["compo", "und"], ["se", "mi"], ["group", "ing"], ["co", "routine"], ["sh", "op"], ["pres", "sure"], ["poss", "ib"], ["format", "ting"], ["con", "j"], ["s", "un"], ["5", "5"], ["squ", "ared"], ["s", "ke"], ["iz", "ing"], ["pseu", "do"], ["is", "file"], ["inclu", "sive"], ["k", "unst"], ["kunst", "ma"], ["kunstma", "an"], ["pt", "s"], ["synchron", "ize"], ["a", "1"], ["prob", "ably"], ["c", "2"], ["db", "id"], ["propa", "gation"], ["pre", "p"], ["ab", "lish"], ["ap", "on"], ["instr", "ument"], ["dist", "inct"], ["ancestor", "s"], ["soft", "ware"], ["gen", "o"], ["equ", "ation"], ["propos", "al"], ["we", "apon"], ["it", "o"], ["ch",
[...]
